{
  "version": "1.0",
  "truncation": {
    "direction": "Left",
    "max_length": 32,
    "strategy": "LongestFirst",
    "stride": 0
  },
  "padding": {
    "strategy": {
      "Fixed": 32
    },
    "direction": "Left",
    "pad_to_multiple_of": null,
    "pad_id": 0,
    "pad_type_id": 0,
    "pad_token": "<pad>"
  },
  "added_tokens": [
    {
      "id": 0,
      "content": "<pad>",
      "single_word": false,
      "lstrip": false,
      "rstrip": false,
      "normalized": false,
      "special": true
    },
    {
      "id": 1,
      "content": "<sos>",
      "single_word": false,
      "lstrip": false,
      "rstrip": false,
      "normalized": false,
      "special": true
    },
    {
      "id": 2,
      "content": "<eos>",
      "single_word": false,
      "lstrip": false,
      "rstrip": false,
      "normalized": false,
      "special": true
    },
    {
      "id": 3,
      "content": "<unk>",
      "single_word": false,
      "lstrip": false,
      "rstrip": false,
      "normalized": false,
      "special": true
    }
  ],
  "normalizer": null,
  "pre_tokenizer": {
    "type": "Whitespace"
  },
  "post_processor": null,
  "decoder": {
    "type": "BPEDecoder",
    "suffix": "</w>"
  },
  "model": {
    "type": "BPE",
    "dropout": null,
    "unk_token": "<unk>",
    "continuing_subword_prefix": null,
    "end_of_word_suffix": null,
    "fuse_unk": false,
    "byte_fallback": false,
    "ignore_merges": false,
    "vocab": {
      "<pad>": 0,
      "<sos>": 1,
      "<eos>": 2,
      "<unk>": 3,
      "0": 4,
      "1": 5,
      "2": 6,
      "3": 7,
      "4": 8,
      "5": 9,
      "6": 10,
      "7": 11,
      "8": 12,
      "9": 13,
      "<": 14,
      ">": 15,
      "a": 16,
      "b": 17,
      "c": 18,
      "d": 19,
      "e": 20,
      "f": 21,
      "g": 22,
      "h": 23,
      "i": 24,
      "j": 25,
      "k": 26,
      "l": 27,
      "m": 28,
      "n": 29,
      "o": 30,
      "p": 31,
      "q": 32,
      "r": 33,
      "s": 34,
      "t": 35,
      "u": 36,
      "v": 37,
      "w": 38,
      "x": 39,
      "y": 40,
      "z": 41,
      "": 42,
      "": 43,
      "": 44,
      "©": 45,
      "«": 46,
      "­": 47,
      "®": 48,
      "°": 49,
      "²": 50,
      "µ": 51,
      "·": 52,
      "º": 53,
      "½": 54,
      "à": 55,
      "â": 56,
      "ã": 57,
      "ä": 58,
      "ç": 59,
      "è": 60,
      "é": 61,
      "ê": 62,
      "ë": 63,
      "í": 64,
      "î": 65,
      "ï": 66,
      "ñ": 67,
      "ò": 68,
      "ô": 69,
      "ö": 70,
      "ø": 71,
      "–": 72,
      "—": 73,
      "‘": 74,
      "’": 75,
      "•": 76,
      "…": 77,
      "€": 78,
      "⇒": 79,
      "−": 80,
      "▪": 81,
      "◦": 82,
      "os": 83,
      "in": 84,
      "on": 85,
      "re": 86,
      "er": 87,
      "sos": 88,
      "eos": 89,
      "an": 90,
      "es": 91,
      "ti": 92,
      "or": 93,
      "al": 94,
      "ed": 95,
      "en": 96,
      "ar": 97,
      "st": 98,
      "ro": 99,
      "ing": 100,
      "at": 101,
      "tion": 102,
      "ic": 103,
      "ad": 104,
      "ts": 105,
      "co": 106,
      "pro": 107,
      "li": 108,
      "ec": 109,
      "por": 110,
      "00": 111,
      "el": 112,
      "il": 113,
      "as": 114,
      "du": 115,
      "ac": 116,
      "et": 117,
      "ation": 118,
      "ent": 119,
      "od": 120,
      "it": 121,
      "un": 122,
      "is": 123,
      "fo": 124,
      "im": 125,
      "su": 126,
      "ag": 127,
      "le": 128,
      "con": 129,
      "ch": 130,
      "ex": 131,
      "duc": 132,
      "tr": 133,
      "port": 134,
      "ap": 135,
      "ur": 136,
      "ers": 137,
      "th": 138,
      "produc": 139,
      "str": 140,
      "ly": 141,
      "food": 142,
      "can": 143,
      "ul": 144,
      "200": 145,
      "di": 146,
      "res": 147,
      "de": 148,
      "lo": 149,
      "com": 150,
      "canad": 151,
      "ab": 152,
      "us": 153,
      "ig": 154,
      "mar": 155,
      "and": 156,
      "op": 157,
      "ce": 158,
      "mark": 159,
      "om": 160,
      "sh": 161,
      "am": 162,
      "ment": 163,
      "ve": 164,
      "qu": 165,
      "si": 166,
      "ri": 167,
      "inc": 168,
      "est": 169,
      "products": 170,
      "ess": 171,
      "ear": 172,
      "ate": 173,
      "ot": 174,
      "ol": 175,
      "illi": 176,
      "ain": 177,
      "ter": 178,
      "pl": 179,
      "illion": 180,
      "market": 181,
      "tic": 182,
      "me": 183,
      "ver": 184,
      "ff": 185,
      "import": 186,
      "ian": 187,
      "ies": 188,
      "ure": 189,
      "ports": 190,
      "canada": 191,
      "ect": 192,
      "ric": 193,
      "vi": 194,
      "reas": 195,
      "ay": 196,
      "sp": 197,
      "se": 198,
      "comp": 199,
      "19": 200,
      "ut": 201,
      "coun": 202,
      "em": 203,
      "ity": 204,
      "ant": 205,
      "so": 206,
      "red": 207,
      "ra": 208,
      "per": 209,
      "ast": 210,
      "ne": 211,
      "million": 212,
      "um": 213,
      "canadian": 214,
      "ents": 215,
      "wor": 216,
      "for": 217,
      "go": 218,
      "gro": 219,
      "age": 220,
      "vel": 221,
      "id": 222,
      "ia": 223,
      "trad": 224,
      "ail": 225,
      "ial": 226,
      "igh": 227,
      "consu": 228,
      "reg": 229,
      "ir": 230,
      "ated": 231,
      "ph": 232,
      "all": 233,
      "fic": 234,
      "countr": 235,
      "ren": 236,
      "gh": 237,
      "increas": 238,
      "act": 239,
      "lu": 240,
      "au": 241,
      "val": 242,
      "onom": 243,
      "no": 244,
      "ine": 245,
      "cont": 246,
      "consum": 247,
      "year": 248,
      "ult": 249,
      "export": 250,
      "able": 251,
      "pp": 252,
      "par": 253,
      "ser": 254,
      "end": 255,
      "ion": 256,
      "ge": 257,
      "low": 258,
      "cess": 259,
      "ak": 260,
      "pe": 261,
      "br": 262,
      "trade": 263,
      "ign": 264,
      "he": 265,
      "ob": 266,
      "ations": 267,
      "be": 268,
      "ili": 269,
      "lar": 270,
      "serv": 271,
      "ib": 272,
      "form": 273,
      "grow": 274,
      "comm": 275,
      "av": 276,
      "indu": 277,
      "gr": 278,
      "rec": 279,
      "stry": 280,
      "ties": 281,
      "ty": 282,
      "inter": 283,
      "ong": 284,
      "exp": 285,
      "ber": 286,
      "agric": 287,
      "ally": 288,
      "agricult": 289,
      "man": 290,
      "tive": 291,
      "imports": 292,
      "valu": 293,
      "chin": 294,
      "exports": 295,
      "ational": 296,
      "ater": 297,
      "new": 298,
      "min": 299,
      "ans": 300,
      "ard": 301,
      "spec": 302,
      "high": 303,
      "compan": 304,
      "fr": 305,
      "gan": 306,
      "ding": 307,
      "ous": 308,
      "country": 309,
      "iz": 310,
      "pres": 311,
      "ist": 312,
      "jap": 313,
      "ma": 314,
      "indi": 315,
      "national": 316,
      "ance": 317,
      "industry": 318,
      "qui": 319,
      "ates": 320,
      "ack": 321,
      "po": 322,
      "int": 323,
      "gen": 324,
      "ore": 325,
      "199": 326,
      "iv": 327,
      "pos": 328,
      "ary": 329,
      "japan": 330,
      "isra": 331,
      "dec": 332,
      "pop": 333,
      "der": 334,
      "imported": 335,
      "cer": 336,
      "tot": 337,
      "la": 338,
      "process": 339,
      "loc": 340,
      "inclu": 341,
      "cor": 342,
      "oc": 343,
      "ech": 344,
      "ors": 345,
      "fe": 346,
      "popul": 347,
      "velop": 348,
      "agri": 349,
      "develop": 350,
      "cad": 351,
      "10": 352,
      "ght": 353,
      "gy": 354,
      "bas": 355,
      "ory": 356,
      "product": 357,
      "cent": 358,
      "ci": 359,
      "ific": 360,
      "value": 361,
      "ural": 362,
      "total": 363,
      "mon": 364,
      "pre": 365,
      "tel": 366,
      "pr": 367,
      "ke": 368,
      "main": 369,
      "ice": 370,
      "ish": 371,
      "we": 372,
      "organ": 373,
      "econom": 374,
      "ld": 375,
      "sal": 376,
      "years": 377,
      "sect": 378,
      "ted": 379,
      "up": 380,
      "ments": 381,
      "ell": 382,
      "are": 383,
      "ai": 384,
      "ese": 385,
      "ip": 386,
      "enti": 387,
      "des": 388,
      "ets": 389,
      "ence": 390,
      "fact": 391,
      "ret": 392,
      "brand": 393,
      "agrifood": 394,
      "china": 395,
      "astr": 396,
      "billion": 397,
      "tions": 398,
      "2005": 399,
      "growth": 400,
      "2004": 401,
      "ely": 402,
      "supp": 403,
      "bo": 404,
      "les": 405,
      "production": 406,
      "lab": 407,
      "ang": 408,
      "fore": 409,
      "ace": 410,
      "alth": 411,
      "astronom": 412,
      "ded": 413,
      "ces": 414,
      "pric": 415,
      "good": 416,
      "mo": 417,
      "bus": 418,
      "world": 419,
      "light": 420,
      "vern": 421,
      "vis": 422,
      "govern": 423,
      "land": 424,
      "meat": 425,
      "ari": 426,
      "to": 427,
      "000": 428,
      "israel": 429,
      "bi": 430,
      "nu": 431,
      "ton": 432,
      "requi": 433,
      "ical": 434,
      "ms": 435,
      "lic": 436,
      "inform": 437,
      "fi": 438,
      "off": 439,
      "earch": 440,
      "sing": 441,
      "region": 442,
      "iness": 443,
      "ected": 444,
      "20": 445,
      "sion": 446,
      "cur": 447,
      "health": 448,
      "2000": 449,
      "business": 450,
      "wn": 451,
      "foods": 452,
      "foreign": 453,
      "cap": 454,
      "15": 455,
      "rent": 456,
      "distr": 457,
      "verage": 458,
      "sector": 459,
      "ited": 460,
      "research": 461,
      "information": 462,
      "dom": 463,
      "dis": 464,
      "inv": 465,
      "international": 466,
      "2003": 467,
      "markets": 468,
      "maj": 469,
      "ok": 470,
      "hol": 471,
      "observ": 472,
      "government": 473,
      "companies": 474,
      "ub": 475,
      "lish": 476,
      "sub": 477,
      "ind": 478,
      "agriculture": 479,
      "india": 480,
      "2001": 481,
      "major": 482,
      "ition": 483,
      "star": 484,
      "larg": 485,
      "13": 486,
      "gre": 487,
      "af": 488,
      "ite": 489,
      "population": 490,
      "ach": 491,
      "distrib": 492,
      "18": 493,
      "te": 494,
      "cu": 495,
      "dr": 496,
      "fa": 497,
      "ption": 498,
      "und": 499,
      "nor": 500,
      "provi": 501,
      "uc": 502,
      "ines": 503,
      "increasing": 504,
      "gener": 505,
      "countries": 506,
      "work": 507,
      "ities": 508,
      "appro": 509,
      "als": 510,
      "mand": 511,
      "read": 512,
      "agricultural": 513,
      "sec": 514,
      "ern": 515,
      "past": 516,
      "col": 517,
      "stand": 518,
      "echno": 519,
      "atory": 520,
      "regul": 521,
      "shall": 522,
      "ati": 523,
      "local": 524,
      "sign": 525,
      "sour": 526,
      "app": 527,
      "met": 528,
      "ze": 529,
      "echnolo": 530,
      "fin": 531,
      "cl": 532,
      "uth": 533,
      "ris": 534,
      "ys": 535,
      "tific": 536,
      "num": 537,
      "eng": 538,
      "fru": 539,
      "tain": 540,
      "retail": 541,
      "mal": 542,
      "nam": 543,
      "fish": 544,
      "med": 545,
      "goods": 546,
      "part": 547,
      "pack": 548,
      "ca": 549,
      "pur": 550,
      "consumers": 551,
      "get": 552,
      "tim": 553,
      "ase": 554,
      "sea": 555,
      "12": 556,
      "car": 557,
      "fre": 558,
      "fres": 559,
      "oil": 560,
      "ide": 561,
      "led": 562,
      "rect": 563,
      "use": 564,
      "qual": 565,
      "ven": 566,
      "development": 567,
      "2002": 568,
      "aw": 569,
      "demand": 570,
      "fresh": 571,
      "sm": 572,
      "fol": 573,
      "sales": 574,
      "ju": 575,
      "south": 576,
      "manu": 577,
      "50": 578,
      "2006": 579,
      "oper": 580,
      "present": 581,
      "ices": 582,
      "appl": 583,
      "eff": 584,
      "ution": 585,
      "follow": 586,
      "ds": 587,
      "super": 588,
      "increase": 589,
      "echnology": 590,
      "ating": 591,
      "our": 592,
      "16": 593,
      "consumer": 594,
      "pri": 595,
      "phili": 596,
      "gu": 597,
      "manufact": 598,
      "consi": 599,
      "large": 600,
      "ivers": 601,
      "consumption": 602,
      "philipp": 603,
      "pt": 604,
      "univers": 605,
      "increased": 606,
      "ass": 607,
      "sur": 608,
      "ight": 609,
      "bu": 610,
      "14": 611,
      "suppli": 612,
      "largest": 613,
      "report": 614,
      "average": 615,
      "ew": 616,
      "ick": 617,
      "rest": 618,
      "arm": 619,
      "inu": 620,
      "inf": 621,
      "worth": 622,
      "ved": 623,
      "resp": 624,
      "ks": 625,
      "net": 626,
      "trans": 627,
      "ffe": 628,
      "enc": 629,
      "ility": 630,
      "quality": 631,
      "hal": 632,
      "singap": 633,
      "time": 634,
      "tit": 635,
      "ens": 636,
      "vol": 637,
      "its": 638,
      "ry": 639,
      "ures": 640,
      "esco": 641,
      "ages": 642,
      "certific": 643,
      "ange": 644,
      "singapore": 645,
      "ily": 646,
      "cos": 647,
      "exporters": 648,
      "avail": 649,
      "cre": 650,
      "imp": 651,
      "direct": 652,
      "air": 653,
      "continu": 654,
      "ban": 655,
      "out": 656,
      "telesco": 657,
      "require": 658,
      "economic": 659,
      "23": 660,
      "annu": 661,
      "north": 662,
      "mater": 663,
      "pub": 664,
      "ins": 665,
      "fl": 666,
      "material": 667,
      "aff": 668,
      "rel": 669,
      "grap": 670,
      "her": 671,
      "viet": 672,
      "ef": 673,
      "tics": 674,
      "ble": 675,
      "sto": 676,
      "stu": 677,
      "current": 678,
      "ays": 679,
      "do": 680,
      "25": 681,
      "fer": 682,
      "orig": 683,
      "ants": 684,
      "united": 685,
      "partic": 686,
      "ards": 687,
      "company": 688,
      "mil": 689,
      "estab": 690,
      "decreas": 691,
      "based": 692,
      "sy": 693,
      "austr": 694,
      "observatory": 695,
      "number": 696,
      "pa": 697,
      "pers": 698,
      "struc": 699,
      "price": 700,
      "fied": 701,
      "issu": 702,
      "fruit": 703,
      "17": 704,
      "mod": 705,
      "establish": 706,
      "ting": 707,
      "include": 708,
      "accoun": 709,
      "compe": 710,
      "organic": 711,
      "small": 712,
      "origin": 713,
      "austral": 714,
      "ves": 715,
      "vers": 716,
      "veget": 717,
      "east": 718,
      "ond": 719,
      "capit": 720,
      "portun": 721,
      "opportun": 722,
      "expected": 723,
      "vietnam": 724,
      "ission": 725,
      "mini": 726,
      "30": 727,
      "lim": 728,
      "come": 729,
      "including": 730,
      "pot": 731,
      "ta": 732,
      "ately": 733,
      "key": 734,
      "det": 735,
      "ection": 736,
      "cust": 737,
      "custom": 738,
      "west": 739,
      "water": 740,
      "estic": 741,
      "graph": 742,
      "cal": 743,
      "states": 744,
      "sia": 745,
      "ories": 746,
      "invest": 747,
      "level": 748,
      "processed": 749,
      "biot": 750,
      "tari": 751,
      "accor": 752,
      "peri": 753,
      "fro": 754,
      "pol": 755,
      "tre": 756,
      "ones": 757,
      "aged": 758,
      "ains": 759,
      "ects": 760,
      "processing": 761,
      "tons": 762,
      "zen": 763,
      "addi": 764,
      "growing": 765,
      "malay": 766,
      "hel": 767,
      "ized": 768,
      "frozen": 769,
      "line": 770,
      "24": 771,
      "ger": 772,
      "fax": 773,
      "ered": 774,
      "ety": 775,
      "telescope": 776,
      "70": 777,
      "eds": 778,
      "seafood": 779,
      "manufacture": 780,
      "cial": 781,
      "eu": 782,
      "fir": 783,
      "eli": 784,
      "stores": 785,
      "11": 786,
      "urn": 787,
      "ular": 788,
      "vely": 789,
      "dp": 790,
      "hous": 791,
      "ery": 792,
      "like": 793,
      "chinese": 794,
      "economy": 795,
      "annual": 796,
      "asia": 797,
      "amer": 798,
      "domestic": 799,
      "kno": 800,
      "over": 801,
      "service": 802,
      "60": 803,
      "prov": 804,
      "group": 805,
      "services": 806,
      "regulations": 807,
      "signific": 808,
      "ful": 809,
      "ability": 810,
      "play": 811,
      "sul": 812,
      "purch": 813,
      "rate": 814,
      "order": 815,
      "une": 816,
      "cho": 817,
      "ture": 818,
      "xim": 819,
      "label": 820,
      "estim": 821,
      "adv": 822,
      "applic": 823,
      "person": 824,
      "vari": 825,
      "special": 826,
      "pasta": 827,
      "atis": 828,
      "philippines": 829,
      "depart": 830,
      "significant": 831,
      "ise": 832,
      "plant": 833,
      "australia": 834,
      "gar": 835,
      "jo": 836,
      "contr": 837,
      "distribution": 838,
      "addition": 839,
      "ative": 840,
      "tical": 841,
      "distribut": 842,
      "anim": 843,
      "ship": 844,
      "malaysia": 845,
      "bar": 846,
      "lead": 847,
      "old": 848,
      "soci": 849,
      "sci": 850,
      "gdp": 851,
      "hong": 852,
      "size": 853,
      "gg": 854,
      "ium": 855,
      "recent": 856,
      "general": 857,
      "source": 858,
      "university": 859,
      "cr": 860,
      "map": 861,
      "sa": 862,
      "ateg": 863,
      "meas": 864,
      "requirements": 865,
      "cle": 866,
      "kong": 867,
      "list": 868,
      "rad": 869,
      "view": 870,
      "available": 871,
      "resul": 872,
      "thail": 873,
      "stration": 874,
      "ems": 875,
      "thailand": 876,
      "second": 877,
      "competi": 878,
      "ume": 879,
      "standards": 880,
      "ft": 881,
      "fam": 882,
      "non": 883,
      "access": 884,
      "important": 885,
      "priv": 886,
      "stud": 887,
      "opportunities": 888,
      "remain": 889,
      "indones": 890,
      "areas": 891,
      "fac": 892,
      "fast": 893,
      "contain": 894,
      "popular": 895,
      "ced": 896,
      "ling": 897,
      "reach": 898,
      "dep": 899,
      "japanese": 900,
      "volume": 901,
      "ient": 902,
      "suc": 903,
      "agre": 904,
      "equi": 905,
      "king": 906,
      "gram": 907,
      "dri": 908,
      "heat": 909,
      "ization": 910,
      "public": 911,
      "nes": 912,
      "……": 913,
      "anti": 914,
      "state": 915,
      "gal": 916,
      "ho": 917,
      "statis": 918,
      "att": 919,
      "perm": 920,
      "israeli": 921,
      "lin": 922,
      "one": 923,
      "rop": 924,
      "ending": 925,
      "prices": 926,
      "40": 927,
      "nat": 928,
      "industr": 929,
      "specific": 930,
      "prim": 931,
      "hy": 932,
      "income": 933,
      "liv": 934,
      "vir": 935,
      "vision": 936,
      "stars": 937,
      "sau": 938,
      "under": 939,
      "free": 940,
      "materials": 941,
      "euro": 942,
      "department": 943,
      "dat": 944,
      "tively": 945,
      "strong": 946,
      "contact": 947,
      "commer": 948,
      "35": 949,
      "80": 950,
      "wh": 951,
      "uring": 952,
      "marketing": 953,
      "astronomers": 954,
      "halal": 955,
      "100": 956,
      "bri": 957,
      "ky": 958,
      "long": 959,
      "wheat": 960,
      "que": 961,
      "share": 962,
      "auth": 963,
      "peop": 964,
      "respon": 965,
      "capita": 966,
      "biotechnology": 967,
      "fil": 968,
      "ject": 969,
      "commod": 970,
      "americ": 971,
      "ograph": 972,
      "phys": 973,
      "represent": 974,
      "icy": 975,
      "provide": 976,
      "tariff": 977,
      "according": 978,
      "manufacturer": 979,
      "ord": 980,
      "ste": 981,
      "ock": 982,
      "house": 983,
      "own": 984,
      "tak": 985,
      "assi": 986,
      "ables": 987,
      "plan": 988,
      "particular": 989,
      "indonesia": 990,
      "26": 991,
      "farm": 992,
      "kore": 993,
      "ni": 994,
      "table": 995,
      "chil": 996,
      "way": 997,
      "acti": 998,
      "mem": 999,
      "ential": 1000,
      "approxim": 1001,
      "currently": 1002,
      "rece": 1003,
      "impro": 1004,
      "aur": 1005,
      "email": 1006,
      "pow": 1007,
      "law": 1008,
      "period": 1009,
      "cri": 1010,
      "amp": 1011,
      "quar": 1012,
      "ose": 1013,
      "97": 1014,
      "not": 1015,
      "tun": 1016,
      "ics": 1017,
      "added": 1018,
      "conf": 1019,
      "supply": 1020,
      "following": 1021,
      "estimated": 1022,
      "del": 1023,
      "fy": 1024,
      "ned": 1025,
      "tra": 1026,
      "cca": 1027,
      "sup": 1028,
      "char": 1029,
      "flav": 1030,
      "sun": 1031,
      "ug": 1032,
      "rol": 1033,
      "ress": 1034,
      "ible": 1035,
      "restaur": 1036,
      "technology": 1037,
      "enter": 1038,
      "diffe": 1039,
      "pean": 1040,
      "month": 1041,
      "domin": 1042,
      "ency": 1043,
      "success": 1044,
      "author": 1045,
      "vent": 1046,
      "ort": 1047,
      "acific": 1048,
      "compl": 1049,
      "rice": 1050,
      "expand": 1051,
      "investment": 1052,
      "28": 1053,
      "90": 1054,
      "oun": 1055,
      "ensi": 1056,
      "inte": 1057,
      "astronomy": 1058,
      "44": 1059,
      "hand": 1060,
      "bio": 1061,
      "radi": 1062,
      "bro": 1063,
      "pork": 1064,
      "bre": 1065,
      "approximately": 1066,
      "bal": 1067,
      "wan": 1068,
      "cover": 1069,
      "associ": 1070,
      "ffic": 1071,
      "pes": 1072,
      "sl": 1073,
      "conven": 1074,
      "ext": 1075,
      "shan": 1076,
      "open": 1077,
      "brands": 1078,
      "offic": 1079,
      "purchas": 1080,
      "tai": 1081,
      "ward": 1082,
      "dist": 1083,
      "milk": 1084,
      "people": 1085,
      "support": 1086,
      "mak": 1087,
      "aland": 1088,
      "importer": 1089,
      "importers": 1090,
      "istan": 1091,
      "infra": 1092,
      "vegetables": 1093,
      "customs": 1094,
      "27": 1095,
      "rap": 1096,
      "ched": 1097,
      "try": 1098,
      "uses": 1099,
      "required": 1100,
      "structure": 1101,
      "equip": 1102,
      "data": 1103,
      "ified": 1104,
      "players": 1105,
      "equipment": 1106,
      "city": 1107,
      "inspec": 1108,
      "sible": 1109,
      "phot": 1110,
      "zealand": 1111,
      "ministry": 1112,
      "statistics": 1113,
      "shangh": 1114,
      "65": 1115,
      "categ": 1116,
      "tor": 1117,
      "tren": 1118,
      "ato": 1119,
      "ades": 1120,
      "cook": 1121,
      "program": 1122,
      "buy": 1123,
      "da": 1124,
      "ade": 1125,
      "centr": 1126,
      "bul": 1127,
      "doc": 1128,
      "chick": 1129,
      "early": 1130,
      "ning": 1131,
      "redi": 1132,
      "aging": 1133,
      "expend": 1134,
      "area": 1135,
      "drug": 1136,
      "complet": 1137,
      "taiwan": 1138,
      "real": 1139,
      "canadas": 1140,
      "raw": 1141,
      "web": 1142,
      "expendit": 1143,
      "29": 1144,
      "bak": 1145,
      "sel": 1146,
      "swe": 1147,
      "uary": 1148,
      "lour": 1149,
      "fut": 1150,
      "hot": 1151,
      "ats": 1152,
      "coffe": 1153,
      "prom": 1154,
      "shop": 1155,
      "supermarkets": 1156,
      "consider": 1157,
      "transport": 1158,
      "private": 1159,
      "33": 1160,
      "put": 1161,
      "pacific": 1162,
      "ingredi": 1163,
      "regi": 1164,
      "feed": 1165,
      "certificate": 1166,
      "cost": 1167,
      "shanghai": 1168,
      "sugar": 1169,
      "change": 1170,
      "dered": 1171,
      "emp": 1172,
      "corpor": 1173,
      "sources": 1174,
      "arab": 1175,
      "artic": 1176,
      "sure": 1177,
      "197": 1178,
      "elling": 1179,
      "crop": 1180,
      "day": 1181,
      "mic": 1182,
      "items": 1183,
      "place": 1184,
      "common": 1185,
      "indic": 1186,
      "established": 1187,
      "future": 1188,
      "coffee": 1189,
      "ement": 1190,
      "site": 1191,
      "tech": 1192,
      "attr": 1193,
      "lit": 1194,
      "lets": 1195,
      "control": 1196,
      "ibut": 1197,
      "help": 1198,
      "inspection": 1199,
      "mid": 1200,
      "stor": 1201,
      "ended": 1202,
      "cy": 1203,
      "cus": 1204,
      "ie": 1205,
      "ua": 1206,
      "anal": 1207,
      "produced": 1208,
      "terms": 1209,
      "ements": 1210,
      "ember": 1211,
      "commercial": 1212,
      "har": 1213,
      "ini": 1214,
      "condi": 1215,
      "partn": 1216,
      "white": 1217,
      "22": 1218,
      "allow": 1219,
      "1999": 1220,
      "hom": 1221,
      "test": 1222,
      "ons": 1223,
      "roduc": 1224,
      "lower": 1225,
      "commission": 1226,
      "introduc": 1227,
      "potential": 1228,
      "mc": 1229,
      "ination": 1230,
      "reli": 1231,
      "reduc": 1232,
      "els": 1233,
      "ital": 1234,
      "estock": 1235,
      "higher": 1236,
      "apples": 1237,
      "western": 1238,
      "provinc": 1239,
      "livestock": 1240,
      "registration": 1241,
      "ared": 1242,
      "fun": 1243,
      "glo": 1244,
      "pay": 1245,
      "range": 1246,
      "ott": 1247,
      "198": 1248,
      "tradition": 1249,
      "position": 1250,
      "drin": 1251,
      "rapid": 1252,
      "bers": 1253,
      "mat": 1254,
      "set": 1255,
      "live": 1256,
      "chang": 1257,
      "gene": 1258,
      "ived": 1259,
      "improve": 1260,
      "63": 1261,
      "kil": 1262,
      "wa": 1263,
      "atl": 1264,
      "internet": 1265,
      "regional": 1266,
      "great": 1267,
      "instit": 1268,
      "sweet": 1269,
      "bec": 1270,
      "far": 1271,
      "rit": 1272,
      "rela": 1273,
      "alco": 1274,
      "ective": 1275,
      "chain": 1276,
      "soy": 1277,
      "certification": 1278,
      "deter": 1279,
      "dried": 1280,
      "alcohol": 1281,
      "mt": 1282,
      "ou": 1283,
      "store": 1284,
      "prot": 1285,
      "ask": 1286,
      "acts": 1287,
      "shi": 1288,
      "need": 1289,
      "brune": 1290,
      "prepa": 1291,
      "packaged": 1292,
      "animal": 1293,
      "korea": 1294,
      "slau": 1295,
      "prepared": 1296,
      "55": 1297,
      "giv": 1298,
      "mag": 1299,
      "add": 1300,
      "etter": 1301,
      "developed": 1302,
      "approval": 1303,
      "wo": 1304,
      "conduc": 1305,
      "produce": 1306,
      "consist": 1307,
      "suppliers": 1308,
      "corporation": 1309,
      "48": 1310,
      "bread": 1311,
      "cell": 1312,
      "stric": 1313,
      "space": 1314,
      "indian": 1315,
      "airy": 1316,
      "date": 1317,
      "ense": 1318,
      "ings": 1319,
      "eter": 1320,
      "look": 1321,
      "uments": 1322,
      "ample": 1323,
      "75": 1324,
      "ben": 1325,
      "best": 1326,
      "dairy": 1327,
      "pat": 1328,
      "wide": 1329,
      "envir": 1330,
      "cour": 1331,
      "beef": 1332,
      "feren": 1333,
      "decreasing": 1334,
      "environ": 1335,
      "bed": 1336,
      "ns": 1337,
      "tish": 1338,
      "astro": 1339,
      "iran": 1340,
      "provided": 1341,
      "outlets": 1342,
      "chicken": 1343,
      "613": 1344,
      "eas": 1345,
      "tod": 1346,
      "commit": 1347,
      "return": 1348,
      "increasingly": 1349,
      "supplied": 1350,
      "continue": 1351,
      "known": 1352,
      "advant": 1353,
      "environment": 1354,
      "68": 1355,
      "image": 1356,
      "meet": 1357,
      "exported": 1358,
      "1997": 1359,
      "study": 1360,
      "particularly": 1361,
      "brunei": 1362,
      "ience": 1363,
      "rou": 1364,
      "obtain": 1365,
      "design": 1366,
      "modern": 1367,
      "limited": 1368,
      "additional": 1369,
      "family": 1370,
      "convenience": 1371,
      "21": 1372,
      "mi": 1373,
      "ow": 1374,
      "active": 1375,
      "the": 1376,
      "ultry": 1377,
      "poultry": 1378,
      "nutr": 1379,
      "interest": 1380,
      "article": 1381,
      "storage": 1382,
      "cas": 1383,
      "inr": 1384,
      "rele": 1385,
      "lement": 1386,
      "medium": 1387,
      "leading": 1388,
      "radio": 1389,
      "nec": 1390,
      "saf": 1391,
      "yen": 1392,
      "atories": 1393,
      "elec": 1394,
      "urban": 1395,
      "regist": 1396,
      "ready": 1397,
      "know": 1398,
      "natural": 1399,
      "american": 1400,
      "67": 1401,
      "late": 1402,
      "ener": 1403,
      "concer": 1404,
      "ules": 1405,
      "loy": 1406,
      "verages": 1407,
      "spectr": 1408,
      "certain": 1409,
      "sectors": 1410,
      "issued": 1411,
      "different": 1412,
      "bang": 1413,
      "sw": 1414,
      "ving": 1415,
      "vity": 1416,
      "entry": 1417,
      "log": 1418,
      "umb": 1419,
      "ake": 1420,
      "labor": 1421,
      "supermarket": 1422,
      "philippine": 1423,
      "househol": 1424,
      "days": 1425,
      "mos": 1426,
      "ute": 1427,
      "antine": 1428,
      "beverages": 1429,
      "valued": 1430,
      "commodities": 1431,
      "ingredients": 1432,
      "electr": 1433,
      "43": 1434,
      "tar": 1435,
      "beverage": 1436,
      "cream": 1437,
      "quarantine": 1438,
      "confection": 1439,
      "hib": 1440,
      "whol": 1441,
      "ilities": 1442,
      "followed": 1443,
      "buil": 1444,
      "firm": 1445,
      "agreement": 1446,
      "british": 1447,
      "manufacturers": 1448,
      "45": 1449,
      "sky": 1450,
      "ley": 1451,
      "nov": 1452,
      "centre": 1453,
      "lands": 1454,
      "firms": 1455,
      "conditions": 1456,
      "egg": 1457,
      "men": 1458,
      "exist": 1459,
      "shap": 1460,
      "vey": 1461,
      "ially": 1462,
      "pharm": 1463,
      "ghter": 1464,
      "mainly": 1465,
      "fruits": 1466,
      "half": 1467,
      "result": 1468,
      "rapidly": 1469,
      "necess": 1470,
      "oi": 1471,
      "sim": 1472,
      "chem": 1473,
      "irr": 1474,
      "posi": 1475,
      "totaled": 1476,
      "office": 1477,
      "invol": 1478,
      "awa": 1479,
      "scienti": 1480,
      "admini": 1481,
      "cop": 1482,
      "cooper": 1483,
      "che": 1484,
      "resour": 1485,
      "tically": 1486,
      "levels": 1487,
      "overall": 1488,
      "industrial": 1489,
      "tariffs": 1490,
      "home": 1491,
      "cel": 1492,
      "jan": 1493,
      "tili": 1494,
      "type": 1495,
      "1998": 1496,
      "director": 1497,
      "slaughter": 1498,
      "bor": 1499,
      "pec": 1500,
      "van": 1501,
      "arily": 1502,
      "focus": 1503,
      "seeds": 1504,
      "identi": 1505,
      "alled": 1506,
      "exporter": 1507,
      "branding": 1508,
      "aceu": 1509,
      "application": 1510,
      "depend": 1511,
      "bis": 1512,
      "egy": 1513,
      "gi": 1514,
      "lack": 1515,
      "mr": 1516,
      "ual": 1517,
      "highest": 1518,
      "measure": 1519,
      "infrastructure": 1520,
      "uae": 1521,
      "cris": 1522,
      "han": 1523,
      "jects": 1524,
      "ering": 1525,
      "agency": 1526,
      "france": 1527,
      "located": 1528,
      "descri": 1529,
      "tunis": 1530,
      "bin": 1531,
      "big": 1532,
      "sar": 1533,
      "sched": 1534,
      "instr": 1535,
      "anch": 1536,
      "cept": 1537,
      "quanti": 1538,
      "spending": 1539,
      "organis": 1540,
      "organiz": 1541,
      "apple": 1542,
      "freight": 1543,
      "survey": 1544,
      "availability": 1545,
      "distributors": 1546,
      "clear": 1547,
      "gala": 1548,
      "permit": 1549,
      "promot": 1550,
      "wholes": 1551,
      "pite": 1552,
      "tial": 1553,
      "forward": 1554,
      "despite": 1555,
      "finan": 1556,
      "potato": 1557,
      "policy": 1558,
      "chocol": 1559,
      "said": 1560,
      "competition": 1561,
      "complete": 1562,
      "global": 1563,
      "given": 1564,
      "confectionery": 1565,
      "hi": 1566,
      "mm": 1567,
      "na": 1568,
      "pen": 1569,
      "san": 1570,
      "espec": 1571,
      "ators": 1572,
      "dies": 1573,
      "spread": 1574,
      "percent": 1575,
      "prepar": 1576,
      "vegetable": 1577,
      "especially": 1578,
      "hu": 1579,
      "rus": 1580,
      "acid": 1581,
      "expl": 1582,
      "divers": 1583,
      "ame": 1584,
      "ques": 1585,
      "post": 1586,
      "observatories": 1587,
      "juice": 1588,
      "directly": 1589,
      "publish": 1590,
      "european": 1591,
      "midd": 1592,
      "traditional": 1593,
      "address": 1594,
      "99": 1595,
      "but": 1596,
      "cul": 1597,
      "gcca": 1598,
      "ls": 1599,
      "mus": 1600,
      "sit": 1601,
      "sol": 1602,
      "chains": 1603,
      "seg": 1604,
      "point": 1605,
      "manufacturing": 1606,
      "cale": 1607,
      "partners": 1608,
      "mor": 1609,
      "ensure": 1610,
      "plants": 1611,
      "beg": 1612,
      "regions": 1613,
      "packaging": 1614,
      "relation": 1615,
      "related": 1616,
      "wholesal": 1617,
      "bon": 1618,
      "face": 1619,
      "sold": 1620,
      "meals": 1621,
      "presence": 1622,
      "generally": 1623,
      "down": 1624,
      "38": 1625,
      "oce": 1626,
      "slow": 1627,
      "ert": 1628,
      "ically": 1629,
      "ries": 1630,
      "commun": 1631,
      "oct": 1632,
      "labelling": 1633,
      "tax": 1634,
      "…………": 1635,
      "expanding": 1636,
      "today": 1637,
      "safety": 1638,
      "shape": 1639,
      "31": 1640,
      "46": 1641,
      "bod": 1642,
      "case": 1643,
      "ey": 1644,
      "tend": 1645,
      "ule": 1646,
      "yle": 1647,
      "producers": 1648,
      "force": 1649,
      "beans": 1650,
      "maintain": 1651,
      "organization": 1652,
      "universe": 1653,
      "overview": 1654,
      "variety": 1655,
      "reached": 1656,
      "restaurants": 1657,
      "rough": 1658,
      "clu": 1659,
      "hist": 1660,
      "tast": 1661,
      "uk": 1662,
      "cou": 1663,
      "prof": 1664,
      "proble": 1665,
      "omet": 1666,
      "compared": 1667,
      "center": 1668,
      "engine": 1669,
      "animals": 1670,
      "member": 1671,
      "ensive": 1672,
      "energy": 1673,
      "january": 1674,
      "az": 1675,
      "hip": 1676,
      "rates": 1677,
      "ectively": 1678,
      "seed": 1679,
      "tour": 1680,
      "tonnes": 1681,
      "columb": 1682,
      "capital": 1683,
      "german": 1684,
      "saudi": 1685,
      "transportation": 1686,
      "employ": 1687,
      "registered": 1688,
      "tiliz": 1689,
      "columbia": 1690,
      "hod": 1691,
      "pal": 1692,
      "pak": 1693,
      "ince": 1694,
      "asian": 1695,
      "2007": 1696,
      "term": 1697,
      "embas": 1698,
      "corn": 1699,
      "majority": 1700,
      "competitive": 1701,
      "quebec": 1702,
      "owned": 1703,
      "months": 1704,
      "bulk": 1705,
      "advantage": 1706,
      "relationship": 1707,
      "36": 1708,
      "sn": 1709,
      "eld": 1710,
      "highly": 1711,
      "visit": 1712,
      "method": 1713,
      "influ": 1714,
      "decrease": 1715,
      "account": 1716,
      "received": 1717,
      "expenditure": 1718,
      "ocean": 1719,
      "pakistan": 1720,
      "47": 1721,
      "ep": 1722,
      "eat": 1723,
      "flour": 1724,
      "ness": 1725,
      "pass": 1726,
      "youn": 1727,
      "restric": 1728,
      "ently": 1729,
      "example": 1730,
      "diffic": 1731,
      "show": 1732,
      "manage": 1733,
      "subst": 1734,
      "costs": 1735,
      "association": 1736,
      "atlas": 1737,
      "resources": 1738,
      "embassy": 1739,
      "39": 1740,
      "ek": 1741,
      "los": 1742,
      "slight": 1743,
      "wine": 1744,
      "chall": 1745,
      "degre": 1746,
      "comes": 1747,
      "subject": 1748,
      "primary": 1749,
      "biscu": 1750,
      "galax": 1751,
      "middle": 1752,
      "snack": 1753,
      "bil": 1754,
      "round": 1755,
      "exce": 1756,
      "experi": 1757,
      "ther": 1758,
      "seen": 1759,
      "1990": 1760,
      "december": 1761,
      "monit": 1762,
      "file": 1763,
      "photograph": 1764,
      "adesh": 1765,
      "pharmaceu": 1766,
      "59": 1767,
      "right": 1768,
      "rules": 1769,
      "turn": 1770,
      "vine": 1771,
      "well": 1772,
      "ature": 1773,
      "life": 1774,
      "exam": 1775,
      "exper": 1776,
      "meal": 1777,
      "basic": 1778,
      "cities": 1779,
      "accounted": 1780,
      "industries": 1781,
      "crops": 1782,
      "alcoholic": 1783,
      "den": 1784,
      "eties": 1785,
      "eating": 1786,
      "hn": 1787,
      "mac": 1788,
      "ses": 1789,
      "encour": 1790,
      "0000": 1791,
      "contacts": 1792,
      "ulture": 1793,
      "exporting": 1794,
      "israels": 1795,
      "section": 1796,
      "prior": 1797,
      "recently": 1798,
      "analys": 1799,
      "positive": 1800,
      "34": 1801,
      "hum": 1802,
      "jam": 1803,
      "kos": 1804,
      "lines": 1805,
      "pi": 1806,
      "construc": 1807,
      "short": 1808,
      "countrys": 1809,
      "astronomical": 1810,
      "note": 1811,
      "flavor": 1812,
      "break": 1813,
      "categories": 1814,
      "trends": 1815,
      "published": 1816,
      "kosher": 1817,
      "better": 1818,
      "cat": 1819,
      "forec": 1820,
      "basis": 1821,
      "astronomer": 1822,
      "afric": 1823,
      "working": 1824,
      "particip": 1825,
      "contribut": 1826,
      "members": 1827,
      "instruments": 1828,
      "analysis": 1829,
      "forecast": 1830,
      "fig": 1831,
      "sell": 1832,
      "usu": 1833,
      "wto": 1834,
      "ably": 1835,
      "utes": 1836,
      "reng": 1837,
      "capac": 1838,
      "afgh": 1839,
      "clos": 1840,
      "implement": 1841,
      "varieties": 1842,
      "stead": 1843,
      "power": 1844,
      "protection": 1845,
      "astrophys": 1846,
      "committe": 1847,
      "cred": 1848,
      "cla": 1849,
      "dar": 1850,
      "dess": 1851,
      "dol": 1852,
      "ran": 1853,
      "scale": 1854,
      "streng": 1855,
      "portion": 1856,
      "acter": 1857,
      "ism": 1858,
      "usa": 1859,
      "sib": 1860,
      "earth": 1861,
      "ground": 1862,
      "trading": 1863,
      "asean": 1864,
      "central": 1865,
      "relatively": 1866,
      "mix": 1867,
      "bangl": 1868,
      "capacity": 1869,
      "strength": 1870,
      "june": 1871,
      "let": 1872,
      "lam": 1873,
      "less": 1874,
      "pul": 1875,
      "tu": 1876,
      "tle": 1877,
      "ontari": 1878,
      "role": 1879,
      "promo": 1880,
      "elli": 1881,
      "ash": 1882,
      "perform": 1883,
      "ateral": 1884,
      "ize": 1885,
      "coll": 1886,
      "standard": 1887,
      "atives": 1888,
      "rise": 1889,
      "medi": 1890,
      "bank": 1891,
      "labels": 1892,
      "assist": 1893,
      "laws": 1894,
      "chemical": 1895,
      "schedule": 1896,
      "37": 1897,
      "49": 1898,
      "66": 1899,
      "ring": 1900,
      "rup": 1901,
      "ument": 1902,
      "wid": 1903,
      "ances": 1904,
      "edible": 1905,
      "cove": 1906,
      "proper": 1907,
      "plac": 1908,
      "vid": 1909,
      "phe": 1910,
      "began": 1911,
      "minist": 1912,
      "license": 1913,
      "authority": 1914,
      "officer": 1915,
      "making": 1916,
      "func": 1917,
      "involved": 1918,
      "management": 1919,
      "monitor": 1920,
      "ontario": 1921,
      "atic": 1922,
      "cc": 1923,
      "dens": 1924,
      "fles": 1925,
      "pens": 1926,
      "rural": 1927,
      "vit": 1928,
      "eries": 1929,
      "ann": 1930,
      "strate": 1931,
      "importing": 1932,
      "soft": 1933,
      "included": 1934,
      "apply": 1935,
      "southeast": 1936,
      "airs": 1937,
      "primarily": 1938,
      "responsible": 1939,
      "restaurant": 1940,
      "arabia": 1941,
      "necessary": 1942,
      "cooperation": 1943,
      "egypt": 1944,
      "moroc": 1945,
      "slightly": 1946,
      "flesh": 1947,
      "dance": 1948,
      "mine": 1949,
      "pin": 1950,
      "chi": 1951,
      "grocer": 1952,
      "parts": 1953,
      "head": 1954,
      "beer": 1955,
      "developing": 1956,
      "fair": 1957,
      "rising": 1958,
      "times": 1959,
      "effects": 1960,
      "measures": 1961,
      "understand": 1962,
      "chilled": 1963,
      "activi": 1964,
      "toron": 1965,
      "financial": 1966,
      "butter": 1967,
      "roughly": 1968,
      "covered": 1969,
      "bur": 1970,
      "inst": 1971,
      "tional": 1972,
      "ises": 1973,
      "ised": 1974,
      "division": 1975,
      "territ": 1976,
      "forms": 1977,
      "pros": 1978,
      "offer": 1979,
      "considered": 1980,
      "impact": 1981,
      "issues": 1982,
      "purchase": 1983,
      "successful": 1984,
      "initi": 1985,
      "interested": 1986,
      "tunisia": 1987,
      "afghan": 1988,
      "credit": 1989,
      "dollar": 1990,
      "1000": 1991,
      "62": 1992,
      "ares": 1993,
      "back": 1994,
      "fren": 1995,
      "ify": 1996,
      "arr": 1997,
      "roy": 1998,
      "ained": 1999,
      "content": 2000,
      "1996": 2001,
      "visible": 2002,
      "green": 2003,
      "retailers": 2004,
      "purpos": 2005,
      "juicy": 2006,
      "activity": 2007,
      "drinks": 2008,
      "determine": 2009,
      "administration": 2010,
      "crisp": 2011,
      "difficult": 2012,
      "committee": 2013,
      "bangladesh": 2014,
      "toronto": 2015,
      "ba": 2016,
      "fall": 2017,
      "ious": 2018,
      "near": 2019,
      "nearly": 2020,
      "road": 2021,
      "apr": 2022,
      "aper": 2023,
      "vidu": 2024,
      "pped": 2025,
      "individu": 2026,
      "oils": 2027,
      "reported": 2028,
      "respectively": 2029,
      "affairs": 2030,
      "competit": 2031,
      "testing": 2032,
      "conduct": 2033,
      "quantity": 2034,
      "activities": 2035,
      "french": 2036,
      "88": 2037,
      "hard": 2038,
      "mer": 2039,
      "pet": 2040,
      "tem": 2041,
      "eral": 2042,
      "orient": 2043,
      "itted": 2044,
      "exhib": 2045,
      "load": 2046,
      "soli": 2047,
      "ions": 2048,
      "types": 2049,
      "appear": 2050,
      "classi": 2051,
      "issue": 2052,
      "detail": 2053,
      "students": 2054,
      "nutrition": 2055,
      "spreads": 2056,
      "segment": 2057,
      "biscuits": 2058,
      "42": 2059,
      "mul": 2060,
      "mber": 2061,
      "sco": 2062,
      "refl": 2063,
      "project": 2064,
      "profile": 2065,
      "ased": 2066,
      "agent": 2067,
      "concentr": 2068,
      "diet": 2069,
      "marks": 2070,
      "vember": 2071,
      "ola": 2072,
      "ident": 2073,
      "november": 2074,
      "preser": 2075,
      "greater": 2076,
      "relations": 2077,
      "accounts": 2078,
      "accordance": 2079,
      "agreements": 2080,
      "official": 2081,
      "micro": 2082,
      "techn": 2083,
      "payment": 2084,
      "relev": 2085,
      "spectrum": 2086,
      "simil": 2087,
      "bilateral": 2088,
      "57": 2089,
      "cil": 2090,
      "ha": 2091,
      "mirr": 2092,
      "ust": 2093,
      "stre": 2094,
      "style": 2095,
      "atmos": 2096,
      "istics": 2097,
      "canned": 2098,
      "amoun": 2099,
      "quick": 2100,
      "seas": 2101,
      "book": 2102,
      "moun": 2103,
      "healthy": 2104,
      "grew": 2105,
      "provides": 2106,
      "decreased": 2107,
      "syst": 2108,
      "opportunity": 2109,
      "specialty": 2110,
      "nesoi": 2111,
      "enterpr": 2112,
      "biofood": 2113,
      "trend": 2114,
      "ottawa": 2115,
      "copy": 2116,
      "degree": 2117,
      "human": 2118,
      "usually": 2119,
      "bel": 2120,
      "cut": 2121,
      "care": 2122,
      "dan": 2123,
      "ev": 2124,
      "event": 2125,
      "fat": 2126,
      "fav": 2127,
      "gb": 2128,
      "gas": 2129,
      "hs": 2130,
      "ier": 2131,
      "later": 2132,
      "tm": 2133,
      "ue": 2134,
      "wil": 2135,
      "lif": 2136,
      "lik": 2137,
      "union": 2138,
      "four": 2139,
      "sum": 2140,
      "excell": 2141,
      "tern": 2142,
      "vious": 2143,
      "presents": 2144,
      "laun": 2145,
      "includes": 2146,
      "ength": 2147,
      "juices": 2148,
      "continues": 2149,
      "remains": 2150,
      "taking": 2151,
      "commissioner": 2152,
      "wood": 2153,
      "situ": 2154,
      "dessert": 2155,
      "ive": 2156,
      "ner": 2157,
      "nation": 2158,
      "ters": 2159,
      "march": 2160,
      "sept": 2161,
      "prac": 2162,
      "metre": 2163,
      "metres": 2164,
      "supplier": 2165,
      "contract": 2166,
      "obtained": 2167,
      "target": 2168,
      "relevant": 2169,
      "58": 2170,
      "fed": 2171,
      "fri": 2172,
      "pred": 2173,
      "inary": 2174,
      "proced": 2175,
      "ill": 2176,
      "ising": 2177,
      "defin": 2178,
      "lot": 2179,
      "mart": 2180,
      "ripens": 2181,
      "plans": 2182,
      "minim": 2183,
      "possible": 2184,
      "decline": 2185,
      "july": 2186,
      "encies": 2187,
      "annually": 2188,
      "fertiliz": 2189,
      "held": 2190,
      "groups": 2191,
      "facilities": 2192,
      "farmers": 2193,
      "category": 2194,
      "provinces": 2195,
      "born": 2196,
      "similar": 2197,
      "32": 2198,
      "dest": 2199,
      "fu": 2200,
      "ii": 2201,
      "tur": 2202,
      "provision": 2203,
      "suffic": 2204,
      "leg": 2205,
      "omen": 2206,
      "sequ": 2207,
      "council": 2208,
      "luc": 2209,
      "pping": 2210,
      "expan": 2211,
      "class": 2212,
      "john": 2213,
      "barley": 2214,
      "permission": 2215,
      "distance": 2216,
      "provincial": 2217,
      "ference": 2218,
      "april": 2219,
      "bra": 2220,
      "uts": 2221,
      "orts": 2222,
      "icies": 2223,
      "strateg": 2224,
      "shel": 2225,
      "ecting": 2226,
      "compet": 2227,
      "nego": 2228,
      "needs": 2229,
      "increases": 2230,
      "ober": 2231,
      "bean": 2232,
      "princ": 2233,
      "elled": 2234,
      "enced": 2235,
      "policies": 2236,
      "treat": 2237,
      "hyper": 2238,
      "europe": 2239,
      "little": 2240,
      "vancou": 2241,
      "chocolate": 2242,
      "begin": 2243,
      "october": 2244,
      "body": 2245,
      "germany": 2246,
      "africa": 2247,
      "morocco": 2248,
      "systems": 2249,
      "expansion": 2250,
      "negoti": 2251,
      "vancouver": 2252,
      "64": 2253,
      "bott": 2254,
      "gn": 2255,
      "gain": 2256,
      "gold": 2257,
      "advis": 2258,
      "shr": 2259,
      "rib": 2260,
      "emer": 2261,
      "manil": 2262,
      "weight": 2263,
      "factors": 2264,
      "carry": 2265,
      "away": 2266,
      "network": 2267,
      "doub": 2268,
      "province": 2269,
      "joint": 2270,
      "cooking": 2271,
      "kilomet": 2272,
      "organisms": 2273,
      "strategy": 2274,
      "atmosphe": 2275,
      "hav": 2276,
      "projects": 2277,
      "accur": 2278,
      "accept": 2279,
      "images": 2280,
      "aster": 2281,
      "poli": 2282,
      "prefer": 2283,
      "previous": 2284,
      "moon": 2285,
      "metro": 2286,
      "english": 2287,
      "gust": 2288,
      "continued": 2289,
      "applicant": 2290,
      "distributor": 2291,
      "sauce": 2292,
      "purchasing": 2293,
      "expenditures": 2294,
      "bakery": 2295,
      "institute": 2296,
      "organizations": 2297,
      "density": 2298,
      "56": 2299,
      "bit": 2300,
      "bure": 2301,
      "bay": 2302,
      "osh": 2303,
      "online": 2304,
      "tives": 2305,
      "alger": 2306,
      "she": 2307,
      "amin": 2308,
      "consul": 2309,
      "ilit": 2310,
      "decis": 2311,
      "occur": 2312,
      "operations": 2313,
      "biotech": 2314,
      "america": 2315,
      "travel": 2316,
      "eggs": 2317,
      "bureau": 2318,
      "86": 2319,
      "avi": 2320,
      "ges": 2321,
      "ji": 2322,
      "ps": 2323,
      "sat": 2324,
      "win": 2325,
      "incomes": 2326,
      "antic": 2327,
      "art": 2328,
      "room": 2329,
      "coast": 2330,
      "found": 2331,
      "geograph": 2332,
      "grain": 2333,
      "recor": 2334,
      "base": 2335,
      "achie": 2336,
      "effic": 2337,
      "customers": 2338,
      "listed": 2339,
      "depending": 2340,
      "commodity": 2341,
      "techni": 2342,
      "changes": 2343,
      "bene": 2344,
      "household": 2345,
      "scientific": 2346,
      "substanti": 2347,
      "competitors": 2348,
      "season": 2349,
      "likely": 2350,
      "500": 2351,
      "98": 2352,
      "blu": 2353,
      "clic": 2354,
      "hor": 2355,
      "ior": 2356,
      "ping": 2357,
      "rays": 2358,
      "ina": 2359,
      "reports": 2360,
      "educ": 2361,
      "ene": 2362,
      "ict": 2363,
      "colour": 2364,
      "duty": 2365,
      "island": 2366,
      "iment": 2367,
      "cere": 2368,
      "river": 2369,
      "means": 2370,
      "compos": 2371,
      "neigh": 2372,
      "ides": 2373,
      "rence": 2374,
      "aves": 2375,
      "franch": 2376,
      "entire": 2377,
      "single": 2378,
      "approved": 2379,
      "numer": 2380,
      "efforts": 2381,
      "created": 2382,
      "telescopes": 2383,
      "barri": 2384,
      "peanut": 2385,
      "purchases": 2386,
      "programs": 2387,
      "allowed": 2388,
      "outs": 2389,
      "sibility": 2390,
      "54": 2391,
      "77": 2392,
      "85": 2393,
      "aim": 2394,
      "din": 2395,
      "ease": 2396,
      "fund": 2397,
      "lang": 2398,
      "sts": 2399,
      "lie": 2400,
      "lied": 2401,
      "const": 2402,
      "consign": 2403,
      "oph": 2404,
      "august": 2405,
      "bruary": 2406,
      "specified": 2407,
      "corp": 2408,
      "february": 2409,
      "cif": 2410,
      "dispos": 2411,
      "regulation": 2412,
      "original": 2413,
      "character": 2414,
      "matter": 2415,
      "households": 2416,
      "potatoes": 2417,
      "young": 2418,
      "challeng": 2419,
      "pharmaceutical": 2420,
      "mediate": 2421,
      "minister": 2422,
      "grocery": 2423,
      "afghanistan": 2424,
      "oriented": 2425,
      "multi": 2426,
      "flow": 2427,
      "job": 2428,
      "lation": 2429,
      "lake": 2430,
      "mol": 2431,
      "mission": 2432,
      "arom": 2433,
      "ile": 2434,
      "acy": 2435,
      "agencies": 2436,
      "legal": 2437,
      "chann": 2438,
      "exchange": 2439,
      "grown": 2440,
      "berry": 2441,
      "fits": 2442,
      "larger": 2443,
      "close": 2444,
      "enses": 2445,
      "eastern": 2446,
      "maple": 2447,
      "living": 2448,
      "document": 2449,
      "genetically": 2450,
      "magne": 2451,
      "designed": 2452,
      "building": 2453,
      "click": 2454,
      "by": 2455,
      "cass": 2456,
      "of": 2457,
      "pects": 2458,
      "rd": 2459,
      "ught": 2460,
      "va": 2461,
      "yel": 2462,
      "represents": 2463,
      "estial": 2464,
      "ened": 2465,
      "cold": 2466,
      "liqu": 2467,
      "ellar": 2468,
      "exec": 2469,
      "thous": 2470,
      "ples": 2471,
      "spect": 2472,
      "heav": 2473,
      "feeds": 2474,
      "subsi": 2475,
      "effort": 2476,
      "australian": 2477,
      "trem": 2478,
      "website": 2479,
      "celestial": 2480,
      "preparations": 2481,
      "wholesalers": 2482,
      "temper": 2483,
      "solid": 2484,
      "excellent": 2485,
      "langu": 2486,
      "thousand": 2487,
      "01": 2488,
      "clim": 2489,
      "gl": 2490,
      "prec": 2491,
      "stit": 2492,
      "simp": 2493,
      "ude": 2494,
      "recomm": 2495,
      "republic": 2496,
      "itary": 2497,
      "producer": 2498,
      "deli": 2499,
      "spe": 2500,
      "velength": 2501,
      "serve": 2502,
      "intosh": 2503,
      "valueadded": 2504,
      "box": 2505,
      "tool": 2506,
      "requires": 2507,
      "providing": 2508,
      "final": 2509,
      "science": 2510,
      "famili": 2511,
      "popularity": 2512,
      "commerce": 2513,
      "taken": 2514,
      "opened": 2515,
      "infrared": 2516,
      "buyers": 2517,
      "drugs": 2518,
      "hotel": 2519,
      "considerable": 2520,
      "mcintosh": 2521,
      "wavelength": 2522,
      "blue": 2523,
      "outside": 2524,
      "300": 2525,
      "ao": 2526,
      "aqu": 2527,
      "dro": 2528,
      "mb": 2529,
      "mig": 2530,
      "tal": 2531,
      "zil": 2532,
      "reco": 2533,
      "canola": 2534,
      "abs": 2535,
      "andor": 2536,
      "compon": 2537,
      "fication": 2538,
      "now": 2539,
      "nood": 2540,
      "akes": 2541,
      "declin": 2542,
      "economies": 2543,
      "field": 2544,
      "dry": 2545,
      "clus": 2546,
      "ledge": 2547,
      "volution": 2548,
      "output": 2549,
      "version": 2550,
      "society": 2551,
      "containing": 2552,
      "child": 2553,
      "powdered": 2554,
      "genetic": 2555,
      "determin": 2556,
      "shipping": 2557,
      "electron": 2558,
      "mirror": 2559,
      "ck": 2560,
      "gian": 2561,
      "sen": 2562,
      "tex": 2563,
      "waves": 2564,
      "exic": 2565,
      "deal": 2566,
      "cep": 2567,
      "esty": 2568,
      "semin": 2569,
      "ights": 2570,
      "phy": 2571,
      "typ": 2572,
      "agribusiness": 2573,
      "sale": 2574,
      "worlds": 2575,
      "echnolog": 2576,
      "guar": 2577,
      "introduction": 2578,
      "farms": 2579,
      "knowledge": 2580,
      "partnership": 2581,
      "situation": 2582,
      "practic": 2583,
      "sufficient": 2584,
      "kilometres": 2585,
      "having": 2586,
      "aviv": 2587,
      "cereals": 2588,
      "numerous": 2589,
      "yellow": 2590,
      "recogn": 2591,
      "gum": 2592,
      "ked": 2593,
      "lay": 2594,
      "mel": 2595,
      "mexic": 2596,
      "pq": 2597,
      "rain": 2598,
      "sc": 2599,
      "za": 2600,
      "anced": 2601,
      "ator": 2602,
      "elements": 2603,
      "ago": 2604,
      "lex": 2605,
      "coming": 2606,
      "ante": 2607,
      "consumed": 2608,
      "ends": 2609,
      "record": 2610,
      "locally": 2611,
      "disease": 2612,
      "subacid": 2613,
      "surface": 2614,
      "vietnamese": 2615,
      "nature": 2616,
      "makes": 2617,
      "shops": 2618,
      "italy": 2619,
      "promote": 2620,
      "taste": 2621,
      "individual": 2622,
      "technical": 2623,
      "september": 2624,
      "brazil": 2625,
      "aromatic": 2626,
      "69": 2627,
      "cing": 2628,
      "evalu": 2629,
      "ox": 2630,
      "saw": 2631,
      "égan": 2632,
      "tified": 2633,
      "eding": 2634,
      "islam": 2635,
      "sugg": 2636,
      "chew": 2637,
      "thai": 2638,
      "demon": 2639,
      "ilipin": 2640,
      "news": 2641,
      "1995": 2642,
      "took": 2643,
      "regular": 2644,
      "effective": 2645,
      "transfer": 2646,
      "syrup": 2647,
      "dominion": 2648,
      "broad": 2649,
      "attribut": 2650,
      "ferences": 2651,
      "cases": 2652,
      "percentage": 2653,
      "muslim": 2654,
      "download": 2655,
      "promotion": 2656,
      "golden": 2657,
      "shrimp": 2658,
      "atmosphere": 2659,
      "execu": 2660,
      "guarante": 2661,
      "égantic": 2662,
      "78": 2663,
      "cf": 2664,
      "cam": 2665,
      "don": 2666,
      "hon": 2667,
      "ku": 2668,
      "candies": 2669,
      "combin": 2670,
      "ticals": 2671,
      "separ": 2672,
      "190": 2673,
      "neg": 2674,
      "grant": 2675,
      "grains": 2676,
      "1994": 2677,
      "northern": 2678,
      "stuff": 2679,
      "modified": 2680,
      "results": 2681,
      "contained": 2682,
      "attle": 2683,
      "integr": 2684,
      "looking": 2685,
      "problems": 2686,
      "examination": 2687,
      "consult": 2688,
      "magnetic": 2689,
      "seminar": 2690,
      "cn": 2691,
      "dail": 2692,
      "fur": 2693,
      "filipin": 2694,
      "ging": 2695,
      "hab": 2696,
      "my": 2697,
      "sand": 2698,
      "technolog": 2699,
      "war": 2700,
      "ware": 2701,
      "innov": 2702,
      "ention": 2703,
      "ich": 2704,
      "tran": 2705,
      "igcca": 2706,
      "veal": 2707,
      "viol": 2708,
      "word": 2709,
      "going": 2710,
      "lution": 2711,
      "peas": 2712,
      "ification": 2713,
      "salmon": 2714,
      "hold": 2715,
      "subm": 2716,
      "fisheries": 2717,
      "media": 2718,
      "frequ": 2719,
      "idea": 2720,
      "pollution": 2721,
      "significantly": 2722,
      "reduced": 2723,
      "drink": 2724,
      "soybean": 2725,
      "benef": 2726,
      "laboratory": 2727,
      "tourism": 2728,
      "snacks": 2729,
      "claim": 2730,
      "royal": 2731,
      "tmégantic": 2732,
      "noodles": 2733,
      "daily": 2734,
      "79": 2735,
      "aut": 2736,
      "hop": 2737,
      "pan": 2738,
      "ple": 2739,
      "enjo": 2740,
      "istic": 2741,
      "used": 2742,
      "rency": 2743,
      "aug": 2744,
      "belie": 2745,
      "president": 2746,
      "poor": 2747,
      "montmégantic": 2748,
      "week": 2749,
      "discover": 2750,
      "tea": 2751,
      "signed": 2752,
      "risk": 2753,
      "southern": 2754,
      "clean": 2755,
      "kingdom": 2756,
      "brief": 2757,
      "nova": 2758,
      "communic": 2759,
      "restrictions": 2760,
      "galaxy": 2761,
      "figure": 2762,
      "accuracy": 2763,
      "algeria": 2764,
      "substantial": 2765,
      "jobs": 2766,
      "41": 2767,
      "bl": 2768,
      "ean": 2769,
      "ham": 2770,
      "hour": 2771,
      "may": 2772,
      "mach": 2773,
      "pfa": 2774,
      "rs": 2775,
      "squ": 2776,
      "ues": 2777,
      "utions": 2778,
      "wr": 2779,
      "yo": 2780,
      "oss": 2781,
      "insur": 2782,
      "arri": 2783,
      "atom": 2784,
      "propos": 2785,
      "unit": 2786,
      "suit": 2787,
      "ager": 2788,
      "agents": 2789,
      "ush": 2790,
      "side": 2791,
      "verti": 2792,
      "importation": 2793,
      "vide": 2794,
      "phas": 2795,
      "obj": 2796,
      "intermediate": 2797,
      "bert": 2798,
      "berries": 2799,
      "intended": 2800,
      "1993": 2801,
      "centres": 2802,
      "wealth": 2803,
      "team": 2804,
      "carri": 2805,
      "guide": 2806,
      "affected": 2807,
      "smaller": 2808,
      "shipments": 2809,
      "delic": 2810,
      "indicated": 2811,
      "mention": 2812,
      "russia": 2813,
      "histor": 2814,
      "engineering": 2815,
      "quickly": 2816,
      "beginning": 2817,
      "recorded": 2818,
      "practices": 2819,
      "51": 2820,
      "called": 2821,
      "came": 2822,
      "fats": 2823,
      "ga": 2824,
      "gest": 2825,
      "mass": 2826,
      "nso": 2827,
      "ration": 2828,
      "sam": 2829,
      "refr": 2830,
      "ession": 2831,
      "ster": 2832,
      "stellar": 2833,
      "code": 2834,
      "colo": 2835,
      "prob": 2836,
      "lies": 2837,
      "entered": 2838,
      "ung": 2839,
      "conic": 2840,
      "2009": 2841,
      "igation": 2842,
      "seven": 2843,
      "idents": 2844,
      "noun": 2845,
      "chinas": 2846,
      "dings": 2847,
      "started": 2848,
      "collabor": 2849,
      "packing": 2850,
      "advanced": 2851,
      "physic": 2852,
      "dominated": 2853,
      "venture": 2854,
      "brew": 2855,
      "documents": 2856,
      "shopping": 2857,
      "attract": 2858,
      "attractive": 2859,
      "preparation": 2860,
      "tender": 2861,
      "problem": 2862,
      "methods": 2863,
      "astrophysical": 2864,
      "dollars": 2865,
      "purpose": 2866,
      "favour": 2867,
      "launched": 2868,
      "provisions": 2869,
      "ribbed": 2870,
      "manila": 2871,
      "climate": 2872,
      "95": 2873,
      "bai": 2874,
      "culture": 2875,
      "dy": 2876,
      "mech": 2877,
      "nest": 2878,
      "overs": 2879,
      "ually": 2880,
      "want": 2881,
      "zer": 2882,
      "announ": 2883,
      "alo": 2884,
      "stock": 2885,
      "proj": 2886,
      "ecigcca": 2887,
      "acces": 2888,
      "ith": 2889,
      "agg": 2890,
      "extr": 2891,
      "ultra": 2892,
      "cereal": 2893,
      "shar": 2894,
      "sive": 2895,
      "importance": 2896,
      "reasons": 2897,
      "sound": 2898,
      "bring": 2899,
      "expensive": 2900,
      "izing": 2901,
      "japans": 2902,
      "totalled": 2903,
      "montre": 2904,
      "board": 2905,
      "moving": 2906,
      "meats": 2907,
      "nuts": 2908,
      "largely": 2909,
      "afc": 2910,
      "cuis": 2911,
      "guid": 2912,
      "fully": 2913,
      "labeling": 2914,
      "safe": 2915,
      "facilit": 2916,
      "container": 2917,
      "responsibility": 2918,
      "balance": 2919,
      "self": 2920,
      "concerns": 2921,
      "logistics": 2922,
      "forwarder": 2923,
      "experience": 2924,
      "vitamin": 2925,
      "enterprises": 2926,
      "benefits": 2927,
      "challenges": 2928,
      "molec": 2929,
      "110": 2930,
      "black": 2931,
      "olive": 2932,
      "pure": 2933,
      "ptions": 2934,
      "sk": 2935,
      "snow": 2936,
      "tan": 2937,
      "ten": 2938,
      "wel": 2939,
      "ways": 2940,
      "yi": 2941,
      "reput": 2942,
      "ests": 2943,
      "uni": 2944,
      "soil": 2945,
      "neu": 2946,
      "contains": 2947,
      "mineral": 2948,
      "ists": 2949,
      "decade": 2950,
      "location": 2951,
      "ished": 2952,
      "bovine": 2953,
      "move": 2954,
      "governments": 2955,
      "medical": 2956,
      "nether": 2957,
      "moder": 2958,
      "graphics": 2959,
      "scious": 2960,
      "statistical": 2961,
      "korean": 2962,
      "analy": 2963,
      "atlantic": 2964,
      "conducted": 2965,
      "identified": 2966,
      "……………………": 2967,
      "shows": 2968,
      "breakfast": 2969,
      "political": 2970,
      "neighbo": 2971,
      "disposable": 2972,
      "liquid": 2973,
      "benefit": 2974,
      "delicious": 2975,
      "montreal": 2976,
      "netherlands": 2977,
      "5000": 2978,
      "84": 2979,
      "cit": 2980,
      "clo": 2981,
      "cum": 2982,
      "cattle": 2983,
      "evolution": 2984,
      "fine": 2985,
      "gms": 2986,
      "hos": 2987,
      "hone": 2988,
      "mis": 2989,
      "oid": 2990,
      "paper": 2991,
      "tos": 2992,
      "zed": 2993,
      "review": 2994,
      "reveal": 2995,
      "ences": 2996,
      "roe": 2997,
      "prote": 2998,
      "liber": 2999,
      "dun": 3000,
      "actions": 3001,
      "iments": 3002,
      "conscious": 3003,
      "qué": 3004,
      "plate": 3005,
      "rich": 3006,
      "compar": 3007,
      "rawn": 3008,
      "ney": 3009,
      "expos": 3010,
      "tele": 3011,
      "150": 3012,
      "160": 3013,
      "remaining": 3014,
      "longer": 3015,
      "entering": 3016,
      "ensitive": 3017,
      "hotels": 3018,
      "changing": 3019,
      "greatly": 3020,
      "soybeans": 3021,
      "consists": 3022,
      "clearance": 3023,
      "solar": 3024,
      "history": 3025,
      "james": 3026,
      "construction": 3027,
      "performance": 3028,
      "licensee": 3029,
      "prospects": 3030,
      "procedures": 3031,
      "barriers": 3032,
      "typically": 3033,
      "insurance": 3034,
      "mechan": 3035,
      "96": 3036,
      "arent": 3037,
      "bear": 3038,
      "dn": 3039,
      "flo": 3040,
      "lat": 3041,
      "nic": 3042,
      "ots": 3043,
      "run": 3044,
      "son": 3045,
      "top": 3046,
      "vest": 3047,
      "writ": 3048,
      "stat": 3049,
      "prohib": 3050,
      "sus": 3051,
      "concept": 3052,
      "thir": 3053,
      "dem": 3054,
      "mary": 3055,
      "plus": 3056,
      "reason": 3057,
      "soup": 3058,
      "rail": 3059,
      "fran": 3060,
      "prem": 3061,
      "factor": 3062,
      "offers": 3063,
      "currency": 3064,
      "secur": 3065,
      "regulatory": 3066,
      "operating": 3067,
      "effect": 3068,
      "accounting": 3069,
      "proving": 3070,
      "secondary": 3071,
      "represented": 3072,
      "farming": 3073,
      "authorities": 3074,
      "david": 3075,
      "doctor": 3076,
      "introduced": 3077,
      "needed": 3078,
      "patent": 3079,
      "there": 3080,
      "existing": 3081,
      "biggest": 3082,
      "widely": 3083,
      "concentrated": 3084,
      "street": 3085,
      "mountain": 3086,
      "lifesty": 3087,
      "bottled": 3088,
      "language": 3089,
      "downloaded": 3090,
      "honey": 3091,
      "lifestyles": 3092,
      "400": 3093,
      "92": 3094,
      "aid": 3095,
      "aafc": 3096,
      "bc": 3097,
      "border": 3098,
      "cir": 3099,
      "cup": 3100,
      "hai": 3101,
      "jian": 3102,
      "nations": 3103,
      "night": 3104,
      "rang": 3105,
      "went": 3106,
      "ints": 3107,
      "ree": 3108,
      "requ": 3109,
      "tia": 3110,
      "ather": 3111,
      "adverti": 3112,
      "liance": 3113,
      "action": 3114,
      "emphas": 3115,
      "prescri": 3116,
      "print": 3117,
      "discoun": 3118,
      "applied": 3119,
      "operate": 3120,
      "requirement": 3121,
      "9723": 3122,
      "purchased": 3123,
      "cookies": 3124,
      "familystyle": 3125,
      "cheese": 3126,
      "identify": 3127,
      "dependent": 3128,
      "descriptions": 3129,
      "galaxies": 3130,
      "encouraged": 3131,
      "contributed": 3132,
      "dark": 3133,
      "preserved": 3134,
      "shelf": 3135,
      "foundation": 3136,
      "temperature": 3137,
      "deliver": 3138,
      "mexico": 3139,
      "3000": 3140,
      "87": 3141,
      "bab": 3142,
      "dam": 3143,
      "equ": 3144,
      "ged": 3145,
      "hect": 3146,
      "ire": 3147,
      "nal": 3148,
      "vic": 3149,
      "wet": 3150,
      "willi": 3151,
      "ana": 3152,
      "tiv": 3153,
      "arc": 3154,
      "agro": 3155,
      "produces": 3156,
      "comb": 3157,
      "omin": 3158,
      "spend": 3159,
      "see": 3160,
      "comply": 3161,
      "compris": 3162,
      "valid": 3163,
      "contents": 3164,
      "peak": 3165,
      "objects": 3166,
      "growers": 3167,
      "ava": 3168,
      "points": 3169,
      "labour": 3170,
      "moved": 3171,
      "readers": 3172,
      "names": 3173,
      "carbon": 3174,
      "specifically": 3175,
      "quarter": 3176,
      "distinc": 3177,
      "buyer": 3178,
      "harvest": 3179,
      "partner": 3180,
      "funding": 3181,
      "chocolates": 3182,
      "vinegar": 3183,
      "macau": 3184,
      "classification": 3185,
      "details": 3186,
      "fertilizer": 3187,
      "destination": 3188,
      "treatment": 3189,
      "decision": 3190,
      "constant": 3191,
      "children": 3192,
      "cfia": 3193,
      "technologies": 3194,
      "mentioned": 3195,
      "neutr": 3196,
      "québec": 3197,
      "bs": 3198,
      "bol": 3199,
      "bir": 3200,
      "evid": 3201,
      "iency": 3202,
      "ka": 3203,
      "lum": 3204,
      "selling": 3205,
      "wal": 3206,
      "ya": 3207,
      "zon": 3208,
      "refer": 3209,
      "eration": 3210,
      "ening": 3211,
      "aries": 3212,
      "improving": 3213,
      "sust": 3214,
      "ury": 3215,
      "foodservice": 3216,
      "diam": 3217,
      "divi": 3218,
      "ressing": 3219,
      "dev": 3220,
      "logy": 3221,
      "pled": 3222,
      "spent": 3223,
      "complex": 3224,
      "1980": 3225,
      "branch": 3226,
      "grad": 3227,
      "indians": 3228,
      "ips": 3229,
      "bound": 3230,
      "norm": 3231,
      "numbers": 3232,
      "caused": 3233,
      "award": 3234,
      "certificates": 3235,
      "dog": 3236,
      "manufactured": 3237,
      "shipment": 3238,
      "crab": 3239,
      "measuring": 3240,
      "reaching": 3241,
      "planets": 3242,
      "receiv": 3243,
      "improved": 3244,
      "radiation": 3245,
      "cooked": 3246,
      "buying": 3247,
      "adequ": 3248,
      "strict": 3249,
      "employment": 3250,
      "experienced": 3251,
      "lesson": 3252,
      "property": 3253,
      "chief": 3254,
      "princip": 3255,
      "efficient": 3256,
      "wavelengths": 3257,
      "demonstr": 3258,
      "square": 3259,
      "doctoral": 3260,
      "53": 3261,
      "72": 3262,
      "cater": 3263,
      "jing": 3264,
      "kg": 3265,
      "som": 3266,
      "veter": 3267,
      "zone": 3268,
      "tian": 3269,
      "stable": 3270,
      "adap": 3271,
      "adju": 3272,
      "duties": 3273,
      "dubai": 3274,
      "leban": 3275,
      "extrem": 3276,
      "than": 3277,
      "strative": 3278,
      "direc": 3279,
      "quot": 3280,
      "essor": 3281,
      "consulate": 3282,
      "phen": 3283,
      "interview": 3284,
      "managed": 3285,
      "maecigcca": 3286,
      "organized": 3287,
      "businesses": 3288,
      "district": 3289,
      "invent": 3290,
      "carcass": 3291,
      "calcul": 3292,
      "604": 3293,
      "flavour": 3294,
      "differen": 3295,
      "institution": 3296,
      "logical": 3297,
      "hanoi": 3298,
      "forwarders": 3299,
      "slowly": 3300,
      "community": 3301,
      "profession": 3302,
      "astrophysics": 3303,
      "pulses": 3304,
      "territory": 3305,
      "amounts": 3306,
      "summary": 3307,
      "hypermarkets": 3308,
      "consignment": 3309,
      "evaluation": 3310,
      "guarantee": 3311,
      "granted": 3312,
      "violet": 3313,
      "enjoy": 3314,
      "video": 3315,
      "overseas": 3316,
      "jiang": 3317,
      "william": 3318,
      "camer": 3319,
      "dish": 3320,
      "draw": 3321,
      "fluc": 3322,
      "k1": 3323,
      "lap": 3324,
      "lenti": 3325,
      "more": 3326,
      "rose": 3327,
      "sask": 3328,
      "tt": 3329,
      "ud": 3330,
      "women": 3331,
      "ink": 3332,
      "esti": 3333,
      "tice": 3334,
      "tivity": 3335,
      "arrange": 3336,
      "elect": 3337,
      "elines": 3338,
      "cond": 3339,
      "chap": 3340,
      "producing": 3341,
      "deep": 3342,
      "amate": 3343,
      "sian": 3344,
      "ured": 3345,
      "1970": 3346,
      "emir": 3347,
      "canadians": 3348,
      "phil": 3349,
      "alls": 3350,
      "audi": 3351,
      "valent": 3352,
      "party": 3353,
      "brun": 3354,
      "maxim": 3355,
      "indias": 3356,
      "fees": 3357,
      "salted": 3358,
      "oilseeds": 3359,
      "afflu": 3360,
      "afford": 3361,
      "leader": 3362,
      "maps": 3363,
      "physics": 3364,
      "takes": 3365,
      "chile": 3366,
      "powder": 3367,
      "relative": 3368,
      "eye": 3369,
      "engineered": 3370,
      "denmark": 3371,
      "darus": 3372,
      "placed": 3373,
      "functional": 3374,
      "scotia": 3375,
      "events": 3376,
      "compete": 3377,
      "techniques": 3378,
      "talks": 3379,
      "absor": 3380,
      "guidelines": 3381,
      "reputation": 3382,
      "liberal": 3383,
      "security": 3384,
      "divided": 3385,
      "normally": 3386,
      "extremely": 3387,
      "fluctu": 3388,
      "emirates": 3389,
      "600": 3390,
      "aq": 3391,
      "band": 3392,
      "hat": 3393,
      "pas": 3394,
      "ron": 3395,
      "sensitive": 3396,
      "wast": 3397,
      "reference": 3398,
      "orch": 3399,
      "eded": 3400,
      "sters": 3401,
      "rob": 3402,
      "cocon": 3403,
      "coord": 3404,
      "dur": 3405,
      "accep": 3406,
      "iter": 3407,
      "ison": 3408,
      "agn": 3409,
      "conversion": 3410,
      "resol": 3411,
      "abilities": 3412,
      "raft": 3413,
      "notific": 3414,
      "series": 3415,
      "bright": 3416,
      "bei": 3417,
      "minh": 3418,
      "lock": 3419,
      "correct": 3420,
      "weak": 3421,
      "pricing": 3422,
      "licence": 3423,
      "healthier": 3424,
      "discovered": 3425,
      "index": 3426,
      "achel": 3427,
      "named": 3428,
      "respect": 3429,
      "investments": 3430,
      "personal": 3431,
      "distribute": 3432,
      "resulting": 3433,
      "links": 3434,
      "brought": 3435,
      "associated": 3436,
      "toria": 3437,
      "completed": 3438,
      "ingredient": 3439,
      "breads": 3440,
      "advantages": 3441,
      "nutri": 3442,
      "concerned": 3443,
      "administrative": 3444,
      "focused": 3445,
      "penet": 3446,
      "ellies": 3447,
      "ellite": 3448,
      "assistance": 3449,
      "background": 3450,
      "predic": 3451,
      "gaining": 3452,
      "satellite": 3453,
      "geographic": 3454,
      "families": 3455,
      "executive": 3456,
      "hours": 3457,
      "protein": 3458,
      "victoria": 3459,
      "electro": 3460,
      "amateur": 3461,
      "accepted": 3462,
      "94": 3463,
      "gent": 3464,
      "ki": 3465,
      "ko": 3466,
      "kans": 3467,
      "mult": 3468,
      "nd": 3469,
      "nz": 3470,
      "nav": 3471,
      "sample": 3472,
      "wer": 3473,
      "ined": 3474,
      "inational": 3475,
      "instead": 3476,
      "reven": 3477,
      "reforms": 3478,
      "altern": 3479,
      "stop": 3480,
      "atures": 3481,
      "adop": 3482,
      "prog": 3483,
      "left": 3484,
      "chant": 3485,
      "shelled": 3486,
      "verty": 3487,
      "vili": 3488,
      "counter": 3489,
      "social": 3490,
      "fort": 3491,
      "reness": 3492,
      "oblate": 3493,
      "interstellar": 3494,
      "expect": 3495,
      "poverty": 3496,
      "fee": 3497,
      "salam": 3498,
      "boos": 3499,
      "offered": 3500,
      "cuts": 3501,
      "appropri": 3502,
      "presented": 3503,
      "inflation": 3504,
      "create": 3505,
      "creating": 3506,
      "customer": 3507,
      "choice": 3508,
      "applicable": 3509,
      "attention": 3510,
      "sauces": 3511,
      "charge": 3512,
      "environmental": 3513,
      "spectros": 3514,
      "swick": 3515,
      "awareness": 3516,
      "organizer": 3517,
      "promoting": 3518,
      "tastes": 3519,
      "professor": 3520,
      "younger": 3521,
      "photographic": 3522,
      "participation": 3523,
      "implementation": 3524,
      "detailed": 3525,
      "achieve": 3526,
      "composition": 3527,
      "flowers": 3528,
      "channels": 3529,
      "recommended": 3530,
      "islamic": 3531,
      "attributed": 3532,
      "cnca": 3533,
      "further": 3534,
      "projected": 3535,
      "arctic": 3536,
      "veterinary": 3537,
      "adjust": 3538,
      "chapter": 3539,
      "brunswick": 3540,
      "darussalam": 3541,
      "electromagnetic": 3542,
      "multinational": 3543,
      "52": 3544,
      "71": 3545,
      "73": 3546,
      "aver": 3547,
      "centi": 3548,
      "cise": 3549,
      "dates": 3550,
      "gra": 3551,
      "hut": 3552,
      "hub": 3553,
      "ied": 3554,
      "sti": 3555,
      "tom": 3556,
      "zation": 3557,
      "ino": 3558,
      "info": 3559,
      "enge": 3560,
      "stage": 3561,
      "asi": 3562,
      "asp": 3563,
      "constit": 3564,
      "trial": 3565,
      "track": 3566,
      "strain": 3567,
      "shown": 3568,
      "mean": 3569,
      "verify": 3570,
      "here": 3571,
      "frame": 3572,
      "matic": 3573,
      "poster": 3574,
      "developments": 3575,
      "preferences": 3576,
      "factory": 3577,
      "generic": 3578,
      "malt": 3579,
      "package": 3580,
      "operators": 3581,
      "supervision": 3582,
      "studies": 3583,
      "pavili": 3584,
      "polar": 3585,
      "choose": 3586,
      "facility": 3587,
      "fastfood": 3588,
      "representing": 3589,
      "delta": 3590,
      "handling": 3591,
      "baked": 3592,
      "select": 3593,
      "selected": 3594,
      "reliability": 3595,
      "reduce": 3596,
      "traditionally": 3597,
      "improvement": 3598,
      "kilo": 3599,
      "wait": 3600,
      "bestfoods": 3601,
      "astrolab": 3602,
      "description": 3603,
      "explains": 3604,
      "diverse": 3605,
      "relationships": 3606,
      "influence": 3607,
      "challenge": 3608,
      "exception": 3609,
      "1990s": 3610,
      "encourage": 3611,
      "jams": 3612,
      "negotiations": 3613,
      "dining": 3614,
      "physicist": 3615,
      "announced": 3616,
      "accession": 3617,
      "moderately": 3618,
      "hectares": 3619,
      "adequate": 3620,
      "74": 3621,
      "eco": 3622,
      "fdi": 3623,
      "gul": 3624,
      "gam": 3625,
      "gate": 3626,
      "haw": 3627,
      "itions": 3628,
      "jum": 3629,
      "jellies": 3630,
      "lan": 3631,
      "lad": 3632,
      "rab": 3633,
      "rights": 3634,
      "sain": 3635,
      "sav": 3636,
      "tob": 3637,
      "zens": 3638,
      "tious": 3639,
      "ension": 3640,
      "artific": 3641,
      "conn": 3642,
      "chand": 3643,
      "exclus": 3644,
      "dix": 3645,
      "defic": 3646,
      "marked": 3647,
      "mented": 3648,
      "emitted": 3649,
      "perce": 3650,
      "fortun": 3651,
      "luzon": 3652,
      "endor": 3653,
      "geor": 3654,
      "aka": 3655,
      "grade": 3656,
      "gross": 3657,
      "explo": 3658,
      "indirect": 3659,
      "1991": 3660,
      "weather": 3661,
      "salad": 3662,
      "2010": 3663,
      "2015": 3664,
      "cape": 3665,
      "researcher": 3666,
      "researchers": 3667,
      "mandatory": 3668,
      "veness": 3669,
      "follows": 3670,
      "continuous": 3671,
      "detect": 3672,
      "houses": 3673,
      "contrast": 3674,
      "containers": 3675,
      "link": 3676,
      "hygi": 3677,
      "ography": 3678,
      "orders": 3679,
      "receive": 3680,
      "associations": 3681,
      "indicators": 3682,
      "helped": 3683,
      "changed": 3684,
      "scientists": 3685,
      "cultiv": 3686,
      "losing": 3687,
      "pharmaceuticals": 3688,
      "function": 3689,
      "understanding": 3690,
      "territories": 3691,
      "purposes": 3692,
      "exhibition": 3693,
      "willing": 3694,
      "defined": 3695,
      "emerging": 3696,
      "acceptance": 3697,
      "sheet": 3698,
      "education": 3699,
      "component": 3700,
      "declining": 3701,
      "determined": 3702,
      "negative": 3703,
      "suitable": 3704,
      "thereof": 3705,
      "discount": 3706,
      "diameter": 3707,
      "phenomen": 3708,
      "affluent": 3709,
      "furthermore": 3710,
      "61": 3711,
      "76": 3712,
      "bag": 3713,
      "cult": 3714,
      "kar": 3715,
      "kind": 3716,
      "lun": 3717,
      "letter": 3718,
      "ml": 3719,
      "plo": 3720,
      "puts": 3721,
      "ru": 3722,
      "tag": 3723,
      "instruc": 3724,
      "invisible": 3725,
      "tiveness": 3726,
      "orange": 3727,
      "covers": 3728,
      "aculture": 3729,
      "summ": 3730,
      "cham": 3731,
      "truc": 3732,
      "appe": 3733,
      "diagn": 3734,
      "reser": 3735,
      "residents": 3736,
      "shares": 3737,
      "spring": 3738,
      "1955": 3739,
      "millions": 3740,
      "forced": 3741,
      "goal": 3742,
      "idence": 3743,
      "park": 3744,
      "declar": 3745,
      "occup": 3746,
      "money": 3747,
      "upper": 3748,
      "boy": 3749,
      "priced": 3750,
      "nucle": 3751,
      "observations": 3752,
      "afma": 3753,
      "demands": 3754,
      "model": 3755,
      "tree": 3756,
      "estimate": 3757,
      "peoples": 3758,
      "tuna": 3759,
      "flavo": 3760,
      "extensive": 3761,
      "italian": 3762,
      "interesting": 3763,
      "release": 3764,
      "electric": 3765,
      "built": 3766,
      "egyp": 3767,
      "measured": 3768,
      "maintained": 3769,
      "steadily": 3770,
      "places": 3771,
      "instant": 3772,
      "exhibit": 3773,
      "nutritional": 3774,
      "aquaculture": 3775,
      "senior": 3776,
      "chewing": 3777,
      "stuffs": 3778,
      "transp": 3779,
      "discovery": 3780,
      "objective": 3781,
      "carried": 3782,
      "prescribed": 3783,
      "lentils": 3784,
      "pavilion": 3785,
      "gulf": 3786,
      "artificial": 3787,
      "diagnos": 3788,
      "250": 3789,
      "ah": 3790,
      "bet": 3791,
      "bachel": 3792,
      "cid": 3793,
      "drop": 3794,
      "lers": 3795,
      "mom": 3796,
      "mut": 3797,
      "master": 3798,
      "pig": 3799,
      "pick": 3800,
      "pestic": 3801,
      "soph": 3802,
      "inery": 3803,
      "rely": 3804,
      "refour": 3805,
      "tis": 3806,
      "orbit": 3807,
      "arch": 3808,
      "arian": 3809,
      "stap": 3810,
      "staff": 3811,
      "cot": 3812,
      "etary": 3813,
      "itch": 3814,
      "exclu": 3815,
      "thom": 3816,
      "cane": 3817,
      "essential": 3818,
      "empt": 3819,
      "rati": 3820,
      "perf": 3821,
      "ided": 3822,
      "phone": 3823,
      "notice": 3824,
      "lowest": 3825,
      "berg": 3826,
      "pressure": 3827,
      "correspon": 3828,
      "practi": 3829,
      "aii": 3830,
      "boom": 3831,
      "astronomes": 3832,
      "toky": 3833,
      "offering": 3834,
      "appen": 3835,
      "medic": 3836,
      "packed": 3837,
      "cause": 3838,
      "carrefour": 3839,
      "operates": 3840,
      "transit": 3841,
      "cosmic": 3842,
      "herring": 3843,
      "establishment": 3844,
      "investors": 3845,
      "contrib": 3846,
      "indonesian": 3847,
      "euromonitor": 3848,
      "representative": 3849,
      "initial": 3850,
      "reducing": 3851,
      "cells": 3852,
      "easy": 3853,
      "concern": 3854,
      "swine": 3855,
      "slaughtering": 3856,
      "quantities": 3857,
      "permitted": 3858,
      "sanitary": 3859,
      "question": 3860,
      "coupled": 3861,
      "restricted": 3862,
      "figures": 3863,
      "array": 3864,
      "fourth": 3865,
      "nationwide": 3866,
      "friend": 3867,
      "strategies": 3868,
      "franchise": 3869,
      "heavily": 3870,
      "tools": 3871,
      "combined": 3872,
      "habits": 3873,
      "machinery": 3874,
      "proposed": 3875,
      "nestle": 3876,
      "cuisine": 3877,
      "yield": 3878,
      "status": 3879,
      "premium": 3880,
      "thanks": 3881,
      "coconut": 3882,
      "beijing": 3883,
      "kansai": 3884,
      "hawaii": 3885,
      "endorse": 3886,
      "07": 3887,
      "93": 3888,
      "cli": 3889,
      "cakes": 3890,
      "fit": 3891,
      "fers": 3892,
      "fies": 3893,
      "gir": 3894,
      "hun": 3895,
      "hear": 3896,
      "ik": 3897,
      "ler": 3898,
      "ped": 3899,
      "pine": 3900,
      "search": 3901,
      "utiliz": 3902,
      "wish": 3903,
      "inspect": 3904,
      "anitary": 3905,
      "argent": 3906,
      "coco": 3907,
      "elds": 3908,
      "ett": 3909,
      "item": 3910,
      "unfortun": 3911,
      "chec": 3912,
      "extern": 3913,
      "train": 3914,
      "abel": 3915,
      "abased": 3916,
      "ayas": 3917,
      "formal": 3918,
      "express": 3919,
      "values": 3920,
      "species": 3921,
      "1992": 3922,
      "102": 3923,
      "century": 3924,
      "supplement": 3925,
      "forest": 3926,
      "lightyears": 3927,
      "town": 3928,
      "licen": 3929,
      "licenses": 3930,
      "approach": 3931,
      "operated": 3932,
      "bud": 3933,
      "supplies": 3934,
      "ewhat": 3935,
      "titude": 3936,
      "stood": 3937,
      "additives": 3938,
      "applications": 3939,
      "departments": 3940,
      "remained": 3941,
      "fastest": 3942,
      "succe": 3943,
      "10000": 3944,
      "physical": 3945,
      "accordingly": 3946,
      "planning": 3947,
      "authorized": 3948,
      "expanded": 3949,
      "controlled": 3950,
      "improvements": 3951,
      "necessarily": 3952,
      "palm": 3953,
      "piec": 3954,
      "initiatives": 3955,
      "fertilizers": 3956,
      "sequence": 3957,
      "coastal": 3958,
      "colours": 3959,
      "characteristics": 3960,
      "subsidi": 3961,
      "texture": 3962,
      "phytos": 3963,
      "favourable": 3964,
      "citrus": 3965,
      "dunlap": 3966,
      "niche": 3967,
      "advertising": 3968,
      "delivery": 3969,
      "somewhat": 3970,
      "k1a": 3971,
      "appropriate": 3972,
      "tomato": 3973,
      "sophistic": 3974,
      "tokyo": 3975,
      "appendix": 3976,
      "external": 3977,
      "phytosanitary": 3978,
      "120": 3979,
      "519": 3980,
      "df": 3981,
      "dated": 3982,
      "dressing": 3983,
      "fon": 3984,
      "fis": 3985,
      "fred": 3986,
      "gon": 3987,
      "gcc": 3988,
      "hem": 3989,
      "iri": 3990,
      "ket": 3991,
      "made": 3992,
      "oth": 3993,
      "ound": 3994,
      "ram": 3995,
      "uel": 3996,
      "wines": 3997,
      "yang": 3998,
      "zi": 3999,
      "zes": 4000,
      "inos": 4001,
      "coverage": 4002,
      "element": 4003,
      "units": 4004,
      "apec": 4005,
      "urs": 4006,
      "urt": 4007,
      "died": 4008,
      "diplo": 4009,
      "lob": 4010,
      "usd": 4011,
      "usage": 4012,
      "ama": 4013,
      "aman": 4014,
      "siq": 4015,
      "plain": 4016,
      "consume": 4017,
      "acting": 4018,
      "yearly": 4019,
      "gets": 4020,
      "object": 4021,
      "formul": 4022,
      "formats": 4023,
      "interactive": 4024,
      "expir": 4025,
      "manner": 4026,
      "manager": 4027,
      "minutes": 4028,
      "companys": 4029,
      "processors": 4030,
      "worldwide": 4031,
      "capabilities": 4032,
      "clin": 4033,
      "fishery": 4034,
      "ideal": 4035,
      "elimin": 4036,
      "played": 4037,
      "estimates": 4038,
      "advance": 4039,
      "nonalcoholic": 4040,
      "equivalent": 4041,
      "datab": 4042,
      "take": 4043,
      "noted": 4044,
      "dominate": 4045,
      "realization": 4046,
      "articles": 4047,
      "commonly": 4048,
      "indicates": 4049,
      "liters": 4050,
      "wave": 4051,
      "iranian": 4052,
      "irrigation": 4053,
      "tunisian": 4054,
      "clearly": 4055,
      "huge": 4056,
      "club": 4057,
      "visitors": 4058,
      "merchand": 4059,
      "appears": 4060,
      "enterprise": 4061,
      "procedure": 4062,
      "strategic": 4063,
      "technique": 4064,
      "0118": 4065,
      "speed": 4066,
      "speak": 4067,
      "filipino": 4068,
      "submitted": 4069,
      "extract": 4070,
      "ultraviolet": 4071,
      "movement": 4072,
      "revealed": 4073,
      "demonstrated": 4074,
      "dishes": 4075,
      "notification": 4076,
      "tobac": 4077,
      "explore": 4078,
      "hygiene": 4079,
      "phenomenon": 4080,
      "bachelor": 4081,
      "practice": 4082,
      "argentina": 4083,
      "licensing": 4084,
      "89": 4085,
      "900": 4086,
      "bond": 4087,
      "bone": 4088,
      "cs": 4089,
      "dic": 4090,
      "fail": 4091,
      "hus": 4092,
      "pest": 4093,
      "rust": 4094,
      "satis": 4095,
      "ugg": 4096,
      "vat": 4097,
      "vil": 4098,
      "winter": 4099,
      "yes": 4100,
      "yuk": 4101,
      "insp": 4102,
      "independ": 4103,
      "inaug": 4104,
      "onna": 4105,
      "rep": 4106,
      "renew": 4107,
      "refin": 4108,
      "recover": 4109,
      "tify": 4110,
      "enn": 4111,
      "row": 4112,
      "atel": 4113,
      "etti": 4114,
      "unding": 4115,
      "unile": 4116,
      "unemployment": 4117,
      "productivity": 4118,
      "demo": 4119,
      "iger": 4120,
      "plays": 4121,
      "plask": 4122,
      "canadaisrael": 4123,
      "soon": 4124,
      "forces": 4125,
      "lux": 4126,
      "grades": 4127,
      "internal": 4128,
      "valuable": 4129,
      "genic": 4130,
      "gence": 4131,
      "decided": 4132,
      "branded": 4133,
      "discus": 4134,
      "diseas": 4135,
      "holds": 4136,
      "180": 4137,
      "generation": 4138,
      "colle": 4139,
      "metric": 4140,
      "retailing": 4141,
      "establishing": 4142,
      "chool": 4143,
      "specialist": 4144,
      "stateowned": 4145,
      "allows": 4146,
      "introduce": 4147,
      "1987": 4148,
      "patter": 4149,
      "meeting": 4150,
      "build": 4151,
      "crisis": 4152,
      "sites": 4153,
      "promotional": 4154,
      "collect": 4155,
      "bury": 4156,
      "reflecting": 4157,
      "microorganisms": 4158,
      "father": 4159,
      "launch": 4160,
      "sequently": 4161,
      "advised": 4162,
      "documentation": 4163,
      "heavy": 4164,
      "giant": 4165,
      "kuwait": 4166,
      "mayonna": 4167,
      "arrival": 4168,
      "probably": 4169,
      "sharp": 4170,
      "molecular": 4171,
      "comparison": 4172,
      "latest": 4173,
      "request": 4174,
      "referred": 4175,
      "aqsiq": 4176,
      "resolution": 4177,
      "kilogram": 4178,
      "saint": 4179,
      "deficit": 4180,
      "egyptian": 4181,
      "thomas": 4182,
      "ratio": 4183,
      "unfortunately": 4184,
      "fiscal": 4185,
      "clinical": 4186,
      "tobacco": 4187,
      "unilever": 4188,
      "plaskett": 4189,
      "mayonnaise": 4190,
      "06": 4191,
      "116": 4192,
      "bacter": 4193,
      "cstores": 4194,
      "kat": 4195,
      "milli": 4196,
      "pm": 4197,
      "page": 4198,
      "rc": 4199,
      "school": 4200,
      "trop": 4201,
      "vast": 4202,
      "wich": 4203,
      "zberg": 4204,
      "edward": 4205,
      "stated": 4206,
      "prop": 4207,
      "iss": 4208,
      "supers": 4209,
      "conclus": 4210,
      "thre": 4211,
      "foodstuffs": 4212,
      "deb": 4213,
      "marking": 4214,
      "oman": 4215,
      "ometer": 4216,
      "rid": 4217,
      "estyle": 4218,
      "plates": 4219,
      "regard": 4220,
      "actual": 4221,
      "paris": 4222,
      "hebrew": 4223,
      "format": 4224,
      "reci": 4225,
      "newton": 4226,
      "highquality": 4227,
      "processes": 4228,
      "prevent": 4229,
      "update": 4230,
      "finally": 4231,
      "findings": 4232,
      "finished": 4233,
      "engaged": 4234,
      "pursu": 4235,
      "useful": 4236,
      "universal": 4237,
      "assess": 4238,
      "surpr": 4239,
      "continuing": 4240,
      "239": 4241,
      "affect": 4242,
      "herzberg": 4243,
      "milky": 4244,
      "parent": 4245,
      "establishments": 4246,
      "limit": 4247,
      "crush": 4248,
      "resulted": 4249,
      "accessed": 4250,
      "privati": 4251,
      "privatel": 4252,
      "owner": 4253,
      "charges": 4254,
      "flavors": 4255,
      "opening": 4256,
      "supported": 4257,
      "condition": 4258,
      "shift": 4259,
      "slaught": 4260,
      "magaz": 4261,
      "course": 4262,
      "commitment": 4263,
      "gious": 4264,
      "questions": 4265,
      "segments": 4266,
      "seedling": 4267,
      "roundconic": 4268,
      "experiment": 4269,
      "priority": 4270,
      "ccd": 4271,
      "arrang": 4272,
      "mount": 4273,
      "federal": 4274,
      "martin": 4275,
      "minimal": 4276,
      "fuel": 4277,
      "rooms": 4278,
      "aimed": 4279,
      "funds": 4280,
      "channel": 4281,
      "dropped": 4282,
      "components": 4283,
      "declined": 4284,
      "suggest": 4285,
      "honour": 4286,
      "facilitate": 4287,
      "neighbouring": 4288,
      "prohibited": 4289,
      "audience": 4290,
      "durum": 4291,
      "framework": 4292,
      "girl": 4293,
      "sophisticated": 4294,
      "freder": 4295,
      "patterns": 4296,
      "privatelabel": 4297,
      "6000": 4298,
      "800": 4299,
      "caf": 4300,
      "even": 4301,
      "flower": 4302,
      "hit": 4303,
      "ix": 4304,
      "jak": 4305,
      "mg": 4306,
      "nia": 4307,
      "ros": 4308,
      "sed": 4309,
      "tap": 4310,
      "vary": 4311,
      "yu": 4312,
      "zing": 4313,
      "osaka": 4314,
      "input": 4315,
      "oni": 4316,
      "ars": 4317,
      "arse": 4318,
      "lier": 4319,
      "lives": 4320,
      "acqui": 4321,
      "itob": 4322,
      "itzer": 4323,
      "unded": 4324,
      "fob": 4325,
      "immig": 4326,
      "consolid": 4327,
      "condem": 4328,
      "apacific": 4329,
      "straw": 4330,
      "2008": 4331,
      "incor": 4332,
      "spain": 4333,
      "nepal": 4334,
      "alling": 4335,
      "nover": 4336,
      "observe": 4337,
      "formed": 4338,
      "manitob": 4339,
      "mindan": 4340,
      "highend": 4341,
      "features": 4342,
      "populated": 4343,
      "visits": 4344,
      "visayas": 4345,
      "observed": 4346,
      "130": 4347,
      "generated": 4348,
      "worked": 4349,
      "surplus": 4350,
      "northeast": 4351,
      "mild": 4352,
      "milling": 4353,
      "paign": 4354,
      "cali": 4355,
      "malaysian": 4356,
      "housing": 4357,
      "player": 4358,
      "persons": 4359,
      "depth": 4360,
      "longterm": 4361,
      "supporting": 4362,
      "taiwanese": 4363,
      "sugarcane": 4364,
      "shif": 4365,
      "register": 4366,
      "cooperative": 4367,
      "described": 4368,
      "financing": 4369,
      "huds": 4370,
      "diversification": 4371,
      "wholesale": 4372,
      "profit": 4373,
      "implemented": 4374,
      "mixed": 4375,
      "preserv": 4376,
      "amounted": 4377,
      "favor": 4378,
      "turnover": 4379,
      "shelves": 4380,
      "decisions": 4381,
      "characterized": 4382,
      "recommend": 4383,
      "electronic": 4384,
      "campaign": 4385,
      "pleas": 4386,
      "communications": 4387,
      "aggres": 4388,
      "unique": 4389,
      "emphasis": 4390,
      "baby": 4391,
      "sustain": 4392,
      "receiving": 4393,
      "institutional": 4394,
      "condiments": 4395,
      "maximum": 4396,
      "robins": 4397,
      "asiapacific": 4398,
      "instructions": 4399,
      "summer": 4400,
      "transparent": 4401,
      "moment": 4402,
      "pesticides": 4403,
      "budget": 4404,
      "diplomatic": 4405,
      "inaugur": 4406,
      "diseases": 4407,
      "mindanao": 4408,
      "210": 4409,
      "4000": 4410,
      "700": 4411,
      "81": 4412,
      "82": 4413,
      "91": 4414,
      "blo": 4415,
      "cmc": 4416,
      "ders": 4417,
      "drawn": 4418,
      "gin": 4419,
      "gem": 4420,
      "gium": 4421,
      "iples": 4422,
      "jal": 4423,
      "lenses": 4424,
      "mu": 4425,
      "nit": 4426,
      "narr": 4427,
      "pil": 4428,
      "push": 4429,
      "sess": 4430,
      "smo": 4431,
      "tc": 4432,
      "tin": 4433,
      "tures": 4434,
      "tests": 4435,
      "wat": 4436,
      "wind": 4437,
      "inous": 4438,
      "ane": 4439,
      "anmar": 4440,
      "ancy": 4441,
      "til": 4442,
      "alber": 4443,
      "enh": 4444,
      "station": 4445,
      "roast": 4446,
      "ath": 4447,
      "proc": 4448,
      "eland": 4449,
      "assum": 4450,
      "agu": 4451,
      "constrain": 4452,
      "chup": 4453,
      "extra": 4454,
      "true": 4455,
      "thou": 4456,
      "dig": 4457,
      "amended": 4458,
      "termin": 4459,
      "spright": 4460,
      "seve": 4461,
      "nebul": 4462,
      "umes": 4463,
      "countryside": 4464,
      "izza": 4465,
      "intell": 4466,
      "derived": 4467,
      "certified": 4468,
      "ocks": 4469,
      "feature": 4470,
      "prince": 4471,
      "entially": 4472,
      "labrad": 4473,
      "offices": 4474,
      "sions": 4475,
      "invo": 4476,
      "investi": 4477,
      "substit": 4478,
      "fao": 4479,
      "standing": 4480,
      "finding": 4481,
      "aware": 4482,
      "145": 4483,
      "graphic": 4484,
      "facts": 4485,
      "equipped": 4486,
      "drive": 4487,
      "hydr": 4488,
      "hydro": 4489,
      "stein": 4490,
      "quarters": 4491,
      "confidence": 4492,
      "charles": 4493,
      "extent": 4494,
      "extended": 4495,
      "extension": 4496,
      "1971": 4497,
      "1977": 4498,
      "controls": 4499,
      "positioned": 4500,
      "institutions": 4501,
      "protect": 4502,
      "nsdp": 4503,
      "readyto": 4504,
      "tart": 4505,
      "cheaper": 4506,
      "measurement": 4507,
      "instrument": 4508,
      "explain": 4509,
      "culinary": 4510,
      "tourist": 4511,
      "employe": 4512,
      "passed": 4513,
      "exceeding": 4514,
      "closely": 4515,
      "steady": 4516,
      "ranked": 4517,
      "reflect": 4518,
      "belgium": 4519,
      "federation": 4520,
      "principles": 4521,
      "treaty": 4522,
      "double": 4523,
      "hortic": 4524,
      "cifta": 4525,
      "simple": 4526,
      "simply": 4527,
      "familiar": 4528,
      "dealers": 4529,
      "myanmar": 4530,
      "innovative": 4531,
      "claims": 4532,
      "believe": 4533,
      "believed": 4534,
      "historical": 4535,
      "exposure": 4536,
      "floor": 4537,
      "comprised": 4538,
      "distinct": 4539,
      "evidence": 4540,
      "principal": 4541,
      "differences": 4542,
      "professional": 4543,
      "revenues": 4544,
      "progress": 4545,
      "george": 4546,
      "nucleus": 4547,
      "cotton": 4548,
      "friendly": 4549,
      "merchandise": 4550,
      "condemned": 4551,
      "hudson": 4552,
      "gemini": 4553,
      "narration": 4554,
      "alberta": 4555,
      "sprightly": 4556,
      "labrador": 4557,
      "7000": 4558,
      "buc": 4559,
      "cen": 4560,
      "cro": 4561,
      "cau": 4562,
      "camp": 4563,
      "cdn": 4564,
      "drou": 4565,
      "ever": 4566,
      "gm": 4567,
      "hall": 4568,
      "hill": 4569,
      "io": 4570,
      "oy": 4571,
      "pear": 4572,
      "pra": 4573,
      "pare": 4574,
      "prawn": 4575,
      "pizza": 4576,
      "rac": 4577,
      "says": 4578,
      "skil": 4579,
      "task": 4580,
      "tual": 4581,
      "vital": 4582,
      "won": 4583,
      "inputs": 4584,
      "era": 4585,
      "tile": 4586,
      "ale": 4587,
      "alliance": 4588,
      "algon": 4589,
      "stations": 4590,
      "routes": 4591,
      "atchew": 4592,
      "codes": 4593,
      "coarse": 4594,
      "proce": 4595,
      "proxim": 4596,
      "acad": 4597,
      "urally": 4598,
      "urmet": 4599,
      "thing": 4600,
      "foodex": 4601,
      "usda": 4602,
      "oppos": 4603,
      "sho": 4604,
      "quin": 4605,
      "quiz": 4606,
      "older": 4607,
      "plic": 4608,
      "marketplace": 4609,
      "ectual": 4610,
      "seal": 4611,
      "fornia": 4612,
      "gourmet": 4613,
      "iring": 4614,
      "peg": 4615,
      "pep": 4616,
      "avoid": 4617,
      "spectra": 4618,
      "max": 4619,
      "poly": 4620,
      "posted": 4621,
      "decla": 4622,
      "mother": 4623,
      "start": 4624,
      "ached": 4625,
      "works": 4626,
      "color": 4627,
      "risks": 4628,
      "cargo": 4629,
      "carling": 4630,
      "gue": 4631,
      "respond": 4632,
      "airport": 4633,
      "dozens": 4634,
      "syn": 4635,
      "170": 4636,
      "famous": 4637,
      "hood": 4638,
      "hole": 4639,
      "attempt": 4640,
      "specifications": 4641,
      "brid": 4642,
      "step": 4643,
      "lawrence": 4644,
      "critical": 4645,
      "delhi": 4646,
      "breeding": 4647,
      "sletter": 4648,
      "convention": 4649,
      "consideration": 4650,
      "relig": 4651,
      "reliable": 4652,
      "glob": 4653,
      "consistent": 4654,
      "consistently": 4655,
      "cash": 4656,
      "menu": 4657,
      "resource": 4658,
      "diversified": 4659,
      "loss": 4660,
      "participants": 4661,
      "closer": 4662,
      "closed": 4663,
      "applying": 4664,
      "roads": 4665,
      "concentrates": 4666,
      "carefully": 4667,
      "minimum": 4668,
      "doubled": 4669,
      "efficiency": 4670,
      "consignments": 4671,
      "physi": 4672,
      "partnerships": 4673,
      "historically": 4674,
      "collaboration": 4675,
      "analysts": 4676,
      "written": 4677,
      "saskatchew": 4678,
      "affordable": 4679,
      "predicted": 4680,
      "navig": 4681,
      "boost": 4682,
      "perceived": 4683,
      "declaration": 4684,
      "cider": 4685,
      "staple": 4686,
      "corresponding": 4687,
      "cocoa": 4688,
      "husband": 4689,
      "propag": 4690,
      "slaughtered": 4691,
      "incorpor": 4692,
      "california": 4693,
      "pleasant": 4694,
      "enhance": 4695,
      "thought": 4696,
      "intellectual": 4697,
      "drought": 4698,
      "algonquin": 4699,
      "saskatchewan": 4700,
      "070": 4701,
      "112": 4702,
      "114": 4703,
      "943": 4704,
      "bad": 4705,
      "bse": 4706,
      "beng": 4707,
      "cards": 4708,
      "fem": 4709,
      "hen": 4710,
      "him": 4711,
      "hetti": 4712,
      "idi": 4713,
      "jun": 4714,
      "ken": 4715,
      "kid": 4716,
      "lb": 4717,
      "lé": 4718,
      "mes": 4719,
      "must": 4720,
      "py": 4721,
      "pic": 4722,
      "sil": 4723,
      "slic": 4724,
      "two": 4725,
      "ugh": 4726,
      "vy": 4727,
      "xi": 4728,
      "zones": 4729,
      "ña": 4730,
      "insu": 4731,
      "ertific": 4732,
      "org": 4733,
      "alty": 4734,
      "aroni": 4735,
      "rot": 4736,
      "rock": 4737,
      "ica": 4738,
      "ician": 4739,
      "adul": 4740,
      "cow": 4741,
      "core": 4742,
      "cool": 4743,
      "lims": 4744,
      "aside": 4745,
      "dust": 4746,
      "unknown": 4747,
      "imm": 4748,
      "aghetti": 4749,
      "lear": 4750,
      "chef": 4751,
      "chips": 4752,
      "cancer": 4753,
      "20000": 4754,
      "optics": 4755,
      "ome": 4756,
      "shell": 4757,
      "incub": 4758,
      "marketed": 4759,
      "spaghetti": 4760,
      "emission": 4761,
      "endous": 4762,
      "getic": 4763,
      "trademark": 4764,
      "behalf": 4765,
      "expo": 4766,
      "newfound": 4767,
      "newsletter": 4768,
      "possess": 4769,
      "laid": 4770,
      "103": 4771,
      "prepare": 4772,
      "mouth": 4773,
      "207": 4774,
      "capable": 4775,
      "starbuc": 4776,
      "tered": 4777,
      "teach": 4778,
      "generate": 4779,
      "freely": 4780,
      "operation": 4781,
      "surro": 4782,
      "ews": 4783,
      "northwest": 4784,
      "distributed": 4785,
      "bars": 4786,
      "competitiveness": 4787,
      "hou": 4788,
      "permits": 4789,
      "whats": 4790,
      "queen": 4791,
      "representation": 4792,
      "periods": 4793,
      "difference": 4794,
      "handled": 4795,
      "broil": 4796,
      "distant": 4797,
      "considering": 4798,
      "indicate": 4799,
      "religious": 4800,
      "sett": 4801,
      "asked": 4802,
      "returned": 4803,
      "switzer": 4804,
      "laboratories": 4805,
      "positions": 4806,
      "muslims": 4807,
      "begun": 4808,
      "taxes": 4809,
      "showing": 4810,
      "degrees": 4811,
      "macaroni": 4812,
      "catalo": 4813,
      "powerful": 4814,
      "collected": 4815,
      "groceries": 4816,
      "prosper": 4817,
      "initiative": 4818,
      "dietary": 4819,
      "technician": 4820,
      "stream": 4821,
      "contracting": 4822,
      "legis": 4823,
      "hypermarket": 4824,
      "networks": 4825,
      "previously": 4826,
      "achieved": 4827,
      "composed": 4828,
      "tremendous": 4829,
      "recognized": 4830,
      "gums": 4831,
      "filipinos": 4832,
      "sandwich": 4833,
      "communication": 4834,
      "mountains": 4835,
      "reeves": 4836,
      "catering": 4837,
      "lebanon": 4838,
      "interviews": 4839,
      "waste": 4840,
      "coordination": 4841,
      "exhibitors": 4842,
      "heart": 4843,
      "pineapple": 4844,
      "inspector": 4845,
      "expiry": 4846,
      "yukon": 4847,
      "refined": 4848,
      "supersol": 4849,
      "strawberry": 4850,
      "constraints": 4851,
      "census": 4852,
      "proximity": 4853,
      "starbucks": 4854,
      "83": 4855,
      "8000": 4856,
      "bun": 4857,
      "cpi": 4858,
      "equal": 4859,
      "eks": 4860,
      "fell": 4861,
      "furn": 4862,
      "hil": 4863,
      "htm": 4864,
      "hides": 4865,
      "if": 4866,
      "jean": 4867,
      "ker": 4868,
      "las": 4869,
      "lus": 4870,
      "mas": 4871,
      "mail": 4872,
      "nan": 4873,
      "pective": 4874,
      "rt": 4875,
      "rub": 4876,
      "uds": 4877,
      "ygen": 4878,
      "osion": 4879,
      "inland": 4880,
      "inside": 4881,
      "ongoing": 4882,
      "restr": 4883,
      "remin": 4884,
      "replace": 4885,
      "references": 4886,
      "refers": 4887,
      "anth": 4888,
      "annum": 4889,
      "espre": 4890,
      "alask": 4891,
      "ara": 4892,
      "arable": 4893,
      "stay": 4894,
      "robert": 4895,
      "promin": 4896,
      "proportion": 4897,
      "suite": 4898,
      "chings": 4899,
      "exemp": 4900,
      "trillion": 4901,
      "trust": 4902,
      "thes": 4903,
      "think": 4904,
      "thews": 4905,
      "comets": 4906,
      "abo": 4907,
      "terrestr": 4908,
      "seek": 4909,
      "compliance": 4910,
      "iron": 4911,
      "rené": 4912,
      "valley": 4913,
      "bru": 4914,
      "trademarks": 4915,
      "formation": 4916,
      "comments": 4917,
      "aven": 4918,
      "interpre": 4919,
      "mining": 4920,
      "answer": 4921,
      "izes": 4922,
      "laos": 4923,
      "locate": 4924,
      "105": 4925,
      "totals": 4926,
      "monetary": 4927,
      "kept": 4928,
      "weights": 4929,
      "labelled": 4930,
      "forestry": 4931,
      "licenc": 4932,
      "drain": 4933,
      "norway": 4934,
      "workers": 4935,
      "sections": 4936,
      "regulated": 4937,
      "atively": 4938,
      "packs": 4939,
      "125": 4940,
      "ideas": 4941,
      "operator": 4942,
      "165": 4943,
      "reporting": 4944,
      "inuit": 4945,
      "2500": 4946,
      "paid": 4947,
      "domestically": 4948,
      "variable": 4949,
      "variations": 4950,
      "specialized": 4951,
      "joined": 4952,
      "leads": 4953,
      "sciences": 4954,
      "student": 4955,
      "agreed": 4956,
      "driven": 4957,
      "driving": 4958,
      "virtual": 4959,
      "response": 4960,
      "owners": 4961,
      "nipeg": 4962,
      "delays": 4963,
      "monthly": 4964,
      "dominant": 4965,
      "convenient": 4966,
      "trying": 4967,
      "bakeries": 4968,
      "selection": 4969,
      "promise": 4970,
      "considerably": 4971,
      "arabic": 4972,
      "relies": 4973,
      "1981": 4974,
      "match": 4975,
      "matthews": 4976,
      "shipped": 4977,
      "7597": 4978,
      "easily": 4979,
      "designated": 4980,
      "existence": 4981,
      "scientist": 4982,
      "corner": 4983,
      "influenced": 4984,
      "photography": 4985,
      "expert": 4986,
      "constructed": 4987,
      "african": 4988,
      "ranking": 4989,
      "letters": 4990,
      "roleum": 4991,
      "chemicals": 4992,
      "widespre": 4993,
      "individuals": 4994,
      "petroleum": 4995,
      "cutflowers": 4996,
      "wild": 4997,
      "nationally": 4998,
      "turkey": 4999,
      "manilabased": 5000,
      "asteroid": 5001,
      "occurs": 5002,
      "winnipeg": 5003,
      "subsidies": 5004,
      "precis": 5005,
      "recognition": 5006,
      "layer": 5007,
      "separate": 5008,
      "atoms": 5009,
      "samples": 5010,
      "clouds": 5011,
      "plateau": 5012,
      "writing": 5013,
      "seeking": 5014,
      "adaptive": 5015,
      "spectroscopy": 5016,
      "centimetre": 5017,
      "hutchings": 5018,
      "trials": 5019,
      "flavoured": 5020,
      "electricity": 5021,
      "ville": 5022,
      "independently": 5023,
      "recovery": 5024,
      "threat": 5025,
      "magazine": 5026,
      "manitoba": 5027,
      "employees": 5028,
      "mustard": 5029,
      "ertificate": 5030,
      "newfoundland": 5031,
      "broiler": 5032,
      "switzerland": 5033,
      "terrestrial": 5034,
      "widespread": 5035,
      "03": 5036,
      "05": 5037,
      "113": 5038,
      "9000": 5039,
      "aus": 5040,
      "ave": 5041,
      "bes": 5042,
      "cp": 5043,
      "clock": 5044,
      "dal": 5045,
      "dong": 5046,
      "got": 5047,
      "happ": 5048,
      "jon": 5049,
      "km": 5050,
      "kit": 5051,
      "kraft": 5052,
      "lod": 5053,
      "mun": 5054,
      "mbo": 5055,
      "massi": 5056,
      "ng": 5057,
      "pel": 5058,
      "pac": 5059,
      "pace": 5060,
      "peter": 5061,
      "sch": 5062,
      "slo": 5063,
      "tw": 5064,
      "vill": 5065,
      "wash": 5066,
      "zhou": 5067,
      "reti": 5068,
      "reform": 5069,
      "erk": 5070,
      "tise": 5071,
      "allocated": 5072,
      "entic": 5073,
      "enhan": 5074,
      "arta": 5075,
      "stan": 5076,
      "stability": 5077,
      "stocks": 5078,
      "robin": 5079,
      "ecertificate": 5080,
      "assu": 5081,
      "acqu": 5082,
      "ethel": 5083,
      "immedi": 5084,
      "suji": 5085,
      "confir": 5086,
      "exact": 5087,
      "tri": 5088,
      "urc": 5089,
      "ths": 5090,
      "thor": 5091,
      "ulation": 5092,
      "ulties": 5093,
      "lots": 5094,
      "marmal": 5095,
      "optical": 5096,
      "amins": 5097,
      "sizes": 5098,
      "ria": 5099,
      "incenti": 5100,
      "ester": 5101,
      "teration": 5102,
      "plas": 5103,
      "vibr": 5104,
      "spices": 5105,
      "compound": 5106,
      "uted": 5107,
      "perman": 5108,
      "ppp": 5109,
      "endors": 5110,
      "interfer": 5111,
      "genous": 5112,
      "decades": 5113,
      "certify": 5114,
      "totalling": 5115,
      "locations": 5116,
      "104": 5117,
      "basins": 5118,
      "salt": 5119,
      "bour": 5120,
      "anger": 5121,
      "lighting": 5122,
      "fields": 5123,
      "observation": 5124,
      "teen": 5125,
      "secure": 5126,
      "signing": 5127,
      "sourced": 5128,
      "applies": 5129,
      "apparent": 5130,
      "finance": 5131,
      "taine": 5132,
      "fishing": 5133,
      "awards": 5134,
      "effectively": 5135,
      "consumeroriented": 5136,
      "infant": 5137,
      "volumes": 5138,
      "creation": 5139,
      "flat": 5140,
      "grape": 5141,
      "grapes": 5142,
      "particles": 5143,
      "trees": 5144,
      "advice": 5145,
      "varied": 5146,
      "planted": 5147,
      "ships": 5148,
      "nonethel": 5149,
      "faster": 5150,
      "howard": 5151,
      "prime": 5152,
      "planet": 5153,
      "planned": 5154,
      "brown": 5155,
      "pests": 5156,
      "distances": 5157,
      "photo": 5158,
      "chickpeas": 5159,
      "realized": 5160,
      "1972": 5161,
      "reduction": 5162,
      "protected": 5163,
      "consisting": 5164,
      "interests": 5165,
      "released": 5166,
      "cheap": 5167,
      "organism": 5168,
      "peninsu": 5169,
      "explained": 5170,
      "diversify": 5171,
      "wholesaler": 5172,
      "bonus": 5173,
      "bodies": 5174,
      "showed": 5175,
      "biscuit": 5176,
      "expertise": 5177,
      "shortage": 5178,
      "membership": 5179,
      "implementing": 5180,
      "clause": 5181,
      "ranean": 5182,
      "strengthening": 5183,
      "schedulevi": 5184,
      "vitamins": 5185,
      "instance": 5186,
      "classified": 5187,
      "mirrors": 5188,
      "predomin": 5189,
      "educated": 5190,
      "constell": 5191,
      "opharm": 5192,
      "cassava": 5193,
      "miguel": 5194,
      "drying": 5195,
      "oxygen": 5196,
      "executives": 5197,
      "warehouse": 5198,
      "warehousing": 5199,
      "frequent": 5200,
      "atomic": 5201,
      "attracted": 5202,
      "hosp": 5203,
      "thirds": 5204,
      "ranges": 5205,
      "damage": 5206,
      "ireland": 5207,
      "combination": 5208,
      "comprises": 5209,
      "neutrinos": 5210,
      "branches": 5211,
      "camera": 5212,
      "liberalization": 5213,
      "nutritious": 5214,
      "penetrate": 5215,
      "cultural": 5216,
      "diagnostics": 5217,
      "check": 5218,
      "fontaine": 5219,
      "frederick": 5220,
      "café": 5221,
      "jakarta": 5222,
      "acquired": 5223,
      "preservatives": 5224,
      "blood": 5225,
      "jalan": 5226,
      "investig": 5227,
      "readytoeat": 5228,
      "academ": 5229,
      "maxwell": 5230,
      "declared": 5231,
      "licencecertificate": 5232,
      "drainage": 5233,
      "massive": 5234,
      "sujiko": 5235,
      "confirmed": 5236,
      "marmalades": 5237,
      "incentives": 5238,
      "nonetheless": 5239,
      "115": 5240,
      "220": 5241,
      "223": 5242,
      "944": 5243,
      "aties": 5244,
      "bing": 5245,
      "bid": 5246,
      "bib": 5247,
      "cin": 5248,
      "cra": 5249,
      "cuses": 5250,
      "dim": 5251,
      "dwar": 5252,
      "ea": 5253,
      "fm": 5254,
      "hr": 5255,
      "hur": 5256,
      "hcmc": 5257,
      "ien": 5258,
      "idu": 5259,
      "jp": 5260,
      "jv": 5261,
      "jer": 5262,
      "jour": 5263,
      "kir": 5264,
      "knor": 5265,
      "lor": 5266,
      "last": 5267,
      "lond": 5268,
      "malls": 5269,
      "nt": 5270,
      "nut": 5271,
      "nomin": 5272,
      "ores": 5273,
      "pu": 5274,
      "pte": 5275,
      "rink": 5276,
      "sent": 5277,
      "vo": 5278,
      "wise": 5279,
      "yrs": 5280,
      "osen": 5281,
      "inations": 5282,
      "erre": 5283,
      "edge": 5284,
      "edition": 5285,
      "enforce": 5286,
      "iceland": 5287,
      "cola": 5288,
      "liography": 5289,
      "ections": 5290,
      "elev": 5291,
      "eth": 5292,
      "iscent": 5293,
      "islands": 5294,
      "focuses": 5295,
      "impres": 5296,
      "impos": 5297,
      "suff": 5298,
      "lements": 5299,
      "conver": 5300,
      "ches": 5301,
      "chosen": 5302,
      "ura": 5303,
      "thin": 5304,
      "thri": 5305,
      "uled": 5306,
      "residu": 5307,
      "def": 5308,
      "dept": 5309,
      "abol": 5310,
      "abroad": 5311,
      "user": 5312,
      "users": 5313,
      "options": 5314,
      "shore": 5315,
      "earlier": 5316,
      "plains": 5317,
      "richard": 5318,
      "spots": 5319,
      "1960": 5320,
      "1962": 5321,
      "emul": 5322,
      "rative": 5323,
      "words": 5324,
      "goes": 5325,
      "phos": 5326,
      "parties": 5327,
      "parabol": 5328,
      "server": 5329,
      "observer": 5330,
      "recip": 5331,
      "interprovincial": 5332,
      "mind": 5333,
      "preference": 5334,
      "astries": 5335,
      "biod": 5336,
      "five": 5337,
      "offal": 5338,
      "larges": 5339,
      "normal": 5340,
      "workforce": 5341,
      "mediter": 5342,
      "124": 5343,
      "126": 5344,
      "smith": 5345,
      "smugg": 5346,
      "respective": 5347,
      "transl": 5348,
      "title": 5349,
      "imped": 5350,
      "banana": 5351,
      "outbreak": 5352,
      "outlet": 5353,
      "doors": 5354,
      "fermented": 5355,
      "paul": 5356,
      "vietnams": 5357,
      "treaties": 5358,
      "crude": 5359,
      "save": 5360,
      "lined": 5361,
      "virus": 5362,
      "authentic": 5363,
      "charged": 5364,
      "ventures": 5365,
      "handle": 5366,
      "putting": 5367,
      "1973": 5368,
      "1978": 5369,
      "commonwealth": 5370,
      "litres": 5371,
      "1983": 5372,
      "mathem": 5373,
      "ough": 5374,
      "wool": 5375,
      "theory": 5376,
      "readymade": 5377,
      "spectral": 5378,
      "electrons": 5379,
      "landscape": 5380,
      "exists": 5381,
      "aceuticals": 5382,
      "hanol": 5383,
      "clusters": 5384,
      "influx": 5385,
      "eaten": 5386,
      "difficulties": 5387,
      "substance": 5388,
      "lost": 5389,
      "exceed": 5390,
      "experts": 5391,
      "strengths": 5392,
      "pulse": 5393,
      "fairly": 5394,
      "installed": 5395,
      "successfully": 5396,
      "copyright": 5397,
      "eventually": 5398,
      "targeted": 5399,
      "lucrative": 5400,
      "sheep": 5401,
      "benefic": 5402,
      "dutyfree": 5403,
      "aims": 5404,
      "byproducts": 5405,
      "languages": 5406,
      "glass": 5407,
      "seminars": 5408,
      "innovation": 5409,
      "frequently": 5410,
      "weekly": 5411,
      "refriger": 5412,
      "colombo": 5413,
      "probability": 5414,
      "dynam": 5415,
      "bringing": 5416,
      "cuisines": 5417,
      "selfsufficient": 5418,
      "molecules": 5419,
      "walmart": 5420,
      "1980s": 5421,
      "quota": 5422,
      "quotas": 5423,
      "arrangement": 5424,
      "phils": 5425,
      "orchards": 5426,
      "alternative": 5427,
      "alternatives": 5428,
      "averaging": 5429,
      "chamber": 5430,
      "expressed": 5431,
      "database": 5432,
      "011844": 5433,
      "arrangements": 5434,
      "inaugurated": 5435,
      "procure": 5436,
      "organs": 5437,
      "surrounding": 5438,
      "reminiscent": 5439,
      "avenue": 5440,
      "robina": 5441,
      "immediately": 5442,
      "permanent": 5443,
      "bibliography": 5444,
      "dwarf": 5445,
      "knorr": 5446,
      "london": 5447,
      "parabolic": 5448,
      "mediterranean": 5449,
      "118": 5450,
      "550": 5451,
      "930": 5452,
      "atics": 5453,
      "cis": 5454,
      "dna": 5455,
      "dgcca": 5456,
      "ein": 5457,
      "fos": 5458,
      "fth": 5459,
      "fum": 5460,
      "fuse": 5461,
      "fda": 5462,
      "gel": 5463,
      "hd": 5464,
      "hin": 5465,
      "ias": 5466,
      "jur": 5467,
      "jay": 5468,
      "jew": 5469,
      "lec": 5470,
      "lass": 5471,
      "lens": 5472,
      "length": 5473,
      "mack": 5474,
      "ny": 5475,
      "ners": 5476,
      "ored": 5477,
      "pon": 5478,
      "pud": 5479,
      "pastries": 5480,
      "sor": 5481,
      "sex": 5482,
      "sick": 5483,
      "sense": 5484,
      "tam": 5485,
      "vess": 5486,
      "with": 5487,
      "xin": 5488,
      "rew": 5489,
      "remo": 5490,
      "erts": 5491,
      "tips": 5492,
      "orth": 5493,
      "ald": 5494,
      "alem": 5495,
      "entive": 5496,
      "enrich": 5497,
      "argu": 5498,
      "arrow": 5499,
      "sty": 5500,
      "icip": 5501,
      "adding": 5502,
      "coop": 5503,
      "coca": 5504,
      "lip": 5505,
      "liter": 5506,
      "ligh": 5507,
      "aspects": 5508,
      "acre": 5509,
      "accommod": 5510,
      "accredit": 5511,
      "ethanol": 5512,
      "odox": 5513,
      "foot": 5514,
      "levi": 5515,
      "confirm": 5516,
      "consequently": 5517,
      "chance": 5518,
      "exer": 5519,
      "explan": 5520,
      "trip": 5521,
      "trace": 5522,
      "things": 5523,
      "diab": 5524,
      "deem": 5525,
      "loys": 5526,
      "anda": 5527,
      "cebu": 5528,
      "shared": 5529,
      "amend": 5530,
      "quan": 5531,
      "sition": 5532,
      "sized": 5533,
      "spok": 5534,
      "sets": 5535,
      "1950": 5536,
      "raised": 5537,
      "fortified": 5538,
      "phong": 5539,
      "ghurt": 5540,
      "gran": 5541,
      "grand": 5542,
      "grained": 5543,
      "expat": 5544,
      "exportsour": 5545,
      "newly": 5546,
      "minor": 5547,
      "fractions": 5548,
      "press": 5549,
      "correc": 5550,
      "citi": 5551,
      "prepackaged": 5552,
      "weve": 5553,
      "weigh": 5554,
      "bought": 5555,
      "mology": 5556,
      "busy": 5557,
      "busier": 5558,
      "biopharm": 5559,
      "fiest": 5560,
      "dome": 5561,
      "136": 5562,
      "afta": 5563,
      "fait": 5564,
      "readily": 5565,
      "secret": 5566,
      "regulate": 5567,
      "sourash": 5568,
      "appreci": 5569,
      "finder": 5570,
      "enger": 5571,
      "partly": 5572,
      "packages": 5573,
      "getting": 5574,
      "oury": 5575,
      "guine": 5576,
      "survi": 5577,
      "worthy": 5578,
      "transgenic": 5579,
      "airports": 5580,
      "issuing": 5581,
      "tinged": 5582,
      "originate": 5583,
      "vegetarian": 5584,
      "calg": 5585,
      "invested": 5586,
      "helen": 5587,
      "tured": 5588,
      "planting": 5589,
      "garlic": 5590,
      "contracts": 5591,
      "nonkosher": 5592,
      "accessing": 5593,
      "hog": 5594,
      "naturally": 5595,
      "undertaking": 5596,
      "stronger": 5597,
      "strongly": 5598,
      "filters": 5599,
      "steps": 5600,
      "notable": 5601,
      "ortem": 5602,
      "atoon": 5603,
      "completely": 5604,
      "employs": 5605,
      "1976": 5606,
      "harmon": 5607,
      "allowing": 5608,
      "payments": 5609,
      "livered": 5610,
      "institutes": 5611,
      "relax": 5612,
      "gives": 5613,
      "giving": 5614,
      "meetings": 5615,
      "theore": 5616,
      "loyalty": 5617,
      "electrical": 5618,
      "targets": 5619,
      "simul": 5620,
      "celer": 5621,
      "scheduled": 5622,
      "tourists": 5623,
      "password": 5624,
      "photographs": 5625,
      "examples": 5626,
      "contribute": 5627,
      "mixture": 5628,
      "lamb": 5629,
      "lesser": 5630,
      "functions": 5631,
      "initially": 5632,
      "scope": 5633,
      "danish": 5634,
      "fried": 5635,
      "competent": 5636,
      "adviser": 5637,
      "doubt": 5638,
      "algerian": 5639,
      "occurred": 5640,
      "anticip": 5641,
      "multip": 5642,
      "spectro": 5643,
      "electronics": 5644,
      "sugges": 5645,
      "1905": 5646,
      "integrated": 5647,
      "autom": 5648,
      "yoghurt": 5649,
      "refracting": 5650,
      "…………………………………………": 5651,
      "finegrained": 5652,
      "exposed": 5653,
      "circum": 5654,
      "seeing": 5655,
      "carbonated": 5656,
      "harvested": 5657,
      "birth": 5658,
      "boundary": 5659,
      "direction": 5660,
      "carcasses": 5661,
      "calculated": 5662,
      "cameras": 5663,
      "saskatoon": 5664,
      "passing": 5665,
      "coordin": 5666,
      "brightness": 5667,
      "penetration": 5668,
      "counterparts": 5669,
      "averaged": 5670,
      "postermap": 5671,
      "ecozone": 5672,
      "jump": 5673,
      "rabbin": 5674,
      "savoury": 5675,
      "kinds": 5676,
      "perfect": 5677,
      "contributions": 5678,
      "training": 5679,
      "pieces": 5680,
      "subsidiary": 5681,
      "tomatoes": 5682,
      "ketchup": 5683,
      "inspected": 5684,
      "college": 5685,
      "kilograms": 5686,
      "parentage": 5687,
      "privatization": 5688,
      "consolidation": 5689,
      "waters": 5690,
      "severe": 5691,
      "racine": 5692,
      "husbandry": 5693,
      "junc": 5694,
      "sliced": 5695,
      "alaska": 5696,
      "prominent": 5697,
      "municip": 5698,
      "thorough": 5699,
      "hospital": 5700,
      "phosph": 5701,
      "largescale": 5702,
      "orthodox": 5703,
      "accreditation": 5704,
      "sourashkar": 5705,
      "municipal": 5706,
      "1200": 5707,
      "750": 5708,
      "810": 5709,
      "bac": 5710,
      "burn": 5711,
      "cia": 5712,
      "card": 5713,
      "dz": 5714,
      "dney": 5715,
      "draft": 5716,
      "dfait": 5717,
      "fal": 5718,
      "fib": 5719,
      "fare": 5720,
      "fries": 5721,
      "gaz": 5722,
      "hic": 5723,
      "hers": 5724,
      "harm": 5725,
      "hensive": 5726,
      "haz": 5727,
      "ired": 5728,
      "jin": 5729,
      "jar": 5730,
      "jus": 5731,
      "kok": 5732,
      "kual": 5733,
      "mit": 5734,
      "mous": 5735,
      "matt": 5736,
      "pom": 5737,
      "sod": 5738,
      "stic": 5739,
      "tas": 5740,
      "tol": 5741,
      "tang": 5742,
      "tables": 5743,
      "uap": 5744,
      "udes": 5745,
      "wol": 5746,
      "yer": 5747,
      "osing": 5748,
      "repre": 5749,
      "removed": 5750,
      "anas": 5751,
      "anci": 5752,
      "tier": 5753,
      "alli": 5754,
      "enz": 5755,
      "aria": 5756,
      "arising": 5757,
      "roots": 5758,
      "coal": 5759,
      "lia": 5760,
      "actively": 5761,
      "acceler": 5762,
      "ethn": 5763,
      "entrepre": 5764,
      "una": 5765,
      "unt": 5766,
      "isphe": 5767,
      "imag": 5768,
      "sud": 5769,
      "agers": 5770,
      "lemon": 5771,
      "leaf": 5772,
      "cong": 5773,
      "conserv": 5774,
      "concent": 5775,
      "conclu": 5776,
      "chri": 5777,
      "cheng": 5778,
      "traff": 5779,
      "appoint": 5780,
      "apart": 5781,
      "canning": 5782,
      "candy": 5783,
      "resident": 5784,
      "delivered": 5785,
      "abund": 5786,
      "igated": 5787,
      "marts": 5788,
      "marine": 5789,
      "ament": 5790,
      "oto": 5791,
      "iesel": 5792,
      "canadafrance": 5793,
      "span": 5794,
      "semi": 5795,
      "comprising": 5796,
      "1969": 5797,
      "raise": 5798,
      "traders": 5799,
      "notified": 5800,
      "parall": 5801,
      "pea": 5802,
      "hey": 5803,
      "oblong": 5804,
      "bee": 5805,
      "grants": 5806,
      "interior": 5807,
      "internationally": 5808,
      "specify": 5809,
      "frag": 5810,
      "ously": 5811,
      "intensi": 5812,
      "intense": 5813,
      "ives": 5814,
      "laval": 5815,
      "101": 5816,
      "109": 5817,
      "totaling": 5818,
      "mona": 5819,
      "mond": 5820,
      "mainland": 5821,
      "weeks": 5822,
      "nuclear": 5823,
      "licens": 5824,
      "fix": 5825,
      "fifth": 5826,
      "1500": 5827,
      "display": 5828,
      "holding": 5829,
      "holdings": 5830,
      "after": 5831,
      "norms": 5832,
      "paste": 5833,
      "colon": 5834,
      "colum": 5835,
      "risen": 5836,
      "demanding": 5837,
      "506": 5838,
      "universities": 5839,
      "buff": 5840,
      "140": 5841,
      "encing": 5842,
      "cosmos": 5843,
      "outlook": 5844,
      "dough": 5845,
      "models": 5846,
      "biotec": 5847,
      "111": 5848,
      "amerindian": 5849,
      "choosing": 5850,
      "cru": 5851,
      "listing": 5852,
      "viewed": 5853,
      "prima": 5854,
      "hyl": 5855,
      "representatives": 5856,
      "niñ": 5857,
      "approximate": 5858,
      "notably": 5859,
      "delay": 5860,
      "peanuts": 5861,
      "authorised": 5862,
      "biological": 5863,
      "photos": 5864,
      "photometer": 5865,
      "sweets": 5866,
      "considerations": 5867,
      "costly": 5868,
      "1989": 5869,
      "drinking": 5870,
      "consisted": 5871,
      "todate": 5872,
      "todrink": 5873,
      "committed": 5874,
      "studying": 5875,
      "obtaining": 5876,
      "modernization": 5877,
      "safdz": 5878,
      "urbanization": 5879,
      "readytodrink": 5880,
      "involving": 5881,
      "dependence": 5882,
      "hired": 5883,
      "postentry": 5884,
      "solely": 5885,
      "substances": 5886,
      "losses": 5887,
      "exceeded": 5888,
      "experiments": 5889,
      "participated": 5890,
      "forecasts": 5891,
      "sibilities": 5892,
      "moroccan": 5893,
      "officials": 5894,
      "books": 5895,
      "belong": 5896,
      "cutting": 5897,
      "excellence": 5898,
      "destroy": 5899,
      "sufficiency": 5900,
      "atmospheres": 5901,
      "substantially": 5902,
      "neighbor": 5903,
      "entirely": 5904,
      "thousands": 5905,
      "rainfall": 5906,
      "transferred": 5907,
      "cambod": 5908,
      "objec": 5909,
      "zero": 5910,
      "host": 5911,
      "television": 5912,
      "railway": 5913,
      "francis": 5914,
      "ranging": 5915,
      "combine": 5916,
      "bolton": 5917,
      "sustained": 5918,
      "kgs": 5919,
      "differenti": 5920,
      "professionals": 5921,
      "fluctuations": 5922,
      "nutrients": 5923,
      "centimetres": 5924,
      "hubble": 5925,
      "gateway": 5926,
      "lading": 5927,
      "connected": 5928,
      "exclusive": 5929,
      "cultivation": 5930,
      "excluding": 5931,
      "contribution": 5932,
      "0713": 5933,
      "supplementary": 5934,
      "irie": 5935,
      "yangzi": 5936,
      "suggested": 5937,
      "aggressive": 5938,
      "robinsons": 5939,
      "pilot": 5940,
      "assumes": 5941,
      "prairie": 5942,
      "sealed": 5943,
      "propagation": 5944,
      "rubber": 5945,
      "bruce": 5946,
      "interpret": 5947,
      "km2": 5948,
      "predominant": 5949,
      "nominal": 5950,
      "biodiesel": 5951,
      "beneficial": 5952,
      "procurement": 5953,
      "einstein": 5954,
      "fumigation": 5955,
      "lights": 5956,
      "spoken": 5957,
      "calgary": 5958,
      "kuala": 5959,
      "ethnic": 5960,
      "entreprene": 5961,
      "concentrate": 5962,
      "traffic": 5963,
      "canadafrancehawaii": 5964,
      "licensed": 5965,
      "0º": 5966,
      "119": 5967,
      "420": 5968,
      "844": 5969,
      "ais": 5970,
      "ahead": 5971,
      "bat": 5972,
      "c5": 5973,
      "cstore": 5974,
      "dg": 5975,
      "dav": 5976,
      "dys": 5977,
      "flu": 5978,
      "festi": 5979,
      "gil": 5980,
      "gmo": 5981,
      "gone": 5982,
      "gord": 5983,
      "hed": 5984,
      "had": 5985,
      "ique": 5986,
      "jl": 5987,
      "jose": 5988,
      "kin": 5989,
      "kan": 5990,
      "kist": 5991,
      "ll": 5992,
      "lak": 5993,
      "mie": 5994,
      "nb": 5995,
      "ole": 5996,
      "oul": 5997,
      "pdf": 5998,
      "qing": 5999,
      "rr": 6000,
      "ray": 6001,
      "sac": 6002,
      "send": 6003,
      "tail": 6004,
      "utive": 6005,
      "wro": 6006,
      "yor": 6007,
      "yol": 6008,
      "you": 6009,
      "zo": 6010,
      "inent": 6011,
      "intra": 6012,
      "inner": 6013,
      "independent": 6014,
      "indepth": 6015,
      "revolution": 6016,
      "rehensive": 6017,
      "ala": 6018,
      "ales": 6019,
      "aliment": 6020,
      "albert": 6021,
      "edc": 6022,
      "eners": 6023,
      "enrol": 6024,
      "enforced": 6025,
      "athe": 6026,
      "administ": 6027,
      "cod": 6028,
      "coated": 6029,
      "coving": 6030,
      "lig": 6031,
      "liver": 6032,
      "eline": 6033,
      "elected": 6034,
      "accompan": 6035,
      "ette": 6036,
      "isdic": 6037,
      "fold": 6038,
      "imet": 6039,
      "immediate": 6040,
      "lean": 6041,
      "consec": 6042,
      "chan": 6043,
      "trips": 6044,
      "thers": 6045,
      "diff": 6046,
      "resist": 6047,
      "dead": 6048,
      "absol": 6049,
      "usalem": 6050,
      "opium": 6051,
      "ams": 6052,
      "vehic": 6053,
      "six": 6054,
      "sial": 6055,
      "sides": 6056,
      "sively": 6057,
      "ols": 6058,
      "pling": 6059,
      "importdistribute": 6060,
      "spir": 6061,
      "split": 6062,
      "sevent": 6063,
      "seoul": 6064,
      "comprise": 6065,
      "comprehensive": 6066,
      "raj": 6067,
      "perish": 6068,
      "asts": 6069,
      "rents": 6070,
      "notic": 6071,
      "context": 6072,
      "continent": 6073,
      "consuming": 6074,
      "parti": 6075,
      "parity": 6076,
      "geo": 6077,
      "beau": 6078,
      "beals": 6079,
      "beaut": 6080,
      "served": 6081,
      "highvalue": 6082,
      "pole": 6083,
      "wegian": 6084,
      "aire": 6085,
      "entity": 6086,
      "destruc": 6087,
      "supplements": 6088,
      "bow": 6089,
      "boil": 6090,
      "bohydr": 6091,
      "vised": 6092,
      "202": 6093,
      "businesspeople": 6094,
      "152": 6095,
      "discre": 6096,
      "majesty": 6097,
      "oku": 6098,
      "holder": 6099,
      "lished": 6100,
      "starch": 6101,
      "starting": 6102,
      "134": 6103,
      "grey": 6104,
      "183": 6105,
      "1800": 6106,
      "teva": 6107,
      "norwegian": 6108,
      "sourcing": 6109,
      "metal": 6110,
      "clerk": 6111,
      "england": 6112,
      "retailer": 6113,
      "median": 6114,
      "carries": 6115,
      "carbohydr": 6116,
      "qualified": 6117,
      "presently": 6118,
      "guang": 6119,
      "gujar": 6120,
      "transactions": 6121,
      "credi": 6122,
      "230": 6123,
      "relating": 6124,
      "stored": 6125,
      "particle": 6126,
      "miller": 6127,
      "detected": 6128,
      "calor": 6129,
      "treated": 6130,
      "240": 6131,
      "1100": 6132,
      "choices": 6133,
      "leaders": 6134,
      "crim": 6135,
      "cross": 6136,
      "thailands": 6137,
      "nonfood": 6138,
      "faced": 6139,
      "attemp": 6140,
      "viruses": 6141,
      "underhill": 6142,
      "freezing": 6143,
      "filled": 6144,
      "niels": 6145,
      "975": 6146,
      "notes": 6147,
      "feedback": 6148,
      "corporate": 6149,
      "introducing": 6150,
      "mck": 6151,
      "reductions": 6152,
      "setting": 6153,
      "636": 6154,
      "irrigated": 6155,
      "involve": 6156,
      "directorate": 6157,
      "identity": 6158,
      "depends": 6159,
      "hubert": 6160,
      "russian": 6161,
      "mush": 6162,
      "slowdown": 6163,
      "eyes": 6164,
      "maintains": 6165,
      "employed": 6166,
      "influences": 6167,
      "passenger": 6168,
      "therap": 6169,
      "turning": 6170,
      "session": 6171,
      "construct": 6172,
      "shortages": 6173,
      "catch": 6174,
      "forecasted": 6175,
      "usual": 6176,
      "desserts": 6177,
      "strengthen": 6178,
      "wider": 6179,
      "properties": 6180,
      "monitoring": 6181,
      "burger": 6182,
      "initiated": 6183,
      "bah": 6184,
      "falls": 6185,
      "falling": 6186,
      "competitor": 6187,
      "lifestyle": 6188,
      "definition": 6189,
      "iii": 6190,
      "competing": 6191,
      "seasoning": 6192,
      "multiple": 6193,
      "liquor": 6194,
      "precise": 6195,
      "textile": 6196,
      "melba": 6197,
      "suggests": 6198,
      "demonstrate": 6199,
      "sandra": 6200,
      "transition": 6201,
      "frequency": 6202,
      "hopes": 6203,
      "aggreg": 6204,
      "1103": 6205,
      "welfare": 6206,
      "soups": 6207,
      "requiring": 6208,
      "advertise": 6209,
      "neutrino": 6210,
      "bolt": 6211,
      "lumpur": 6212,
      "invented": 6213,
      "condiment": 6214,
      "expectancy": 6215,
      "multinationals": 6216,
      "stipul": 6217,
      "infoexport": 6218,
      "constitute": 6219,
      "connection": 6220,
      "cultivated": 6221,
      "succeeded": 6222,
      "piece": 6223,
      "dressings": 6224,
      "lobster": 6225,
      "demographic": 6226,
      "conclusions": 6227,
      "crushing": 6228,
      "immigr": 6229,
      "favorable": 6230,
      "nebula": 6231,
      "featured": 6232,
      "horticulture": 6233,
      "bridge": 6234,
      "religion": 6235,
      "9431103": 6236,
      "picture": 6237,
      "legislation": 6238,
      "assume": 6239,
      "academic": 6240,
      "licencecertificatepermission": 6241,
      "jerusalem": 6242,
      "enforcement": 6243,
      "residues": 6244,
      "foster": 6245,
      "jurisdic": 6246,
      "jaymie": 6247,
      "jewish": 6248,
      "xinjiang": 6249,
      "theoretical": 6250,
      "anticipated": 6251,
      "ancient": 6252,
      "isphere": 6253,
      "niño": 6254,
      "cambodia": 6255,
      "objectives": 6256,
      "festival": 6257,
      "gordon": 6258,
      "wrote": 6259,
      "york": 6260,
      "covington": 6261,
      "accompanied": 6262,
      "consecutive": 6263,
      "beauty": 6264,
      "030": 6265,
      "080": 6266,
      "0c5": 6267,
      "117": 6268,
      "227": 6269,
      "326": 6270,
      "3rd": 6271,
      "514": 6272,
      "517": 6273,
      "50000": 6274,
      "915": 6275,
      "ae": 6276,
      "bund": 6277,
      "bhd": 6278,
      "cec": 6279,
      "cab": 6280,
      "cited": 6281,
      "cake": 6282,
      "ez": 6283,
      "eer": 6284,
      "fle": 6285,
      "fus": 6286,
      "fta": 6287,
      "flux": 6288,
      "gains": 6289,
      "hns": 6290,
      "hung": 6291,
      "ifax": 6292,
      "ively": 6293,
      "iji": 6294,
      "je": 6295,
      "knew": 6296,
      "kash": 6297,
      "kanda": 6298,
      "lect": 6299,
      "mad": 6300,
      "milit": 6301,
      "narrow": 6302,
      "pc": 6303,
      "pun": 6304,
      "rand": 6305,
      "rfm": 6306,
      "sq": 6307,
      "sap": 6308,
      "sri": 6309,
      "scre": 6310,
      "sdn": 6311,
      "tro": 6312,
      "tch": 6313,
      "tors": 6314,
      "techno": 6315,
      "vinc": 6316,
      "wit": 6317,
      "yon": 6318,
      "inal": 6319,
      "inadequate": 6320,
      "onds": 6321,
      "rement": 6322,
      "repe": 6323,
      "ania": 6324,
      "eshop": 6325,
      "tiu": 6326,
      "oria": 6327,
      "ali": 6328,
      "sta": 6329,
      "stances": 6330,
      "roc": 6331,
      "roth": 6332,
      "icated": 6333,
      "adhere": 6334,
      "cocontract": 6335,
      "prove": 6336,
      "lian": 6337,
      "eclip": 6338,
      "duly": 6339,
      "dutch": 6340,
      "actic": 6341,
      "accum": 6342,
      "etes": 6343,
      "entr": 6344,
      "itc": 6345,
      "itation": 6346,
      "itely": 6347,
      "isol": 6348,
      "founded": 6349,
      "aga": 6350,
      "lemay": 6351,
      "conform": 6352,
      "consoli": 6353,
      "concise": 6354,
      "chel": 6355,
      "tré": 6356,
      "productive": 6357,
      "lying": 6358,
      "lou": 6359,
      "aber": 6360,
      "us6": 6361,
      "mars": 6362,
      "option": 6363,
      "optic": 6364,
      "optim": 6365,
      "ceased": 6366,
      "shor": 6367,
      "shaman": 6368,
      "ami": 6369,
      "incentive": 6370,
      "earning": 6371,
      "ticton": 6372,
      "spiri": 6373,
      "sem": 6374,
      "compare": 6375,
      "1967": 6376,
      "1941": 6377,
      "emit": 6378,
      "ratic": 6379,
      "irdf": 6380,
      "phan": 6381,
      "phase": 6382,
      "ineffic": 6383,
      "contamin": 6384,
      "ultural": 6385,
      "parad": 6386,
      "lowlands": 6387,
      "pei": 6388,
      "height": 6389,
      "serves": 6390,
      "serving": 6391,
      "command": 6392,
      "avian": 6393,
      "grass": 6394,
      "manip": 6395,
      "newsp": 6396,
      "highway": 6397,
      "maur": 6398,
      "intends": 6399,
      "possibility": 6400,
      "correspond": 6401,
      "108": 6402,
      "ciirdf": 6403,
      "mongo": 6404,
      "preferen": 6405,
      "pradesh": 6406,
      "desert": 6407,
      "desire": 6408,
      "boo": 6409,
      "acetic": 6410,
      "tou": 6411,
      "203": 6412,
      "2011": 6413,
      "154": 6414,
      "disput": 6415,
      "disappear": 6416,
      "displayed": 6417,
      "distil": 6418,
      "subsector": 6419,
      "subsequ": 6420,
      "starry": 6421,
      "138": 6422,
      "184": 6423,
      "187": 6424,
      "1898": 6425,
      "drum": 6426,
      "worksheet": 6427,
      "stands": 6428,
      "signature": 6429,
      "meter": 6430,
      "malting": 6431,
      "121": 6432,
      "122": 6433,
      "128": 6434,
      "vention": 6435,
      "effec": 6436,
      "suring": 6437,
      "volved": 6438,
      "directory": 6439,
      "banks": 6440,
      "affili": 6441,
      "studied": 6442,
      "mills": 6443,
      "millers": 6444,
      "symb": 6445,
      "issuance": 6446,
      "175": 6447,
      "originally": 6448,
      "244": 6449,
      "elite": 6450,
      "advances": 6451,
      "johns": 6452,
      "distributing": 6453,
      "crabs": 6454,
      "nondurum": 6455,
      "faces": 6456,
      "holi": 6457,
      "virtu": 6458,
      "undertake": 6459,
      "whi": 6460,
      "100000": 6461,
      "longit": 6462,
      "ographic": 6463,
      "ordinary": 6464,
      "owns": 6465,
      "nik": 6466,
      "oseis": 6467,
      "9724": 6468,
      "dominance": 6469,
      "distor": 6470,
      "inspections": 6471,
      "photomet": 6472,
      "bakeshop": 6473,
      "registr": 6474,
      "1974": 6475,
      "mich": 6476,
      "helps": 6477,
      "helping": 6478,
      "uaes": 6479,
      "westernized": 6480,
      "westernstyle": 6481,
      "1984": 6482,
      "1985": 6483,
      "1986": 6484,
      "1988": 6485,
      "greatest": 6486,
      "sweetened": 6487,
      "soya": 6488,
      "conducting": 6489,
      "looks": 6490,
      "looked": 6491,
      "patho": 6492,
      "urbanized": 6493,
      "energetic": 6494,
      "logist": 6495,
      "confectionary": 6496,
      "chemist": 6497,
      "copra": 6498,
      "organised": 6499,
      "surveyed": 6500,
      "clearing": 6501,
      "penticton": 6502,
      "explor": 6503,
      "explosion": 6504,
      "middlec": 6505,
      "996": 6506,
      "begins": 6507,
      "downturn": 6508,
      "communities": 6509,
      "maintaining": 6510,
      "palay": 6511,
      "eping": 6512,
      "flourbased": 6513,
      "encouraging": 6514,
      "pix": 6515,
      "caters": 6516,
      "participating": 6517,
      "contributes": 6518,
      "grounds": 6519,
      "placing": 6520,
      "burg": 6521,
      "scot": 6522,
      "microwave": 6523,
      "career": 6524,
      "practical": 6525,
      "friends": 6526,
      "fuji": 6527,
      "turbul": 6528,
      "legend": 6529,
      "negotiated": 6530,
      "carrying": 6531,
      "asteroseis": 6532,
      "preferred": 6533,
      "geography": 6534,
      "geographical": 6535,
      "records": 6536,
      "500000": 6537,
      "franchises": 6538,
      "franchising": 6539,
      "challenging": 6540,
      "flows": 6541,
      "missions": 6542,
      "simpli": 6543,
      "mbm": 6544,
      "determining": 6545,
      "giants": 6546,
      "typical": 6547,
      "yellowish": 6548,
      "lexible": 6549,
      "combining": 6550,
      "negatively": 6551,
      "holders": 6552,
      "submit": 6553,
      "claimed": 6554,
      "autonom": 6555,
      "enjoys": 6556,
      "proposal": 6557,
      "nestlé": 6558,
      "skin": 6559,
      "skins": 6560,
      "welcome": 6561,
      "neighbour": 6562,
      "mechanical": 6563,
      "reasonable": 6564,
      "haifa": 6565,
      "haiphong": 6566,
      "printed": 6567,
      "bsb": 6568,
      "boundaries": 6569,
      "strictly": 6570,
      "interviewed": 6571,
      "enjoyed": 6572,
      "fluctuated": 6573,
      "revenue": 6574,
      "aspect": 6575,
      "exclusively": 6576,
      "bags": 6577,
      "lunch": 6578,
      "reserves": 6579,
      "flavored": 6580,
      "mutton": 6581,
      "utilized": 6582,
      "clubmarket": 6583,
      "tropic": 6584,
      "tropical": 6585,
      "debt": 6586,
      "mildly": 6587,
      "roasted": 6588,
      "invoice": 6589,
      "hydrogen": 6590,
      "prawns": 6591,
      "adults": 6592,
      "chefs": 6593,
      "html": 6594,
      "thesis": 6595,
      "ownership": 6596,
      "certifying": 6597,
      "constellations": 6598,
      "impressive": 6599,
      "enriched": 6600,
      "cocacola": 6601,
      "levied": 6602,
      "exercise": 6603,
      "explanation": 6604,
      "deemed": 6605,
      "fiesta": 6606,
      "suggestions": 6607,
      "circumstances": 6608,
      "rabbinate": 6609,
      "hospitality": 6610,
      "matters": 6611,
      "stick": 6612,
      "parallel": 6613,
      "differentiate": 6614,
      "joseph": 6615,
      "yolk": 6616,
      "gujarat": 6617,
      "calorie": 6618,
      "mckellar": 6619,
      "stipulated": 6620,
      "kandahar": 6621,
      "rothney": 6622,
      "spirits": 6623,
      "preferential": 6624,
      "subsequent": 6625,
      "virtually": 6626,
      "middleclass": 6627,
      "040": 6628,
      "225": 6629,
      "2nd": 6630,
      "350": 6631,
      "325": 6632,
      "330": 6633,
      "426": 6634,
      "7el": 6635,
      "848": 6636,
      "ait": 6637,
      "bial": 6638,
      "bloc": 6639,
      "bital": 6640,
      "dine": 6641,
      "ee": 6642,
      "ebr": 6643,
      "fc": 6644,
      "fing": 6645,
      "fad": 6646,
      "fel": 6647,
      "fas": 6648,
      "gad": 6649,
      "gap": 6650,
      "gers": 6651,
      "gall": 6652,
      "glu": 6653,
      "gins": 6654,
      "gained": 6655,
      "hes": 6656,
      "hap": 6657,
      "hang": 6658,
      "hoff": 6659,
      "jup": 6660,
      "jected": 6661,
      "kel": 6662,
      "kitch": 6663,
      "lakes": 6664,
      "mot": 6665,
      "mumb": 6666,
      "nir": 6667,
      "ois": 6668,
      "ocon": 6669,
      "oly": 6670,
      "p5": 6671,
      "pap": 6672,
      "pies": 6673,
      "pion": 6674,
      "pati": 6675,
      "rim": 6676,
      "ruth": 6677,
      "rule": 6678,
      "rasp": 6679,
      "sic": 6680,
      "sli": 6681,
      "sard": 6682,
      "slower": 6683,
      "told": 6684,
      "text": 6685,
      "uet": 6686,
      "varies": 6687,
      "vtc": 6688,
      "wi": 6689,
      "wers": 6690,
      "ype": 6691,
      "insec": 6692,
      "insufficient": 6693,
      "inafter": 6694,
      "oning": 6695,
      "remark": 6696,
      "reregistration": 6697,
      "replaced": 6698,
      "erals": 6699,
      "esity": 6700,
      "orial": 6701,
      "orion": 6702,
      "orbital": 6703,
      "alteration": 6704,
      "ensuring": 6705,
      "stake": 6706,
      "root": 6707,
      "cope": 6708,
      "porary": 6709,
      "ellit": 6710,
      "illu": 6711,
      "acc": 6712,
      "ita": 6713,
      "unable": 6714,
      "unorganized": 6715,
      "isk": 6716,
      "ime": 6717,
      "imaging": 6718,
      "agcca": 6719,
      "agrap": 6720,
      "agues": 6721,
      "leon": 6722,
      "leys": 6723,
      "levy": 6724,
      "condens": 6725,
      "conference": 6726,
      "cher": 6727,
      "exit": 6728,
      "extre": 6729,
      "tru": 6730,
      "urred": 6731,
      "that": 6732,
      "thur": 6733,
      "thats": 6734,
      "200102": 6735,
      "deals": 6736,
      "death": 6737,
      "logan": 6738,
      "igon": 6739,
      "igan": 6740,
      "mari": 6741,
      "margar": 6742,
      "margin": 6743,
      "marker": 6744,
      "oms": 6745,
      "amid": 6746,
      "amination": 6747,
      "essentially": 6748,
      "ears": 6749,
      "meant": 6750,
      "meiji": 6751,
      "spite": 6752,
      "spart": 6753,
      "semen": 6754,
      "comput": 6755,
      "1900": 6756,
      "1946": 6757,
      "antenn": 6758,
      "soviet": 6759,
      "acted": 6760,
      "contamination": 6761,
      "paragrap": 6762,
      "bran": 6763,
      "obesity": 6764,
      "grows": 6765,
      "avers": 6766,
      "mango": 6767,
      "minerals": 6768,
      "ardous": 6769,
      "highways": 6770,
      "matim": 6771,
      "industrys": 6772,
      "poised": 6773,
      "gency": 6774,
      "lax": 6775,
      "latitude": 6776,
      "cort": 6777,
      "corrup": 6778,
      "occas": 6779,
      "fewer": 6780,
      "populations": 6781,
      "cadbury": 6782,
      "basin": 6783,
      "monte": 6784,
      "montré": 6785,
      "prevention": 6786,
      "maine": 6787,
      "upgrade": 6788,
      "uptodate": 6789,
      "visited": 6790,
      "bios": 6791,
      "offshore": 6792,
      "healthful": 6793,
      "151": 6794,
      "155": 6795,
      "observing": 6796,
      "subsequently": 6797,
      "inds": 6798,
      "1888": 6799,
      "providers": 6800,
      "generations": 6801,
      "colza": 6802,
      "signs": 6803,
      "apped": 6804,
      "apping": 6805,
      "mete": 6806,
      "causes": 6807,
      "timately": 6808,
      "venues": 6809,
      "freshchilled": 6810,
      "supervalue": 6811,
      "supernova": 6812,
      "168": 6813,
      "surin": 6814,
      "149": 6815,
      "translation": 6816,
      "titudes": 6817,
      "singaporeans": 6818,
      "impul": 6819,
      "banking": 6820,
      "235": 6821,
      "256": 6822,
      "178": 6823,
      "limits": 6824,
      "potassi": 6825,
      "detection": 6826,
      "pollin": 6827,
      "likewise": 6828,
      "barth": 6829,
      "saigon": 6830,
      "ftas": 6831,
      "remainder": 6832,
      "publications": 6833,
      "galile": 6834,
      "hogg": 6835,
      "attached": 6836,
      "understood": 6837,
      "responsibilities": 6838,
      "film": 6839,
      "filling": 6840,
      "steam": 6841,
      "conflic": 6842,
      "supplying": 6843,
      "dele": 6844,
      "fying": 6845,
      "sunkist": 6846,
      "ensively": 6847,
      "handbook": 6848,
      "covering": 6849,
      "extends": 6850,
      "extensively": 6851,
      "photon": 6852,
      "doctors": 6853,
      "webb": 6854,
      "promising": 6855,
      "1975": 6856,
      "1979": 6857,
      "commissioners": 6858,
      "pattern": 6859,
      "easier": 6860,
      "nutrient": 6861,
      "mediumsized": 6862,
      "concerning": 6863,
      "bangkok": 6864,
      "wholly": 6865,
      "copies": 6866,
      "celebr": 6867,
      "identification": 6868,
      "gift": 6869,
      "mrs": 6870,
      "describes": 6871,
      "binary": 6872,
      "schedules": 6873,
      "promotes": 6874,
      "promoted": 6875,
      "solution": 6876,
      "solutions": 6877,
      "ukrain": 6878,
      "pale": 6879,
      "598": 6880,
      "examine": 6881,
      "contributing": 6882,
      "mixes": 6883,
      "performed": 6884,
      "collection": 6885,
      "prospective": 6886,
      "reportedly": 6887,
      "microwaves": 6888,
      "definitions": 6889,
      "definitely": 6890,
      "bottle": 6891,
      "emergence": 6892,
      "satellit": 6893,
      "seasonal": 6894,
      "scen": 6895,
      "scene": 6896,
      "stuffed": 6897,
      "integral": 6898,
      "integration": 6899,
      "warehouses": 6900,
      "arrive": 6901,
      "wealthy": 6902,
      "carrier": 6903,
      "gave": 6904,
      "announce": 6905,
      "ultraorthodox": 6906,
      "selfsufficiency": 6907,
      "yields": 6908,
      "movements": 6909,
      "bears": 6910,
      "latin": 6911,
      "third": 6912,
      "premises": 6913,
      "equity": 6914,
      "equally": 6915,
      "grading": 6916,
      "gradually": 6917,
      "principle": 6918,
      "adapt": 6919,
      "lebanese": 6920,
      "directions": 6921,
      "inventor": 6922,
      "jiangsu": 6923,
      "drawing": 6924,
      "1970s": 6925,
      "ronald": 6926,
      "orchard": 6927,
      "adopt": 6928,
      "adopted": 6929,
      "stier": 6930,
      "constitutes": 6931,
      "hereinafter": 6932,
      "polarimet": 6933,
      "lanka": 6934,
      "ladys": 6935,
      "detector": 6936,
      "rupe": 6937,
      "occupy": 6938,
      "interestingly": 6939,
      "diagnostic": 6940,
      "mutual": 6941,
      "itchs": 6942,
      "ikura": 6943,
      "utilization": 6944,
      "speaking": 6945,
      "luxury": 6946,
      "discussed": 6947,
      "colleagues": 6948,
      "bacterial": 6949,
      "conclusion": 6950,
      "surprising": 6951,
      "ixed": 6952,
      "immigration": 6953,
      "shifting": 6954,
      "smooth": 6955,
      "substitute": 6956,
      "substitutes": 6957,
      "oyster": 6958,
      "skilled": 6959,
      "pepper": 6960,
      "physiography": 6961,
      "female": 6962,
      "himal": 6963,
      "meslin": 6964,
      "incubators": 6965,
      "catalogue": 6966,
      "mailing": 6967,
      "replacement": 6968,
      "exemptions": 6969,
      "precision": 6970,
      "dalian": 6971,
      "lodge": 6972,
      "washing": 6973,
      "acquis": 6974,
      "vibrations": 6975,
      "smuggling": 6976,
      "dynamic": 6977,
      "acreage": 6978,
      "quantit": 6979,
      "expatri": 6980,
      "exportsource": 6981,
      "citizens": 6982,
      "biopharmaceuticals": 6983,
      "guinea": 6984,
      "relaxation": 6985,
      "junction": 6986,
      "abundant": 6987,
      "predominantly": 6988,
      "gilles": 6989,
      "intraasean": 6990,
      "enrolled": 6991,
      "athered": 6992,
      "absolute": 6993,
      "nielsen": 6994,
      "involvement": 6995,
      "boltwood": 6996,
      "bundles": 6997,
      "military": 6998,
      "witness": 6999,
      "shorter": 7000,
      "michigan": 7001,
      "scottish": 7002,
      "turbulence": 7003,
      "autonomous": 7004,
      "neighbourhood": 7005,
      "7eleven": 7006,
      "jupiter": 7007,
      "mumbai": 7008,
      "nirim": 7009,
      "oconnor": 7010,
      "extreme": 7011,
      "margarine": 7012,
      "spartan": 7013,
      "antennas": 7014,
      "matimop": 7015,
      "montréal": 7016,
      "potassium": 7017,
      "satellites": 7018,
      "0239": 7019,
      "212": 7020,
      "228": 7021,
      "314": 7022,
      "30000": 7023,
      "670": 7024,
      "644": 7025,
      "765": 7026,
      "910": 7027,
      "aer": 7028,
      "aib": 7029,
      "aña": 7030,
      "ajin": 7031,
      "bg": 7032,
      "borders": 7033,
      "cm": 7034,
      "dso": 7035,
      "deng": 7036,
      "dagu": 7037,
      "danger": 7038,
      "fts": 7039,
      "fra": 7040,
      "fpo": 7041,
      "fha": 7042,
      "flexible": 7043,
      "gation": 7044,
      "gard": 7045,
      "hk": 7046,
      "hw": 7047,
      "his": 7048,
      "hid": 7049,
      "iest": 7050,
      "ira": 7051,
      "jac": 7052,
      "jab": 7053,
      "kus": 7054,
      "kris": 7055,
      "lc": 7056,
      "lli": 7057,
      "nag": 7058,
      "nur": 7059,
      "og": 7060,
      "oec": 7061,
      "otic": 7062,
      "oke": 7063,
      "ogenous": 7064,
      "pce": 7065,
      "pist": 7066,
      "qc": 7067,
      "rut": 7068,
      "rum": 7069,
      "sund": 7070,
      "scar": 7071,
      "scal": 7072,
      "sext": 7073,
      "tau": 7074,
      "tled": 7075,
      "turing": 7076,
      "vin": 7077,
      "waf": 7078,
      "warm": 7079,
      "zhe": 7080,
      "intrain": 7081,
      "ont": 7082,
      "reexport": 7083,
      "recovered": 7084,
      "eric": 7085,
      "ank": 7086,
      "ano": 7087,
      "tium": 7088,
      "tight": 7089,
      "alex": 7090,
      "enable": 7091,
      "enna": 7092,
      "arot": 7093,
      "arma": 7094,
      "ston": 7095,
      "stun": 7096,
      "stret": 7097,
      "stories": 7098,
      "rots": 7099,
      "ingu": 7100,
      "ingent": 7101,
      "ata": 7102,
      "atac": 7103,
      "attitude": 7104,
      "icon": 7105,
      "proven": 7106,
      "livers": 7107,
      "ila": 7108,
      "illa": 7109,
      "illed": 7110,
      "dustry": 7111,
      "acarot": 7112,
      "iting": 7113,
      "itcan": 7114,
      "unlike": 7115,
      "uncooked": 7116,
      "imart": 7117,
      "leverage": 7118,
      "conjunction": 7119,
      "ching": 7120,
      "chili": 7121,
      "chair": 7122,
      "chhoff": 7123,
      "excess": 7124,
      "excise": 7125,
      "exotic": 7126,
      "erson": 7127,
      "strugg": 7128,
      "lyle": 7129,
      "cann": 7130,
      "ultimately": 7131,
      "loan": 7132,
      "loans": 7133,
      "comet": 7134,
      "abad": 7135,
      "andrew": 7136,
      "omics": 7137,
      "shir": 7138,
      "shine": 7139,
      "amaz": 7140,
      "mentation": 7141,
      "quas": 7142,
      "sier": 7143,
      "estate": 7144,
      "ota": 7145,
      "illimetre": 7146,
      "pland": 7147,
      "ayan": 7148,
      "spar": 7149,
      "sean": 7150,
      "compli": 7151,
      "1920": 7152,
      "1935": 7153,
      "1965": 7154,
      "1948": 7155,
      "1968": 7156,
      "1943": 7157,
      "1966": 7158,
      "1954": 7159,
      "embr": 7160,
      "antenna": 7161,
      "raising": 7162,
      "forum": 7163,
      "trades": 7164,
      "irans": 7165,
      "irradi": 7166,
      "renowned": 7167,
      "acters": 7168,
      "actually": 7169,
      "consumes": 7170,
      "lows": 7171,
      "aki": 7172,
      "peace": 7173,
      "brack": 7174,
      "obe": 7175,
      "grim": 7176,
      "recession": 7177,
      "expenses": 7178,
      "mann": 7179,
      "managing": 7180,
      "answers": 7181,
      "izon": 7182,
      "poore": 7183,
      "possib": 7184,
      "decide": 7185,
      "cium": 7186,
      "icewine": 7187,
      "ishi": 7188,
      "factories": 7189,
      "factbook": 7190,
      "boasts": 7191,
      "moist": 7192,
      "lightyear": 7193,
      "biom": 7194,
      "informatics": 7195,
      "fier": 7196,
      "fiers": 7197,
      "204": 7198,
      "20002005": 7199,
      "153": 7200,
      "15000": 7201,
      "dispers": 7202,
      "displays": 7203,
      "invited": 7204,
      "subsectors": 7205,
      "135": 7206,
      "139": 7207,
      "1850": 7208,
      "reader": 7209,
      "metals": 7210,
      "clal": 7211,
      "fishmeal": 7212,
      "packer": 7213,
      "timely": 7214,
      "129": 7215,
      "carrots": 7216,
      "smc": 7217,
      "superior": 7218,
      "surge": 7219,
      "1414": 7220,
      "halifax": 7221,
      "singapores": 7222,
      "singaporean": 7223,
      "cosmology": 7224,
      "creative": 7225,
      "banned": 7226,
      "economics": 7227,
      "inscri": 7228,
      "flakes": 7229,
      "origins": 7230,
      "syaria": 7231,
      "pastry": 7232,
      "parents": 7233,
      "structures": 7234,
      "modest": 7235,
      "vegetation": 7236,
      "eastman": 7237,
      "potentially": 7238,
      "waterway": 7239,
      "calcium": 7240,
      "tremaine": 7241,
      "full": 7242,
      "advent": 7243,
      "specializing": 7244,
      "oldest": 7245,
      "gdpcapita": 7246,
      "crack": 7247,
      "crust": 7248,
      "cleared": 7249,
      "lists": 7250,
      "nontariff": 7251,
      "facing": 7252,
      "drivers": 7253,
      "publication": 7254,
      "publicsector": 7255,
      "attended": 7256,
      "linked": 7257,
      "longstanding": 7258,
      "fillets": 7259,
      "planck": 7260,
      "farmer": 7261,
      "koreans": 7262,
      "receip": 7263,
      "9722": 7264,
      "characters": 7265,
      "sunspots": 7266,
      "complain": 7267,
      "902": 7268,
      "907": 7269,
      "hands": 7270,
      "bioinformatics": 7271,
      "extend": 7272,
      "distingu": 7273,
      "dao": 7274,
      "bullet": 7275,
      "296": 7276,
      "baking": 7277,
      "shoppers": 7278,
      "332": 7279,
      "338": 7280,
      "commercialization": 7281,
      "haram": 7282,
      "homestyle": 7283,
      "genetics": 7284,
      "6335": 7285,
      "636335": 7286,
      "kilos": 7287,
      "sweetener": 7288,
      "magn": 7289,
      "approvals": 7290,
      "488": 7291,
      "patents": 7292,
      "thetic": 7293,
      "673": 7294,
      "certainly": 7295,
      "logistic": 7296,
      "creamy": 7297,
      "existed": 7298,
      "copper": 7299,
      "bigger": 7300,
      "sars": 7301,
      "forwarding": 7302,
      "sanitation": 7303,
      "diversity": 7304,
      "postdoctoral": 7305,
      "tends": 7306,
      "aza": 7307,
      "employing": 7308,
      "influen": 7309,
      "atlases": 7310,
      "welldeveloped": 7311,
      "wellknown": 7312,
      "priorities": 7313,
      "humans": 7314,
      "breakdown": 7315,
      "ranks": 7316,
      "tuy": 7317,
      "ashed": 7318,
      "schedulev": 7319,
      "fairgrounds": 7320,
      "territorial": 7321,
      "greenland": 7322,
      "difficulty": 7323,
      "reflected": 7324,
      "microbial": 7325,
      "seasons": 7326,
      "situations": 7327,
      "predict": 7328,
      "destinations": 7329,
      "fuels": 7330,
      "classes": 7331,
      "emergency": 7332,
      "accurate": 7333,
      "acceptable": 7334,
      "politically": 7335,
      "barrie": 7336,
      "dinh": 7337,
      "mollus": 7338,
      "subsist": 7339,
      "temperatures": 7340,
      "aqua": 7341,
      "layers": 7342,
      "regularly": 7343,
      "broader": 7344,
      "attributes": 7345,
      "honor": 7346,
      "separated": 7347,
      "separating": 7348,
      "submillimetre": 7349,
      "hope": 7350,
      "machines": 7351,
      "yog": 7352,
      "sampling": 7353,
      "coloured": 7354,
      "attracting": 7355,
      "accessible": 7356,
      "moderate": 7357,
      "analyst": 7358,
      "cloud": 7359,
      "telephone": 7360,
      "thirty": 7361,
      "democ": 7362,
      "reasonably": 7363,
      "frank": 7364,
      "aids": 7365,
      "circle": 7366,
      "agroindustrial": 7367,
      "birds": 7368,
      "evident": 7369,
      "luminous": 7370,
      "devot": 7371,
      "dogs": 7372,
      "inventory": 7373,
      "absorption": 7374,
      "absorbed": 7375,
      "absorbs": 7376,
      "kios": 7377,
      "linkages": 7378,
      "cultures": 7379,
      "lunar": 7380,
      "chambers": 7381,
      "appeared": 7382,
      "reserve": 7383,
      "declarations": 7384,
      "occupied": 7385,
      "betacarot": 7386,
      "pigs": 7387,
      "tissu": 7388,
      "clients": 7389,
      "wishing": 7390,
      "eliminate": 7391,
      "bacteria": 7392,
      "ridge": 7393,
      "regarded": 7394,
      "parisien": 7395,
      "surprise": 7396,
      "shifted": 7397,
      "recommendations": 7398,
      "aggressively": 7399,
      "sustainable": 7400,
      "robinson": 7401,
      "nitro": 7402,
      "smoked": 7403,
      "digit": 7404,
      "digital": 7405,
      "nebulas": 7406,
      "every": 7407,
      "pearl": 7408,
      "plicate": 7409,
      "globally": 7410,
      "navigate": 7411,
      "henry": 7412,
      "idian": 7413,
      "silver": 7414,
      "prosperity": 7415,
      "hills": 7416,
      "paced": 7417,
      "villages": 7418,
      "stanley": 7419,
      "exactly": 7420,
      "interferomet": 7421,
      "journal": 7422,
      "kirchhoff": 7423,
      "elevations": 7424,
      "thinking": 7425,
      "recipes": 7426,
      "fiveyear": 7427,
      "macke": 7428,
      "vessel": 7429,
      "removal": 7430,
      "diabetes": 7431,
      "fibre": 7432,
      "herschel": 7433,
      "sodium": 7434,
      "alliances": 7435,
      "sudbury": 7436,
      "congress": 7437,
      "conservative": 7438,
      "concluded": 7439,
      "christ": 7440,
      "column": 7441,
      "neighboring": 7442,
      "entrepreneur": 7443,
      "jln": 7444,
      "vehicles": 7445,
      "noticed": 7446,
      "discrepan": 7447,
      "attempts": 7448,
      "therapeu": 7449,
      "fostering": 7450,
      "random": 7451,
      "louis": 7452,
      "aberration": 7453,
      "inefficient": 7454,
      "effectiveness": 7455,
      "finger": 7456,
      "ginseng": 7457,
      "remarkable": 7458,
      "stakeholders": 7459,
      "condensed": 7460,
      "computers": 7461,
      "cortland": 7462,
      "impulse": 7463,
      "pollinated": 7464,
      "ukraine": 7465,
      "announcement": 7466,
      "acquisition": 7467,
      "ajinom": 7468,
      "daguerre": 7469,
      "oecd": 7470,
      "sextant": 7471,
      "taught": 7472,
      "wafers": 7473,
      "intraindustry": 7474,
      "alexand": 7475,
      "atacama": 7476,
      "irradiated": 7477,
      "possibly": 7478,
      "syariah": 7479,
      "bulletin": 7480,
      "betacarotene": 7481,
      "04": 7482,
      "214": 7483,
      "226": 7484,
      "324": 7485,
      "345": 7486,
      "422": 7487,
      "5th": 7488,
      "570": 7489,
      "610": 7490,
      "aval": 7491,
      "bell": 7492,
      "block": 7493,
      "bhut": 7494,
      "bfad": 7495,
      "cai": 7496,
      "dos": 7497,
      "dai": 7498,
      "dating": 7499,
      "dress": 7500,
      "dill": 7501,
      "etic": 7502,
      "euse": 7503,
      "evolved": 7504,
      "fg": 7505,
      "flax": 7506,
      "gmos": 7507,
      "hp": 7508,
      "hint": 7509,
      "iq": 7510,
      "ios": 7511,
      "iti": 7512,
      "jes": 7513,
      "jel": 7514,
      "jas": 7515,
      "jet": 7516,
      "jol": 7517,
      "kh": 7518,
      "kr": 7519,
      "kre": 7520,
      "kul": 7521,
      "kol": 7522,
      "kits": 7523,
      "kaz": 7524,
      "lose": 7525,
      "ming": 7526,
      "mess": 7527,
      "mall": 7528,
      "mitted": 7529,
      "mortem": 7530,
      "nun": 7531,
      "nago": 7532,
      "niger": 7533,
      "ov": 7534,
      "oli": 7535,
      "ology": 7536,
      "pain": 7537,
      "qia": 7538,
      "ror": 7539,
      "rating": 7540,
      "rmb": 7541,
      "ss": 7542,
      "sca": 7543,
      "slot": 7544,
      "tze": 7545,
      "tesco": 7546,
      "uy": 7547,
      "uter": 7548,
      "vul": 7549,
      "varian": 7550,
      "vendors": 7551,
      "wis": 7552,
      "wai": 7553,
      "woman": 7554,
      "whey": 7555,
      "yun": 7556,
      "yum": 7557,
      "yeast": 7558,
      "zz": 7559,
      "zab": 7560,
      "osem": 7561,
      "inco": 7562,
      "instore": 7563,
      "onions": 7564,
      "rein": 7565,
      "remember": 7566,
      "reactions": 7567,
      "reyes": 7568,
      "revised": 7569,
      "anhu": 7570,
      "tiles": 7571,
      "orn": 7572,
      "orang": 7573,
      "ormous": 7574,
      "allocate": 7575,
      "edwin": 7576,
      "enacted": 7577,
      "enormous": 7578,
      "arid": 7579,
      "stab": 7580,
      "stem": 7581,
      "story": 7582,
      "stone": 7583,
      "roman": 7584,
      "attain": 7585,
      "adan": 7586,
      "adhe": 7587,
      "coil": 7588,
      "coup": 7589,
      "proved": 7590,
      "lio": 7591,
      "ligence": 7592,
      "portions": 7593,
      "elo": 7594,
      "astic": 7595,
      "acies": 7596,
      "accomp": 7597,
      "acular": 7598,
      "etex": 7599,
      "unfit": 7600,
      "unbranded": 7601,
      "fox": 7602,
      "impossible": 7603,
      "imager": 7604,
      "implic": 7605,
      "susp": 7606,
      "suffe": 7607,
      "cha": 7608,
      "chris": 7609,
      "chhim": 7610,
      "exempt": 7611,
      "urchin": 7612,
      "them": 7613,
      "thanal": 7614,
      "strange": 7615,
      "cancell": 7616,
      "diligence": 7617,
      "depres": 7618,
      "dehydr": 7619,
      "canadat": 7620,
      "usan": 7621,
      "uset": 7622,
      "us000": 7623,
      "us15": 7624,
      "us22": 7625,
      "igit": 7626,
      "omaña": 7627,
      "shim": 7628,
      "shake": 7629,
      "quit": 7630,
      "incidence": 7631,
      "meg": 7632,
      "meets": 7633,
      "metically": 7634,
      "meidi": 7635,
      "ffa": 7636,
      "viable": 7637,
      "spin": 7638,
      "spac": 7639,
      "spot": 7640,
      "sei": 7641,
      "compil": 7642,
      "complied": 7643,
      "194": 7644,
      "1930": 7645,
      "1929": 7646,
      "1922": 7647,
      "uty": 7648,
      "uting": 7649,
      "counts": 7650,
      "sored": 7651,
      "million1": 7652,
      "uminous": 7653,
      "goat": 7654,
      "goals": 7655,
      "ider": 7656,
      "idential": 7657,
      "consular": 7658,
      "regards": 7659,
      "irut": 7660,
      "pharma": 7661,
      "fications": 7662,
      "rend": 7663,
      "auck": 7664,
      "nok": 7665,
      "contest": 7666,
      "contem": 7667,
      "ultane": 7668,
      "ppa": 7669,
      "ppers": 7670,
      "parli": 7671,
      "geoph": 7672,
      "aks": 7673,
      "akas": 7674,
      "brit": 7675,
      "hew": 7676,
      "bev": 7677,
      "beli": 7678,
      "beirut": 7679,
      "aving": 7680,
      "expects": 7681,
      "expense": 7682,
      "bern": 7683,
      "bergh": 7684,
      "mansourashkar": 7685,
      "highincome": 7686,
      "fring": 7687,
      "gansu": 7688,
      "gangetic": 7689,
      "presso": 7690,
      "mahar": 7691,
      "indigenous": 7692,
      "nationals": 7693,
      "potry": 7694,
      "intens": 7695,
      "intensive": 7696,
      "genes": 7697,
      "posts": 7698,
      "decree": 7699,
      "locating": 7700,
      "ocular": 7701,
      "echin": 7702,
      "feat": 7703,
      "feel": 7704,
      "feree": 7705,
      "106": 7706,
      "10th": 7707,
      "bases": 7708,
      "ciffa": 7709,
      "mont": 7710,
      "kei": 7711,
      "keeping": 7712,
      "mainten": 7713,
      "economist": 7714,
      "economical": 7715,
      "upcoming": 7716,
      "updates": 7717,
      "arel": 7718,
      "entitled": 7719,
      "desc": 7720,
      "retained": 7721,
      "booth": 7722,
      "bohr": 7723,
      "angle": 7724,
      "dedicated": 7725,
      "cessive": 7726,
      "governing": 7727,
      "bits": 7728,
      "healthcare": 7729,
      "foreigners": 7730,
      "capel": 7731,
      "capability": 7732,
      "disinf": 7733,
      "disadvantages": 7734,
      "invention": 7735,
      "133": 7736,
      "137": 7737,
      "achuset": 7738,
      "188": 7739,
      "drama": 7740,
      "uck": 7741,
      "meters": 7742,
      "finland": 7743,
      "finetex": 7744,
      "male": 7745,
      "medal": 7746,
      "purified": 7747,
      "purification": 7748,
      "127": 7749,
      "carlyle": 7750,
      "oilseed": 7751,
      "freshwater": 7752,
      "manures": 7753,
      "operational": 7754,
      "presentation": 7755,
      "164": 7756,
      "166": 7757,
      "1662": 7758,
      "consumerready": 7759,
      "manufactures": 7760,
      "surve": 7761,
      "transferee": 7762,
      "volcan": 7763,
      "certifications": 7764,
      "impacts": 7765,
      "bananas": 7766,
      "outlines": 7767,
      "northwestern": 7768,
      "affecting": 7769,
      "affixed": 7770,
      "herds": 7771,
      "hermetically": 7772,
      "doyon": 7773,
      "255": 7774,
      "fermentation": 7775,
      "decreases": 7776,
      "sym": 7777,
      "syria": 7778,
      "sydney": 7779,
      "perspective": 7780,
      "modes": 7781,
      "modification": 7782,
      "smallest": 7783,
      "smallscale": 7784,
      "originated": 7785,
      "detecting": 7786,
      "waterways": 7787,
      "calories": 7788,
      "247": 7789,
      "704": 7790,
      "6090": 7791,
      "significance": 7792,
      "applicants": 7793,
      "specializes": 7794,
      "departures": 7795,
      "plantings": 7796,
      "additionally": 7797,
      "crun": 7798,
      "criter": 7799,
      "rade": 7800,
      "fameuse": 7801,
      "deputy": 7802,
      "galactic": 7803,
      "attend": 7804,
      "israelis": 7805,
      "lining": 7806,
      "virgin": 7807,
      "underway": 7808,
      "files": 7809,
      "filter": 7810,
      "263": 7811,
      "2600": 7812,
      "chilean": 7813,
      "reception": 7814,
      "improves": 7815,
      "powers": 7816,
      "notar": 7817,
      "sunlight": 7818,
      "sunny": 7819,
      "roll": 7820,
      "authorization": 7821,
      "284": 7822,
      "biofuels": 7823,
      "brother": 7824,
      "brothers": 7825,
      "associate": 7826,
      "extending": 7827,
      "officially": 7828,
      "makers": 7829,
      "daun": 7830,
      "292": 7831,
      "295": 7832,
      "3385": 7833,
      "empire": 7834,
      "micha": 7835,
      "indicating": 7836,
      "litan": 7837,
      "mcdon": 7838,
      "relied": 7839,
      "reliant": 7840,
      "reliance": 7841,
      "funded": 7842,
      "positioning": 7843,
      "sweetening": 7844,
      "shield": 7845,
      "dairying": 7846,
      "patron": 7847,
      "environmentally": 7848,
      "theres": 7849,
      "certainty": 7850,
      "swed": 7851,
      "britishcolumbia": 7852,
      "simultane": 7853,
      "industrialized": 7854,
      "borne": 7855,
      "bordered": 7856,
      "vanak": 7857,
      "measurements": 7858,
      "organisation": 7859,
      "acids": 7860,
      "postmortem": 7861,
      "ertkul": 7862,
      "oct10": 7863,
      "epide": 7864,
      "passes": 7865,
      "showcase": 7866,
      "turnkey": 7867,
      "constructing": 7868,
      "noteworthy": 7869,
      "breaking": 7870,
      "clauses": 7871,
      "mixtures": 7872,
      "strengthened": 7873,
      "performing": 7874,
      "properly": 7875,
      "ministers": 7876,
      "pink": 7877,
      "divisions": 7878,
      "19962000": 7879,
      "meridian": 7880,
      "scott": 7881,
      "reflects": 7882,
      "577": 7883,
      "danone": 7884,
      "eva": 7885,
      "gases": 7886,
      "situated": 7887,
      "feder": 7888,
      "minimize": 7889,
      "fuelled": 7890,
      "leguminous": 7891,
      "negotiate": 7892,
      "negotiating": 7893,
      "ribs": 7894,
      "emerged": 7895,
      "accepting": 7896,
      "satur": 7897,
      "horizon": 7898,
      "disposed": 7899,
      "spectacular": 7900,
      "blueberries": 7901,
      "textiles": 7902,
      "dealing": 7903,
      "mexican": 7904,
      "rainfed": 7905,
      "sawyer": 7906,
      "syrups": 7907,
      "guarantees": 7908,
      "1904": 7909,
      "integrators": 7910,
      "ginger": 7911,
      "habit": 7912,
      "technological": 7913,
      "innovations": 7914,
      "discoveries": 7915,
      "machine": 7916,
      "write": 7917,
      "massachuset": 7918,
      "collaborators": 7919,
      "physician": 7920,
      "alog": 7921,
      "projection": 7922,
      "extracts": 7923,
      "facilitated": 7924,
      "purefoods": 7925,
      "neighbours": 7926,
      "liquidmirror": 7927,
      "clothing": 7928,
      "plateaus": 7929,
      "telecommunications": 7930,
      "jamesclerk": 7931,
      "mechanism": 7932,
      "bearing": 7933,
      "sussex": 7934,
      "franco": 7935,
      "mountainous": 7936,
      "honeyed": 7937,
      "agroprocessing": 7938,
      "distinctions": 7939,
      "luminos": 7940,
      "receives": 7941,
      "directed": 7942,
      "calculations": 7943,
      "philos": 7944,
      "philbev": 7945,
      "pasig": 7946,
      "wastes": 7947,
      "orchid": 7948,
      "notifications": 7949,
      "stopped": 7950,
      "progres": 7951,
      "boosting": 7952,
      "spectroscope": 7953,
      "tracking": 7954,
      "salads": 7955,
      "continuously": 7956,
      "tagalog": 7957,
      "appeal": 7958,
      "archives": 7959,
      "staples": 7960,
      "excludes": 7961,
      "medicine": 7962,
      "hemisphere": 7963,
      "yangtze": 7964,
      "eliminated": 7965,
      "takeaway": 7966,
      "rustan": 7967,
      "satisfied": 7968,
      "renewed": 7969,
      "renewable": 7970,
      "demographics": 7971,
      "arrivals": 7972,
      "millimetres": 7973,
      "debate": 7974,
      "pursue": 7975,
      "pursued": 7976,
      "crushers": 7977,
      "profitable": 7978,
      "tiny": 7979,
      "window": 7980,
      "extraordinary": 7981,
      "termination": 7982,
      "invoices": 7983,
      "horticultural": 7984,
      "proceed": 7985,
      "opposed": 7986,
      "synthetic": 7987,
      "religions": 7988,
      "globular": 7989,
      "incorporated": 7990,
      "benguet": 7991,
      "females": 7992,
      "twothirds": 7993,
      "incubator": 7994,
      "teacher": 7995,
      "teachers": 7996,
      "prosperous": 7997,
      "streamlined": 7998,
      "furnish": 7999,
      "precisely": 8000,
      "retired": 8001,
      "enhanced": 8002,
      "peninsular": 8003,
      "peninsula": 8004,
      "lastly": 8005,
      "thriving": 8006,
      "emulsion": 8007,
      "translates": 8008,
      "gelat": 8009,
      "puddings": 8010,
      "tamil": 8011,
      "traceability": 8012,
      "amendment": 8013,
      "secretary": 8014,
      "appreciate": 8015,
      "harmonized": 8016,
      "gazette": 8017,
      "harmful": 8018,
      "tasman": 8019,
      "enzy": 8020,
      "accelerate": 8021,
      "chengdu": 8022,
      "fragmented": 8023,
      "fixed": 8024,
      "buffalo": 8025,
      "cruise": 8026,
      "safdzs": 8027,
      "destroyed": 8028,
      "interpretation": 8029,
      "zoom": 8030,
      "administered": 8031,
      "spirit": 8032,
      "seventh": 8033,
      "partially": 8034,
      "destruction": 8035,
      "credits": 8036,
      "6363385": 8037,
      "bahrain": 8038,
      "immigrants": 8039,
      "cabb": 8040,
      "lecture": 8041,
      "punjab": 8042,
      "rocks": 8043,
      "consolidate": 8044,
      "earnings": 8045,
      "touch": 8046,
      "symbol": 8047,
      "nikkei": 8048,
      "corruption": 8049,
      "conflict": 8050,
      "rupees": 8051,
      "quantitative": 8052,
      "expatriates": 8053,
      "witnessed": 8054,
      "garden": 8055,
      "krispy": 8056,
      "zhejiang": 8057,
      "moisture": 8058,
      "inscribed": 8059,
      "receipt": 8060,
      "influenza": 8061,
      "subsistence": 8062,
      "honorary": 8063,
      "nitrogen": 8064,
      "everyday": 8065,
      "mackerel": 8066,
      "discrepancy": 8067,
      "ajinomoto": 8068,
      "bhutan": 8069,
      "cairo": 8070,
      "hpai": 8071,
      "jelly": 8072,
      "jetro": 8073,
      "jolli": 8074,
      "kreme": 8075,
      "nagoya": 8076,
      "slotting": 8077,
      "anhui": 8078,
      "stabili": 8079,
      "couple": 8080,
      "suffered": 8081,
      "thanalertkul": 8082,
      "dehydrated": 8083,
      "meidiya": 8084,
      "auckland": 8085,
      "geophys": 8086,
      "maharash": 8087,
      "potrykus": 8088,
      "maintenance": 8089,
      "dramatically": 8090,
      "finetextured": 8091,
      "criteria": 8092,
      "michael": 8093,
      "jamesclerkmaxwell": 8094,
      "luminosity": 8095,
      "02": 8096,
      "08": 8097,
      "0g": 8098,
      "014": 8099,
      "025": 8100,
      "1st": 8101,
      "215": 8102,
      "218": 8103,
      "2100": 8104,
      "297": 8105,
      "315": 8106,
      "390": 8107,
      "4th": 8108,
      "410": 8109,
      "423": 8110,
      "480": 8111,
      "567": 8112,
      "562": 8113,
      "6th": 8114,
      "630": 8115,
      "624": 8116,
      "627": 8117,
      "7975": 8118,
      "825": 8119,
      "822": 8120,
      "855": 8121,
      "81662": 8122,
      "aren": 8123,
      "atically": 8124,
      "arency": 8125,
      "aecigcca": 8126,
      "bt": 8127,
      "bos": 8128,
      "bred": 8129,
      "bia": 8130,
      "ball": 8131,
      "boc": 8132,
      "bub": 8133,
      "bones": 8134,
      "bgcca": 8135,
      "cain": 8136,
      "cast": 8137,
      "cub": 8138,
      "cats": 8139,
      "dh": 8140,
      "fes": 8141,
      "fpa": 8142,
      "finds": 8143,
      "god": 8144,
      "gly": 8145,
      "gren": 8146,
      "gau": 8147,
      "gni": 8148,
      "gathered": 8149,
      "hay": 8150,
      "hund": 8151,
      "hair": 8152,
      "heter": 8153,
      "istry": 8154,
      "ift": 8155,
      "iencies": 8156,
      "ja": 8157,
      "jim": 8158,
      "jack": 8159,
      "jord": 8160,
      "java": 8161,
      "kl": 8162,
      "kal": 8163,
      "kas": 8164,
      "kim": 8165,
      "kins": 8166,
      "kistan": 8167,
      "lloy": 8168,
      "lateral": 8169,
      "mp": 8170,
      "mx": 8171,
      "mapping": 8172,
      "nc": 8173,
      "nad": 8174,
      "nom": 8175,
      "nick": 8176,
      "ncr": 8177,
      "nafta": 8178,
      "ozone": 8179,
      "pect": 8180,
      "ptive": 8181,
      "pict": 8182,
      "pusan": 8183,
      "qat": 8184,
      "ré": 8185,
      "spro": 8186,
      "sab": 8187,
      "say": 8188,
      "scent": 8189,
      "saff": 8190,
      "tv": 8191,
      "té": 8192,
      "tmm": 8193,
      "tdgcca": 8194,
      "uv": 8195,
      "uong": 8196,
      "utili": 8197,
      "vad": 8198,
      "vac": 8199,
      "vail": 8200,
      "wards": 8201,
      "xrays": 8202,
      "yard": 8203,
      "yok": 8204,
      "zest": 8205,
      "ère": 8206,
      "osed": 8207,
      "ostr": 8208,
      "osia": 8209,
      "ining": 8210,
      "inorganic": 8211,
      "inaga": 8212,
      "inhabit": 8213,
      "oned": 8214,
      "onsored": 8215,
      "rev": 8216,
      "rebo": 8217,
      "reproduced": 8218,
      "recombin": 8219,
      "reexamination": 8220,
      "rehab": 8221,
      "reconstruction": 8222,
      "erosion": 8223,
      "anne": 8224,
      "tism": 8225,
      "tibet": 8226,
      "orous": 8227,
      "alds": 8228,
      "alga": 8229,
      "edical": 8230,
      "ederation": 8231,
      "ensu": 8232,
      "arts": 8233,
      "ardi": 8234,
      "stal": 8235,
      "stac": 8236,
      "stered": 8237,
      "roes": 8238,
      "rome": 8239,
      "rods": 8240,
      "roof": 8241,
      "rogers": 8242,
      "athan": 8243,
      "ican": 8244,
      "icton": 8245,
      "coding": 8246,
      "coke": 8247,
      "coho": 8248,
      "liers": 8249,
      "lived": 8250,
      "elm": 8251,
      "elder": 8252,
      "ille": 8253,
      "illegal": 8254,
      "asa": 8255,
      "assigned": 8256,
      "dum": 8257,
      "dual": 8258,
      "duong": 8259,
      "dutt": 8260,
      "accompany": 8261,
      "acrob": 8262,
      "eton": 8263,
      "ethyl": 8264,
      "enth": 8265,
      "itate": 8266,
      "isms": 8267,
      "fores": 8268,
      "focal": 8269,
      "suspect": 8270,
      "agend": 8271,
      "letion": 8272,
      "leaving": 8273,
      "conces": 8274,
      "converti": 8275,
      "consor": 8276,
      "convinc": 8277,
      "chu": 8278,
      "chic": 8279,
      "chron": 8280,
      "chlor": 8281,
      "chuck": 8282,
      "duck": 8283,
      "tried": 8284,
      "portu": 8285,
      "portland": 8286,
      "uran": 8287,
      "thick": 8288,
      "through": 8289,
      "stri": 8290,
      "foodprocessing": 8291,
      "ulate": 8292,
      "200203": 8293,
      "diox": 8294,
      "defl": 8295,
      "degrad": 8296,
      "degra": 8297,
      "comment": 8298,
      "abis": 8299,
      "us1": 8300,
      "us3": 8301,
      "us5": 8302,
      "using": 8303,
      "us23": 8304,
      "igeration": 8305,
      "marsh": 8306,
      "opin": 8307,
      "shek": 8308,
      "ambi": 8309,
      "amatic": 8310,
      "sir": 8311,
      "sias": 8312,
      "sius": 8313,
      "inclus": 8314,
      "oline": 8315,
      "plaza": 8316,
      "mere": 8317,
      "mead": 8318,
      "mega": 8319,
      "verification": 8320,
      "versus": 8321,
      "importexport": 8322,
      "urea": 8323,
      "ector": 8324,
      "vii": 8325,
      "ayet": 8326,
      "spher": 8327,
      "spicy": 8328,
      "sponsored": 8329,
      "segrain": 8330,
      "complement": 8331,
      "compart": 8332,
      "1910": 8333,
      "1923": 8334,
      "1940": 8335,
      "1928": 8336,
      "1939": 8337,
      "1957": 8338,
      "utory": 8339,
      "eman": 8340,
      "emortem": 8341,
      "antemortem": 8342,
      "sole": 8343,
      "reds": 8344,
      "raf": 8345,
      "rax": 8346,
      "percep": 8347,
      "wording": 8348,
      "ford": 8349,
      "gov": 8350,
      "goats": 8351,
      "ails": 8352,
      "php": 8353,
      "pheric": 8354,
      "autions": 8355,
      "valleys": 8356,
      "inequality": 8357,
      "exportable": 8358,
      "partial": 8359,
      "seri": 8360,
      "lowpriced": 8361,
      "aking": 8362,
      "peat": 8363,
      "brine": 8364,
      "brisk": 8365,
      "heated": 8366,
      "oblig": 8367,
      "obstac": 8368,
      "being": 8369,
      "beha": 8370,
      "ilia": 8371,
      "avos": 8372,
      "avut": 8373,
      "indus": 8374,
      "grann": 8375,
      "recre": 8376,
      "intern": 8377,
      "interim": 8378,
      "interrup": 8379,
      "interference": 8380,
      "expon": 8381,
      "fry": 8382,
      "frayet": 8383,
      "izer": 8384,
      "presidents": 8385,
      "maff": 8386,
      "acknow": 8387,
      "intend": 8388,
      "intake": 8389,
      "genus": 8390,
      "pops": 8391,
      "poppy": 8392,
      "laure": 8393,
      "corne": 8394,
      "107": 8395,
      "centers": 8396,
      "centavos": 8397,
      "monde": 8398,
      "monaman": 8399,
      "tell": 8400,
      "salty": 8401,
      "aired": 8402,
      "eseed": 8403,
      "retina": 8404,
      "boul": 8405,
      "angular": 8406,
      "mologist": 8407,
      "worldclass": 8408,
      "visa": 8409,
      "vissan": 8410,
      "governed": 8411,
      "landed": 8412,
      "ariat": 8413,
      "20th": 8414,
      "2030": 8415,
      "curry": 8416,
      "wned": 8417,
      "captured": 8418,
      "1564": 8419,
      "domain": 8420,
      "disadvantage": 8421,
      "governmental": 8422,
      "subjected": 8423,
      "greek": 8424,
      "afety": 8425,
      "186": 8426,
      "dramatic": 8427,
      "faith": 8428,
      "norma": 8429,
      "ucial": 8430,
      "generating": 8431,
      "seconds": 8432,
      "pastas": 8433,
      "methyl": 8434,
      "fisher": 8435,
      "purdys": 8436,
      "seawe": 8437,
      "1249": 8438,
      "freshness": 8439,
      "judic": 8440,
      "manual": 8441,
      "505": 8442,
      "followup": 8443,
      "superstores": 8444,
      "163": 8445,
      "1600": 8446,
      "16200": 8447,
      "prize": 8448,
      "bust": 8449,
      "142": 8450,
      "147": 8451,
      "1400": 8452,
      "inflows": 8453,
      "networking": 8454,
      "transshipment": 8455,
      "transformed": 8456,
      "transformation": 8457,
      "volve": 8458,
      "volunt": 8459,
      "rye": 8460,
      "creates": 8461,
      "continually": 8462,
      "outline": 8463,
      "economically": 8464,
      "rella": 8465,
      "eful": 8466,
      "does": 8467,
      "door": 8468,
      "250000": 8469,
      "fertile": 8470,
      "organics": 8471,
      "versions": 8472,
      "307": 8473,
      "malaysias": 8474,
      "gerva": 8475,
      "first": 8476,
      "11000": 8477,
      "grouped": 8478,
      "sulph": 8479,
      "bargaining": 8480,
      "barilla": 8481,
      "cran": 8482,
      "crucial": 8483,
      "secondlargest": 8484,
      "grams": 8485,
      "statement": 8486,
      "403": 8487,
      "407": 8488,
      "hypo": 8489,
      "hybrid": 8490,
      "underdeveloped": 8491,
      "underground": 8492,
      "3500": 8493,
      "35000": 8494,
      "responded": 8495,
      "fill": 8496,
      "planetary": 8497,
      "nife": 8498,
      "periodic": 8499,
      "confederation": 8500,
      "supports": 8501,
      "sunglo": 8502,
      "sunflower": 8503,
      "2800": 8504,
      "biology": 8505,
      "broken": 8506,
      "balanced": 8507,
      "officers": 8508,
      "272": 8509,
      "rapeseed": 8510,
      "categor": 8511,
      "adeshi": 8512,
      "reality": 8513,
      "bake": 8514,
      "sels": 8515,
      "promp": 8516,
      "transporting": 8517,
      "sugars": 8518,
      "sugarfree": 8519,
      "arabian": 8520,
      "helpful": 8521,
      "cycle": 8522,
      "cygni": 8523,
      "homem": 8524,
      "tested": 8525,
      "mcp": 8526,
      "mccain": 8527,
      "relief": 8528,
      "payable": 8529,
      "1982": 8530,
      "settle": 8531,
      "sweeteners": 8532,
      "bruneian": 8533,
      "555": 8534,
      "addressing": 8535,
      "wow": 8536,
      "756": 8537,
      "path": 8538,
      "courses": 8539,
      "6137597": 8540,
      "cashew": 8541,
      "cassegrain": 8542,
      "674": 8543,
      "swiss": 8544,
      "entryexit": 8545,
      "4300": 8546,
      "existent": 8547,
      "shapes": 8548,
      "chemically": 8549,
      "chemistry": 8550,
      "positively": 8551,
      "involves": 8552,
      "chees": 8553,
      "celest": 8554,
      "celsius": 8555,
      "19982002": 8556,
      "dependant": 8557,
      "sanc": 8558,
      "publishes": 8559,
      "addressed": 8560,
      "butch": 8561,
      "pointed": 8562,
      "morning": 8563,
      "morinaga": 8564,
      "bonded": 8565,
      "slowed": 8566,
      "taxation": 8567,
      "46metre": 8568,
      "clubs": 8569,
      "tasty": 8570,
      "ometre": 8571,
      "engineers": 8572,
      "palma": 8573,
      "nesses": 8574,
      "restriction": 8575,
      "middleaged": 8576,
      "snacking": 8577,
      "roundish": 8578,
      "monitored": 8579,
      "593": 8580,
      "wellestablished": 8581,
      "wellbeing": 8582,
      "examinations": 8583,
      "pierre": 8584,
      "catechin": 8585,
      "afghans": 8586,
      "closest": 8587,
      "bangladeshi": 8588,
      "ccc": 8589,
      "headed": 8590,
      "headquarters": 8591,
      "fairprice": 8592,
      "burma": 8593,
      "offerings": 8594,
      "greenish": 8595,
      "exhibited": 8596,
      "classifications": 8597,
      "concentrating": 8598,
      "atmospheric": 8599,
      "amounting": 8600,
      "belt": 8601,
      "cutflower": 8602,
      "careful": 8603,
      "gasoline": 8604,
      "wilson": 8605,
      "targeting": 8606,
      "friday": 8607,
      "similarly": 8608,
      "legally": 8609,
      "strategis": 8610,
      "advise": 8611,
      "ribbon": 8612,
      "jointventure": 8613,
      "kilometre": 8614,
      "accurately": 8615,
      "ilitation": 8616,
      "travels": 8617,
      "travelling": 8618,
      "achieving": 8619,
      "seasonings": 8620,
      "horse": 8621,
      "hormon": 8622,
      "hormel": 8623,
      "educational": 8624,
      "54126": 8625,
      "7718": 8626,
      "dinner": 8627,
      "multilateral": 8628,
      "magnetism": 8629,
      "buildings": 8630,
      "precautions": 8631,
      "finalized": 8632,
      "aquatic": 8633,
      "senen": 8634,
      "melting": 8635,
      "guaranteed": 8636,
      "cambridge": 8637,
      "panel": 8638,
      "blend": 8639,
      "blind": 8640,
      "hama": 8641,
      "rs200": 8642,
      "refrigeration": 8643,
      "collaborative": 8644,
      "brewing": 8645,
      "sharon": 8646,
      "sharing": 8647,
      "guidance": 8648,
      "safegu": 8649,
      "purees": 8650,
      "uniwide": 8651,
      "cumbers": 8652,
      "miso": 8653,
      "comparative": 8654,
      "mechanics": 8655,
      "mechanisms": 8656,
      "florence": 8657,
      "runs": 8658,
      "statutory": 8659,
      "franç": 8660,
      "circ": 8661,
      "emphasize": 8662,
      "identifying": 8663,
      "shelflife": 8664,
      "constantly": 8665,
      "bolstered": 8666,
      "bird": 8667,
      "evidenced": 8668,
      "walk": 8669,
      "awarded": 8670,
      "lebanons": 8671,
      "calculation": 8672,
      "drawback": 8673,
      "maximize": 8674,
      "absorb": 8675,
      "durable": 8676,
      "adoption": 8677,
      "fortune": 8678,
      "gravit": 8679,
      "polarized": 8680,
      "ecozones": 8681,
      "gamma": 8682,
      "indirectly": 8683,
      "bagu": 8684,
      "summit": 8685,
      "appeti": 8686,
      "transparency": 8687,
      "orbitals": 8688,
      "medicines": 8689,
      "franchisees": 8690,
      "endorsement": 8691,
      "client": 8692,
      "hunting": 8693,
      "succeed": 8694,
      "subsidized": 8695,
      "519326": 8696,
      "ramadan": 8697,
      "amansi": 8698,
      "formula": 8699,
      "databank": 8700,
      "explorers": 8701,
      "failed": 8702,
      "failure": 8703,
      "rustans": 8704,
      "satisfy": 8705,
      "renewal": 8706,
      "millimetre": 8707,
      "millimeter": 8708,
      "privatized": 8709,
      "fredericton": 8710,
      "evening": 8711,
      "rosis": 8712,
      "consolidated": 8713,
      "inauguration": 8714,
      "distinctly": 8715,
      "oysters": 8716,
      "pears": 8717,
      "wonder": 8718,
      "opposite": 8719,
      "startup": 8720,
      "coloring": 8721,
      "physiographic": 8722,
      "bengal": 8723,
      "kidney": 8724,
      "adulteration": 8725,
      "learning": 8726,
      "200005": 8727,
      "shellfish": 8728,
      "possesses": 8729,
      "catalog": 8730,
      "ifp": 8731,
      "jeanrené": 8732,
      "anthrax": 8733,
      "stayed": 8734,
      "aboard": 8735,
      "asteroids": 8736,
      "happy": 8737,
      "jonathan": 8738,
      "slopes": 8739,
      "twice": 8740,
      "village": 8741,
      "retirement": 8742,
      "enhancing": 8743,
      "tribe": 8744,
      "plastic": 8745,
      "compounds": 8746,
      "interferometer": 8747,
      "cheapest": 8748,
      "craig": 8749,
      "huron": 8750,
      "suffer": 8751,
      "emulsi": 8752,
      "impediment": 8753,
      "refrigerated": 8754,
      "pudong": 8755,
      "argued": 8756,
      "survive": 8757,
      "simulate": 8758,
      "multipliers": 8759,
      "phosphate": 8760,
      "sourashkarmaecigcca": 8761,
      "hazardous": 8762,
      "justice": 8763,
      "toll": 8764,
      "wolfrayet": 8765,
      "colonial": 8766,
      "dgft": 8767,
      "qingdao": 8768,
      "rr1": 8769,
      "alimentaire": 8770,
      "codex": 8771,
      "resistant": 8772,
      "sixth": 8773,
      "perishable": 8774,
      "geological": 8775,
      "carbohydrate": 8776,
      "mushroom": 8777,
      "aggregate": 8778,
      "jurisdiction": 8779,
      "080810": 8780,
      "kashrut": 8781,
      "cocontractant": 8782,
      "eclipse": 8783,
      "accumulation": 8784,
      "optician": 8785,
      "phanie": 8786,
      "manipulation": 8787,
      "newspaper": 8788,
      "booh": 8789,
      "dispute": 8790,
      "distilled": 8791,
      "affiliates": 8792,
      "johnson": 8793,
      "holiday": 8794,
      "longitude": 8795,
      "photometers": 8796,
      "pathogen": 8797,
      "exploring": 8798,
      "pixels": 8799,
      "simplified": 8800,
      "yellowishwhite": 8801,
      "felt": 8802,
      "glucos": 8803,
      "hangzhou": 8804,
      "leonard": 8805,
      "truly": 8806,
      "maritime": 8807,
      "paragraph": 8808,
      "occasions": 8809,
      "biosafety": 8810,
      "meteor": 8811,
      "delegation": 8812,
      "64447": 8813,
      "iraq": 8814,
      "jacques": 8815,
      "chairman": 8816,
      "shirley": 8817,
      "quasars": 8818,
      "compliments": 8819,
      "poorest": 8820,
      "biomedical": 8821,
      "crackers": 8822,
      "crustace": 8823,
      "distinguish": 8824,
      "yogurt": 8825,
      "democratic": 8826,
      "devoted": 8827,
      "tissue": 8828,
      "christmas": 8829,
      "fingerprint": 8830,
      "daguerreot": 8831,
      "jesu": 8832,
      "nunavut": 8833,
      "incoterms": 8834,
      "implications": 8835,
      "shimbun": 8836,
      "spaces": 8837,
      "compiled": 8838,
      "parliament": 8839,
      "bernard": 8840,
      "intensity": 8841,
      "descending": 8842,
      "capelin": 8843,
      "surveys": 8844,
      "sympt": 8845,
      "notarized": 8846,
      "mcdonalds": 8847,
      "simultaneously": 8848,
      "federally": 8849,
      "massachusetts": 8850,
      "maharashtra": 8851,
      "816621249": 8852,
      "bubble": 8853,
      "grenad": 8854,
      "gauge": 8855,
      "hundreds": 8856,
      "lloyd": 8857,
      "nadu": 8858,
      "pictures": 8859,
      "qatar": 8860,
      "scented": 8861,
      "zesto": 8862,
      "ostrich": 8863,
      "inhabitants": 8864,
      "rehabilitation": 8865,
      "algae": 8866,
      "acrobat": 8867,
      "convertible": 8868,
      "consortium": 8869,
      "degraaf": 8870,
      "inclusion": 8871,
      "compartments": 8872,
      "perceptions": 8873,
      "granny": 8874,
      "monamansourashkarmaecigcca": 8875,
      "judicial": 8876,
      "voluntary": 8877,
      "020": 8878,
      "050": 8879,
      "024": 8880,
      "026": 8881,
      "033": 8882,
      "12000": 8883,
      "1mcp": 8884,
      "217": 8885,
      "224": 8886,
      "270": 8887,
      "280": 8888,
      "290": 8889,
      "323": 8890,
      "335": 8891,
      "328": 8892,
      "416": 8893,
      "430": 8894,
      "424": 8895,
      "470": 8896,
      "490": 8897,
      "427": 8898,
      "4digit": 8899,
      "510": 8900,
      "575": 8901,
      "534": 8902,
      "650": 8903,
      "640": 8904,
      "675": 8905,
      "646": 8906,
      "60000": 8907,
      "7th": 8908,
      "710": 8909,
      "712": 8910,
      "760": 8911,
      "744": 8912,
      "8th": 8913,
      "823": 8914,
      "824": 8915,
      "811": 8916,
      "826": 8917,
      "875": 8918,
      "9th": 8919,
      "90000": 8920,
      "ax": 8921,
      "aic": 8922,
      "aac": 8923,
      "a14": 8924,
      "atical": 8925,
      "bim": 8926,
      "bum": 8927,
      "bore": 8928,
      "bati": 8929,
      "baff": 8930,
      "bagg": 8931,
      "cig": 8932,
      "clar": 8933,
      "cfa": 8934,
      "cry": 8935,
      "dad": 8936,
      "dle": 8937,
      "densi": 8938,
      "dict": 8939,
      "dmaecigcca": 8940,
      "eo": 8941,
      "eed": 8942,
      "eigh": 8943,
      "eburn": 8944,
      "fb": 8945,
      "fly": 8946,
      "fab": 8947,
      "fear": 8948,
      "fate": 8949,
      "fight": 8950,
      "fitted": 8951,
      "gs": 8952,
      "gt": 8953,
      "gag": 8954,
      "gia": 8955,
      "gated": 8956,
      "gatt": 8957,
      "game": 8958,
      "gather": 8959,
      "ht": 8960,
      "hac": 8961,
      "hak": 8962,
      "hiv": 8963,
      "hass": 8964,
      "istr": 8965,
      "iries": 8966,
      "jers": 8967,
      "k3": 8968,
      "kod": 8969,
      "kib": 8970,
      "keral": 8971,
      "knife": 8972,
      "lf": 8973,
      "lon": 8974,
      "lager": 8975,
      "mur": 8976,
      "mam": 8977,
      "mong": 8978,
      "mla": 8979,
      "mcar": 8980,
      "mta": 8981,
      "mclean": 8982,
      "mplas": 8983,
      "mfg": 8984,
      "nl": 8985,
      "nin": 8986,
      "nel": 8987,
      "nis": 8988,
      "nap": 8989,
      "ngu": 8990,
      "native": 8991,
      "nda": 8992,
      "nile": 8993,
      "niss": 8994,
      "nhiv": 8995,
      "oa": 8996,
      "oft": 8997,
      "oats": 8998,
      "other": 8999,
      "olives": 9000,
      "ohama": 9001,
      "p1": 9002,
      "pip": 9003,
      "p20": 9004,
      "p18": 9005,
      "pages": 9006,
      "p17": 9007,
      "p30": 9008,
      "pending": 9009,
      "rn": 9010,
      "rø": 9011,
      "rig": 9012,
      "rage": 9013,
      "rings": 9014,
      "rachel": 9015,
      "sad": 9016,
      "sle": 9017,
      "sports": 9018,
      "sail": 9019,
      "sory": 9020,
      "stim": 9021,
      "scr": 9022,
      "sensi": 9023,
      "sake": 9024,
      "schem": 9025,
      "tant": 9026,
      "tory": 9027,
      "tvers": 9028,
      "tmr": 9029,
      "twin": 9030,
      "twent": 9031,
      "ube": 9032,
      "uya": 9033,
      "vn": 9034,
      "von": 9035,
      "vot": 9036,
      "vies": 9037,
      "vans": 9038,
      "wg": 9039,
      "wing": 9040,
      "wage": 9041,
      "wins": 9042,
      "wants": 9043,
      "xic": 9044,
      "yl": 9045,
      "yanti": 9046,
      "zim": 9047,
      "zak": 9048,
      "zania": 9049,
      "épce": 9050,
      "éphanie": 9051,
      "osco": 9052,
      "osis": 9053,
      "incanada": 9054,
      "inser": 9055,
      "inability": 9056,
      "inhouse": 9057,
      "infring": 9058,
      "ona": 9059,
      "onic": 9060,
      "oneth": 9061,
      "rem": 9062,
      "resu": 9063,
      "revel": 9064,
      "reproduction": 9065,
      "restruc": 9066,
      "revers": 9067,
      "refu": 9068,
      "remove": 9069,
      "refilling": 9070,
      "revolve": 9071,
      "erie": 9072,
      "escape": 9073,
      "espresso": 9074,
      "tie": 9075,
      "tied": 9076,
      "tians": 9077,
      "orus": 9078,
      "orgen": 9079,
      "alph": 9080,
      "align": 9081,
      "alone": 9082,
      "edi": 9083,
      "edit": 9084,
      "edges": 9085,
      "editions": 9086,
      "ena": 9087,
      "enab": 9088,
      "encomp": 9089,
      "aro": 9090,
      "arago": 9091,
      "artis": 9092,
      "arthur": 9093,
      "stew": 9094,
      "stages": 9095,
      "stout": 9096,
      "stéphanie": 9097,
      "robust": 9098,
      "atnam": 9099,
      "adi": 9100,
      "adult": 9101,
      "adds": 9102,
      "adobe": 9103,
      "cock": 9104,
      "cott": 9105,
      "proli": 9106,
      "probe": 9107,
      "profits": 9108,
      "proof": 9109,
      "proud": 9110,
      "profiles": 9111,
      "limin": 9112,
      "liability": 9113,
      "liby": 9114,
      "eless": 9115,
      "ills": 9116,
      "ases": 9117,
      "ascertain": 9118,
      "astically": 9119,
      "dul": 9120,
      "duration": 9121,
      "duplicate": 9122,
      "acu": 9123,
      "acin": 9124,
      "aced": 9125,
      "eto": 9126,
      "ethi": 9127,
      "enty": 9128,
      "ented": 9129,
      "enters": 9130,
      "oda": 9131,
      "odin": 9132,
      "oded": 9133,
      "itly": 9134,
      "itable": 9135,
      "itania": 9136,
      "unis": 9137,
      "unified": 9138,
      "unload": 9139,
      "unfermented": 9140,
      "iso": 9141,
      "isla": 9142,
      "isari": 9143,
      "istical": 9144,
      "issible": 9145,
      "founding": 9146,
      "sures": 9147,
[...]
