{
  "version": "1.0",
  "truncation": {
    "direction": "Right",
    "max_length": 32,
    "strategy": "LongestFirst",
    "stride": 0
  },
  "padding": {
    "strategy": {
      "Fixed": 32
    },
    "direction": "Right",
    "pad_to_multiple_of": null,
    "pad_id": 0,
    "pad_type_id": 0,
    "pad_token": "<pad>"
  },
  "added_tokens": [
    {
      "id": 0,
      "content": "<pad>",
      "single_word": false,
      "lstrip": false,
      "rstrip": false,
      "normalized": false,
      "special": true
    },
    {
      "id": 1,
      "content": "<sos>",
      "single_word": false,
      "lstrip": false,
      "rstrip": false,
      "normalized": false,
      "special": true
    },
    {
      "id": 2,
      "content": "<eos>",
      "single_word": false,
      "lstrip": false,
      "rstrip": false,
      "normalized": false,
      "special": true
    },
    {
      "id": 3,
      "content": "<unk>",
      "single_word": false,
      "lstrip": false,
      "rstrip": false,
      "normalized": false,
      "special": true
    }
  ],
  "normalizer": null,
  "pre_tokenizer": {
    "type": "Whitespace"
  },
  "post_processor": null,
  "decoder": {
    "type": "BPEDecoder",
    "suffix": "</w>"
  },
  "model": {
    "type": "BPE",
    "dropout": null,
    "unk_token": "<unk>",
    "continuing_subword_prefix": null,
    "end_of_word_suffix": null,
    "fuse_unk": false,
    "byte_fallback": false,
    "ignore_merges": false,
    "vocab": {
      "<pad>": 0,
      "<sos>": 1,
      "<eos>": 2,
      "<unk>": 3,
      "0": 4,
      "1": 5,
      "2": 6,
      "3": 7,
      "4": 8,
      "5": 9,
      "6": 10,
      "7": 11,
      "8": 12,
      "9": 13,
      "<": 14,
      ">": 15,
      "a": 16,
      "b": 17,
      "c": 18,
      "d": 19,
      "e": 20,
      "f": 21,
      "g": 22,
      "h": 23,
      "i": 24,
      "j": 25,
      "k": 26,
      "l": 27,
      "m": 28,
      "n": 29,
      "o": 30,
      "p": 31,
      "q": 32,
      "r": 33,
      "s": 34,
      "t": 35,
      "u": 36,
      "v": 37,
      "w": 38,
      "x": 39,
      "y": 40,
      "z": 41,
      "": 42,
      "": 43,
      "": 44,
      "¥": 45,
      "©": 46,
      "«": 47,
      "­": 48,
      "®": 49,
      "°": 50,
      "²": 51,
      "µ": 52,
      "·": 53,
      "º": 54,
      "»": 55,
      "×": 56,
      "à": 57,
      "á": 58,
      "â": 59,
      "ã": 60,
      "ä": 61,
      "ç": 62,
      "è": 63,
      "é": 64,
      "ê": 65,
      "ë": 66,
      "í": 67,
      "î": 68,
      "ï": 69,
      "ñ": 70,
      "ò": 71,
      "ó": 72,
      "ô": 73,
      "ö": 74,
      "ø": 75,
      "ù": 76,
      "û": 77,
      "ü": 78,
      "œ": 79,
      "γ": 80,
      "–": 81,
      "—": 82,
      "―": 83,
      "‘": 84,
      "’": 85,
      "•": 86,
      "‣": 87,
      "…": 88,
      "€": 89,
      "™": 90,
      "⇒": 91,
      "▪": 92,
      "◦": 93,
      "es": 94,
      "en": 95,
      "on": 96,
      "an": 97,
      "ti": 98,
      "so": 99,
      "ent": 100,
      "le": 101,
      "ur": 102,
      "sos": 103,
      "la": 104,
      "er": 105,
      "in": 106,
      "is": 107,
      "re": 108,
      "les": 109,
      "et": 110,
      "qu": 111,
      "pr": 112,
      "it": 113,
      "po": 114,
      "ar": 115,
      "tion": 116,
      "du": 117,
      "au": 118,
      "des": 119,
      "ment": 120,
      "li": 121,
      "te": 122,
      "ch": 123,
      "ta": 124,
      "co": 125,
      "tr": 126,
      "pro": 127,
      "ne": 128,
      "ou": 129,
      "il": 130,
      "ce": 131,
      "se": 132,
      "de": 133,
      "ra": 134,
      "con": 135,
      "que": 136,
      "és": 137,
      "por": 138,
      "ma": 139,
      "or": 140,
      "ant": 141,
      "di": 142,
      "lu": 143,
      "00": 144,
      "ie": 145,
      "par": 146,
      "res": 147,
      "produ": 148,
      "ont": 149,
      "pa": 150,
      "dé": 151,
      "ans": 152,
      "ci": 153,
      "ai": 154,
      "ation": 155,
      "té": 156,
      "its": 157,
      "com": 158,
      "ré": 159,
      "al": 160,
      "me": 161,
      "pour": 162,
      "si": 163,
      "est": 164,
      "urs": 165,
      "aux": 166,
      "ve": 167,
      "da": 168,
      "ri": 169,
      "mar": 170,
      "im": 171,
      "ex": 172,
      "can": 173,
      "produits": 174,
      "ca": 175,
      "pe": 176,
      "lo": 177,
      "200": 178,
      "porta": 179,
      "cana": 180,
      "su": 181,
      "ro": 182,
      "plu": 183,
      "ali": 184,
      "une": 185,
      "ag": 186,
      "vi": 187,
      "dans": 188,
      "tions": 189,
      "sur": 190,
      "plus": 191,
      "ons": 192,
      "ces": 193,
      "lé": 194,
      "né": 195,
      "aliment": 196,
      "qui": 197,
      "tre": 198,
      "ac": 199,
      "to": 200,
      "do": 201,
      "ter": 202,
      "march": 203,
      "fi": 204,
      "mo": 205,
      "el": 206,
      "mi": 207,
      "ver": 208,
      "str": 209,
      "sont": 210,
      "cu": 211,
      "ale": 212,
      "mil": 213,
      "no": 214,
      "ser": 215,
      "port": 216,
      "ins": 217,
      "ab": 218,
      "ni": 219,
      "ques": 220,
      "mes": 221,
      "for": 222,
      "ité": 223,
      "milli": 224,
      "ère": 225,
      "ure": 226,
      "ge": 227,
      "mb": 228,
      "entre": 229,
      "canada": 230,
      "mé": 231,
      "ts": 232,
      "sa": 233,
      "ine": 234,
      "us": 235,
      "iss": 236,
      "portations": 237,
      "mer": 238,
      "ff": 239,
      "per": 240,
      "ph": 241,
      "teurs": 242,
      "aires": 243,
      "vent": 244,
      "ten": 245,
      "as": 246,
      "pu": 247,
      "ance": 248,
      "vo": 249,
      "ys": 250,
      "ap": 251,
      "19": 252,
      "pé": 253,
      "ande": 254,
      "ments": 255,
      "ang": 256,
      "tu": 257,
      "tes": 258,
      "ens": 259,
      "aire": 260,
      "ir": 261,
      "éta": 262,
      "marché": 263,
      "at": 264,
      "dis": 265,
      "tou": 266,
      "teur": 267,
      "fo": 268,
      "nes": 269,
      "gr": 270,
      "min": 271,
      "fa": 272,
      "pas": 273,
      "ction": 274,
      "ven": 275,
      "bi": 276,
      "gi": 277,
      "canadi": 278,
      "ants": 279,
      "lis": 280,
      "som": 281,
      "pays": 282,
      "commer": 283,
      "ux": 284,
      "gé": 285,
      "ès": 286,
      "millions": 287,
      "consom": 288,
      "lement": 289,
      "ib": 290,
      "pris": 291,
      "ines": 292,
      "ée": 293,
      "cer": 294,
      "prés": 295,
      "va": 296,
      "tres": 297,
      "lar": 298,
      "ig": 299,
      "nou": 300,
      "consomma": 301,
      "ire": 302,
      "ds": 303,
      "import": 304,
      "cro": 305,
      "pré": 306,
      "che": 307,
      "tra": 308,
      "été": 309,
      "sé": 310,
      "parti": 311,
      "ave": 312,
      "nation": 313,
      "alimentaires": 314,
      "ette": 315,
      "gu": 316,
      "fr": 317,
      "avec": 318,
      "na": 319,
      "nu": 320,
      "pri": 321,
      "mp": 322,
      "aliments": 323,
      "inter": 324,
      "présent": 325,
      "don": 326,
      "sec": 327,
      "son": 328,
      "mon": 329,
      "vis": 330,
      "ille": 331,
      "importations": 332,
      "trans": 333,
      "inci": 334,
      "ob": 335,
      "ite": 336,
      "gra": 337,
      "lin": 338,
      "ées": 339,
      "peu": 340,
      "vers": 341,
      "lle": 342,
      "lan": 343,
      "agri": 344,
      "entrepris": 345,
      "bo": 346,
      "rie": 347,
      "nis": 348,
      "ren": 349,
      "vale": 350,
      "autres": 351,
      "exportations": 352,
      "ga": 353,
      "ture": 354,
      "princi": 355,
      "mis": 356,
      "être": 357,
      "th": 358,
      "valeur": 359,
      "dol": 360,
      "mbre": 361,
      "lon": 362,
      "dollar": 363,
      "cul": 364,
      "ères": 365,
      "cette": 366,
      "rap": 367,
      "elle": 368,
      "ers": 369,
      "cé": 370,
      "enne": 371,
      "dollars": 372,
      "dustr": 373,
      "end": 374,
      "der": 375,
      "nées": 376,
      "comme": 377,
      "ble": 378,
      "car": 379,
      "gment": 380,
      "ba": 381,
      "sse": 382,
      "man": 383,
      "ssi": 384,
      "tique": 385,
      "portation": 386,
      "cou": 387,
      "199": 388,
      "ves": 389,
      "phi": 390,
      "trib": 391,
      "age": 392,
      "jap": 393,
      "eu": 394,
      "cor": 395,
      "tribu": 396,
      "leur": 397,
      "pp": 398,
      "rais": 399,
      "fin": 400,
      "cha": 401,
      "ses": 402,
      "jo": 403,
      "commerci": 404,
      "régi": 405,
      "ari": 406,
      "000": 407,
      "japon": 408,
      "marchés": 409,
      "cent": 410,
      "pre": 411,
      "cher": 412,
      "augment": 413,
      "nouve": 414,
      "uti": 415,
      "om": 416,
      "forma": 417,
      "dre": 418,
      "secteur": 419,
      "10": 420,
      "ient": 421,
      "nement": 422,
      "croiss": 423,
      "ls": 424,
      "isra": 425,
      "dustrie": 426,
      "nor": 427,
      "cation": 428,
      "vé": 429,
      "ales": 430,
      "mu": 431,
      "ouver": 432,
      "bio": 433,
      "bli": 434,
      "ennes": 435,
      "moy": 436,
      "sant": 437,
      "production": 438,
      "enti": 439,
      "ois": 440,
      "ence": 441,
      "entreprises": 442,
      "près": 443,
      "tota": 444,
      "be": 445,
      "commerce": 446,
      "2004": 447,
      "mati": 448,
      "met": 449,
      "leurs": 450,
      "produit": 451,
      "prix": 452,
      "br": 453,
      "lation": 454,
      "dép": 455,
      "sion": 456,
      "four": 457,
      "premi": 458,
      "comp": 459,
      "tech": 460,
      "servi": 461,
      "gran": 462,
      "hu": 463,
      "ton": 464,
      "gan": 465,
      "ités": 466,
      "stron": 467,
      "géné": 468,
      "agro": 469,
      "av": 470,
      "mais": 471,
      "milliar": 472,
      "ron": 473,
      "croissance": 474,
      "dire": 475,
      "écon": 476,
      "ils": 477,
      "ies": 478,
      "nombre": 479,
      "lles": 480,
      "oc": 481,
      "rent": 482,
      "cad": 483,
      "ème": 484,
      "ante": 485,
      "ég": 486,
      "représent": 487,
      "un": 488,
      "2005": 489,
      "deux": 490,
      "ist": 491,
      "agrico": 492,
      "consommation": 493,
      "phili": 494,
      "popu": 495,
      "fru": 496,
      "sti": 497,
      "alis": 498,
      "née": 499,
      "canadiens": 500,
      "ion": 501,
      "soci": 502,
      "sou": 503,
      "philipp": 504,
      "ffi": 505,
      "éle": 506,
      "pos": 507,
      "chine": 508,
      "non": 509,
      "ue": 510,
      "ures": 511,
      "formation": 512,
      "fé": 513,
      "principa": 514,
      "mande": 515,
      "utilis": 516,
      "sour": 517,
      "consommateurs": 518,
      "velo": 519,
      "alimentaire": 520,
      "déta": 521,
      "ais": 522,
      "organ": 523,
      "fait": 524,
      "cr": 525,
      "men": 526,
      "dent": 527,
      "distribu": 528,
      "dou": 529,
      "sta": 530,
      "mag": 531,
      "gie": 532,
      "vra": 533,
      "20": 534,
      "hab": 535,
      "ration": 536,
      "culture": 537,
      "demande": 538,
      "omi": 539,
      "étr": 540,
      "puis": 541,
      "velop": 542,
      "rapport": 543,
      "tive": 544,
      "ors": 545,
      "voir": 546,
      "tant": 547,
      "ing": 548,
      "fs": 549,
      "région": 550,
      "uni": 551,
      "inté": 552,
      "mê": 553,
      "années": 554,
      "tout": 555,
      "dun": 556,
      "rés": 557,
      "15": 558,
      "ivent": 559,
      "alement": 560,
      "ide": 561,
      "2003": 562,
      "habit": 563,
      "ires": 564,
      "milliards": 565,
      "amé": 566,
      "fon": 567,
      "lim": 568,
      "fruits": 569,
      "envi": 570,
      "sh": 571,
      "dévelop": 572,
      "pec": 573,
      "ations": 574,
      "portateurs": 575,
      "13": 576,
      "ner": 577,
      "environ": 578,
      "eur": 579,
      "pes": 580,
      "gis": 581,
      "18": 582,
      "fab": 583,
      "logi": 584,
      "canadiennes": 585,
      "internation": 586,
      "importés": 587,
      "gouver": 588,
      "étrang": 589,
      "insi": 590,
      "pou": 591,
      "ong": 592,
      "astron": 593,
      "techno": 594,
      "nent": 595,
      "marque": 596,
      "impor": 597,
      "exp": 598,
      "ainsi": 599,
      "ha": 600,
      "alité": 601,
      "tés": 602,
      "2001": 603,
      "stru": 604,
      "organis": 605,
      "même": 606,
      "lex": 607,
      "omie": 608,
      "doivent": 609,
      "fabri": 610,
      "emp": 611,
      "serva": 612,
      "pon": 613,
      "2000": 614,
      "pla": 615,
      "super": 616,
      "cep": 617,
      "sui": 618,
      "bien": 619,
      "dont": 620,
      "tri": 621,
      "aut": 622,
      "issons": 623,
      "rée": 624,
      "tiv": 625,
      "selon": 626,
      "viande": 627,
      "off": 628,
      "cour": 629,
      "aient": 630,
      "peut": 631,
      "aussi": 632,
      "chi": 633,
      "bon": 634,
      "direc": 635,
      "également": 636,
      "fois": 637,
      "cla": 638,
      "détail": 639,
      "cur": 640,
      "jet": 641,
      "certa": 642,
      "bou": 643,
      "toire": 644,
      "état": 645,
      "foo": 646,
      "jus": 647,
      "tifi": 648,
      "int": 649,
      "dune": 650,
      "population": 651,
      "gouvernement": 652,
      "pement": 653,
      "volu": 654,
      "indi": 655,
      "12": 656,
      "ël": 657,
      "go": 658,
      "nous": 659,
      "ad": 660,
      "mmes": 661,
      "santé": 662,
      "bles": 663,
      "publi": 664,
      "2002": 665,
      "moins": 666,
      "très": 667,
      "cherche": 668,
      "généra": 669,
      "anti": 670,
      "sin": 671,
      "ches": 672,
      "antes": 673,
      "mme": 674,
      "ents": 675,
      "taux": 676,
      "grande": 677,
      "lindustrie": 678,
      "devra": 679,
      "philippines": 680,
      "faire": 681,
      "enre": 682,
      "toute": 683,
      "dro": 684,
      "tiques": 685,
      "bu": 686,
      "andis": 687,
      "2006": 688,
      "ventes": 689,
      "pi": 690,
      "paux": 691,
      "tiqu": 692,
      "économi": 693,
      "lè": 694,
      "posi": 695,
      "partie": 696,
      "cie": 697,
      "eff": 698,
      "gro": 699,
      "soit": 700,
      "légu": 701,
      "ct": 702,
      "iti": 703,
      "tro": 704,
      "certifi": 705,
      "16": 706,
      "spé": 707,
      "principaux": 708,
      "50": 709,
      "sit": 710,
      "lande": 711,
      "qualité": 712,
      "cours": 713,
      "14": 714,
      "développement": 715,
      "frais": 716,
      "rela": 717,
      "elles": 718,
      "mment": 719,
      "moyenne": 720,
      "augmenté": 721,
      "ul": 722,
      "suiv": 723,
      "télé": 724,
      "peti": 725,
      "derni": 726,
      "hui": 727,
      "lac": 728,
      "proven": 729,
      "depuis": 730,
      "sunis": 731,
      "spéci": 732,
      "année": 733,
      "ellement": 734,
      "anta": 735,
      "minu": 736,
      "enregis": 737,
      "sous": 738,
      "mage": 739,
      "étatsunis": 740,
      "doit": 741,
      "tonnes": 742,
      "dition": 743,
      "services": 744,
      "ju": 745,
      "tous": 746,
      "tis": 747,
      "lais": 748,
      "tent": 749,
      "ges": 750,
      "toi": 751,
      "orig": 752,
      "israël": 753,
      "agroalimentaires": 754,
      "rer": 755,
      "lob": 756,
      "st": 757,
      "pres": 758,
      "lumi": 759,
      "endant": 760,
      "agricoles": 761,
      "singa": 762,
      "inde": 763,
      "éch": 764,
      "chin": 765,
      "tour": 766,
      "hau": 767,
      "cré": 768,
      "ec": 769,
      "fer": 770,
      "jou": 771,
      "taur": 772,
      "conti": 773,
      "actu": 774,
      "entreprise": 775,
      "pâ": 776,
      "fra": 777,
      "viet": 778,
      "particu": 779,
      "lumière": 780,
      "din": 781,
      "singapour": 782,
      "tement": 783,
      "péri": 784,
      "matière": 785,
      "ait": 786,
      "fac": 787,
      "monde": 788,
      "annu": 789,
      "médi": 790,
      "mbal": 791,
      "boissons": 792,
      "vietna": 793,
      "col": 794,
      "logie": 795,
      "restaur": 796,
      "nements": 797,
      "lui": 798,
      "produc": 799,
      "peuvent": 800,
      "23": 801,
      "cin": 802,
      "èg": 803,
      "industrie": 804,
      "exportateurs": 805,
      "èrement": 806,
      "ach": 807,
      "ences": 808,
      "règ": 809,
      "vari": 810,
      "qué": 811,
      "raison": 812,
      "strali": 813,
      "nom": 814,
      "17": 815,
      "net": 816,
      "dali": 817,
      "dex": 818,
      "able": 819,
      "vesti": 820,
      "éli": 821,
      "ous": 822,
      "he": 823,
      "suc": 824,
      "esti": 825,
      "isse": 826,
      "riel": 827,
      "lesco": 828,
      "diminu": 829,
      "servatoire": 830,
      "bre": 831,
      "ck": 832,
      "ja": 833,
      "use": 834,
      "prob": 835,
      "télesco": 836,
      "portateur": 837,
      "prépar": 838,
      "semb": 839,
      "chinois": 840,
      "étoi": 841,
      "uses": 842,
      "lent": 843,
      "autre": 844,
      "fournis": 845,
      "las": 846,
      "grou": 847,
      "japonais": 848,
      "douan": 849,
      "particuli": 850,
      "ennent": 851,
      "ange": 852,
      "tives": 853,
      "quel": 854,
      "jour": 855,
      "où": 856,
      "recherche": 857,
      "consi": 858,
      "30": 859,
      "tin": 860,
      "rapide": 861,
      "importé": 862,
      "atte": 863,
      "base": 864,
      "astrono": 865,
      "transfor": 866,
      "situ": 867,
      "cal": 868,
      "let": 869,
      "concur": 870,
      "phy": 871,
      "tend": 872,
      "table": 873,
      "prof": 874,
      "isson": 875,
      "person": 876,
      "aï": 877,
      "os": 878,
      "seig": 879,
      "améri": 880,
      "clu": 881,
      "dépens": 882,
      "premier": 883,
      "technologie": 884,
      "jours": 885,
      "gor": 886,
      "vin": 887,
      "coo": 888,
      "volume": 889,
      "food": 890,
      "ode": 891,
      "plan": 892,
      "sud": 893,
      "magas": 894,
      "ique": 895,
      "trou": 896,
      "rieur": 897,
      "prend": 898,
      "ard": 899,
      "contr": 900,
      "mondi": 901,
      "chaî": 902,
      "diff": 903,
      "moyen": 904,
      "25": 905,
      "dautres": 906,
      "reven": 907,
      "dim": 908,
      "ty": 909,
      "titu": 910,
      "lée": 911,
      "après": 912,
      "çon": 913,
      "60": 914,
      "mè": 915,
      "grand": 916,
      "sources": 917,
      "main": 918,
      "appro": 919,
      "source": 920,
      "11": 921,
      "sys": 922,
      "vre": 923,
      "anger": 924,
      "était": 925,
      "vision": 926,
      "origine": 927,
      "arab": 928,
      "mal": 929,
      "tenir": 930,
      "cli": 931,
      "ise": 932,
      "alors": 933,
      "israéli": 934,
      "permis": 935,
      "cas": 936,
      "activ": 937,
      "agroalimentaire": 938,
      "stitu": 939,
      "vestisse": 940,
      "trois": 941,
      "marchandis": 942,
      "vente": 943,
      "distribution": 944,
      "arti": 945,
      "ître": 946,
      "tur": 947,
      "cho": 948,
      "marques": 949,
      "lés": 950,
      "thaï": 951,
      "100": 952,
      "més": 953,
      "australi": 954,
      "nouvelle": 955,
      "fournisse": 956,
      "afin": 957,
      "chés": 958,
      "conna": 959,
      "pâtes": 960,
      "cès": 961,
      "exig": 962,
      "données": 963,
      "biologi": 964,
      "ban": 965,
      "gri": 966,
      "tée": 967,
      "agricole": 968,
      "24": 969,
      "caté": 970,
      "minist": 971,
      "bil": 972,
      "blis": 973,
      "laire": 974,
      "ieurs": 975,
      "élev": 976,
      "légumes": 977,
      "vietnam": 978,
      "coû": 979,
      "permet": 980,
      "dépenses": 981,
      "char": 982,
      "minis": 983,
      "avant": 984,
      "tivement": 985,
      "fai": 986,
      "mont": 987,
      "coup": 988,
      "habitant": 989,
      "syst": 990,
      "tifs": 991,
      "seu": 992,
      "télescope": 993,
      "transformation": 994,
      "luni": 995,
      "renseig": 996,
      "catégor": 997,
      "étés": 998,
      "quil": 999,
      "plusieurs": 1000,
      "semble": 1001,
      "cité": 1002,
      "conta": 1003,
      "national": 1004,
      "70": 1005,
      "accor": 1006,
      "forme": 1007,
      "américa": 1008,
      "économique": 1009,
      "pib": 1010,
      "constitu": 1011,
      "tél": 1012,
      "fique": 1013,
      "devrait": 1014,
      "ministère": 1015,
      "daliments": 1016,
      "core": 1017,
      "étu": 1018,
      "pommes": 1019,
      "serv": 1020,
      "mps": 1021,
      "ris": 1022,
      "vous": 1023,
      "tel": 1024,
      "venir": 1025,
      "tiquet": 1026,
      "période": 1027,
      "astronomes": 1028,
      "diffé": 1029,
      "marchandises": 1030,
      "sau": 1031,
      "poli": 1032,
      "déc": 1033,
      "lég": 1034,
      "aff": 1035,
      "possi": 1036,
      "part": 1037,
      "couver": 1038,
      "nat": 1039,
      "wan": 1040,
      "agriculture": 1041,
      "renseignements": 1042,
      "encore": 1043,
      "ances": 1044,
      "rence": 1045,
      "service": 1046,
      "position": 1047,
      "blé": 1048,
      "bas": 1049,
      "poisson": 1050,
      "tels": 1051,
      "exemp": 1052,
      "fabric": 1053,
      "magasins": 1054,
      "rou": 1055,
      "sus": 1056,
      "rit": 1057,
      "normes": 1058,
      "total": 1059,
      "beau": 1060,
      "étoiles": 1061,
      "lors": 1062,
      "porc": 1063,
      "économie": 1064,
      "provenance": 1065,
      "hausse": 1066,
      "den": 1067,
      "sans": 1068,
      "tenant": 1069,
      "important": 1070,
      "compte": 1071,
      "bure": 1072,
      "san": 1073,
      "ôle": 1074,
      "lal": 1075,
      "supermarchés": 1076,
      "cinq": 1077,
      "pag": 1078,
      "occu": 1079,
      "toutefois": 1080,
      "cca": 1081,
      "dés": 1082,
      "ho": 1083,
      "tif": 1084,
      "iser": 1085,
      "qua": 1086,
      "malais": 1087,
      "sig": 1088,
      "sul": 1089,
      "pli": 1090,
      "temps": 1091,
      "international": 1092,
      "physi": 1093,
      "thaïlande": 1094,
      "we": 1095,
      "anim": 1096,
      "ites": 1097,
      "canadien": 1098,
      "nord": 1099,
      "droits": 1100,
      "considé": 1101,
      "gar": 1102,
      "ième": 1103,
      "graphi": 1104,
      "chiff": 1105,
      "animaux": 1106,
      "site": 1107,
      "blisse": 1108,
      "hong": 1109,
      "spec": 1110,
      "maj": 1111,
      "établi": 1112,
      "toutes": 1113,
      "fri": 1114,
      "mark": 1115,
      "terres": 1116,
      "40": 1117,
      "sci": 1118,
      "lab": 1119,
      "quer": 1120,
      "paci": 1121,
      "docu": 1122,
      "els": 1123,
      "fran": 1124,
      "beaucoup": 1125,
      "resse": 1126,
      "rées": 1127,
      "pourra": 1128,
      "transformés": 1129,
      "hy": 1130,
      "investisse": 1131,
      "fication": 1132,
      "canadienne": 1133,
      "ay": 1134,
      "lau": 1135,
      "connu": 1136,
      "néces": 1137,
      "versité": 1138,
      "régions": 1139,
      "effet": 1140,
      "embal": 1141,
      "exportation": 1142,
      "vient": 1143,
      "gros": 1144,
      "continu": 1145,
      "ajou": 1146,
      "loi": 1147,
      "sub": 1148,
      "fourni": 1149,
      "certains": 1150,
      "enregistr": 1151,
      "90": 1152,
      "tableau": 1153,
      "cle": 1154,
      "illes": 1155,
      "principales": 1156,
      "certifica": 1157,
      "80": 1158,
      "desti": 1159,
      "conf": 1160,
      "débou": 1161,
      "tenu": 1162,
      "euro": 1163,
      "lobservatoire": 1164,
      "dit": 1165,
      "tor": 1166,
      "sor": 1167,
      "porter": 1168,
      "activités": 1169,
      "centre": 1170,
      "……": 1171,
      "dap": 1172,
      "étant": 1173,
      "lat": 1174,
      "itaire": 1175,
      "promo": 1176,
      "terre": 1177,
      "représente": 1178,
      "courriel": 1179,
      "système": 1180,
      "97": 1181,
      "kong": 1182,
      "lev": 1183,
      "million": 1184,
      "22": 1185,
      "fu": 1186,
      "pl": 1187,
      "équi": 1188,
      "ral": 1189,
      "loca": 1190,
      "transport": 1191,
      "dernières": 1192,
      "çu": 1193,
      "rég": 1194,
      "associ": 1195,
      "ditionne": 1196,
      "exigences": 1197,
      "biologiques": 1198,
      "bé": 1199,
      "mine": 1200,
      "vie": 1201,
      "progra": 1202,
      "celui": 1203,
      "autor": 1204,
      "ber": 1205,
      "mise": 1206,
      "étrangers": 1207,
      "malaisie": 1208,
      "débouchés": 1209,
      "promotion": 1210,
      "cest": 1211,
      "lit": 1212,
      "ansion": 1213,
      "valu": 1214,
      "donés": 1215,
      "halal": 1216,
      "revenu": 1217,
      "35": 1218,
      "bes": 1219,
      "eng": 1220,
      "projet": 1221,
      "concer": 1222,
      "mesure": 1223,
      "bureau": 1224,
      "quent": 1225,
      "conse": 1226,
      "commerciaux": 1227,
      "nés": 1228,
      "lad": 1229,
      "deme": 1230,
      "riz": 1231,
      "explo": 1232,
      "26": 1233,
      "dur": 1234,
      "dar": 1235,
      "image": 1236,
      "iste": 1237,
      "général": 1238,
      "griculture": 1239,
      "mou": 1240,
      "quanti": 1241,
      "radi": 1242,
      "maté": 1243,
      "nota": 1244,
      "trava": 1245,
      "gcca": 1246,
      "lage": 1247,
      "industr": 1248,
      "lig": 1249,
      "ceux": 1250,
      "rédu": 1251,
      "nique": 1252,
      "istan": 1253,
      "struc": 1254,
      "fournisseurs": 1255,
      "han": 1256,
      "rant": 1257,
      "um": 1258,
      "ensemble": 1259,
      "prê": 1260,
      "commu": 1261,
      "grands": 1262,
      "antage": 1263,
      "fe": 1264,
      "réalis": 1265,
      "ages": 1266,
      "asie": 1267,
      "nouveaux": 1268,
      "zé": 1269,
      "tal": 1270,
      "plupart": 1271,
      "étaient": 1272,
      "façon": 1273,
      "chaque": 1274,
      "cependant": 1275,
      "pons": 1276,
      "maine": 1277,
      "loc": 1278,
      "pho": 1279,
      "totale": 1280,
      "effec": 1281,
      "règle": 1282,
      "internet": 1283,
      "organismes": 1284,
      "tm": 1285,
      "information": 1286,
      "pra": 1287,
      "point": 1288,
      "passant": 1289,
      "secteurs": 1290,
      "totalis": 1291,
      "principalement": 1292,
      "diminué": 1293,
      "termin": 1294,
      "modi": 1295,
      "biotechnologie": 1296,
      "jusqu": 1297,
      "actuellement": 1298,
      "achet": 1299,
      "nécess": 1300,
      "hai": 1301,
      "iques": 1302,
      "lieu": 1303,
      "rédi": 1304,
      "sais": 1305,
      "1999": 1306,
      "restaurants": 1307,
      "eurs": 1308,
      "lagriculture": 1309,
      "liv": 1310,
      "cel": 1311,
      "condi": 1312,
      "sera": 1313,
      "passé": 1314,
      "améli": 1315,
      "eux": 1316,
      "ler": 1317,
      "capa": 1318,
      "donc": 1319,
      "grandes": 1320,
      "différent": 1321,
      "exemple": 1322,
      "mentation": 1323,
      "cons": 1324,
      "forte": 1325,
      "toujours": 1326,
      "mul": 1327,
      "huile": 1328,
      "type": 1329,
      "27": 1330,
      "nationale": 1331,
      "première": 1332,
      "annuelle": 1333,
      "mie": 1334,
      "lait": 1335,
      "nive": 1336,
      "commercialis": 1337,
      "société": 1338,
      "shang": 1339,
      "beso": 1340,
      "29": 1341,
      "ka": 1342,
      "nombreux": 1343,
      "rapidement": 1344,
      "notamment": 1345,
      "63": 1346,
      "65": 1347,
      "xe": 1348,
      "anne": 1349,
      "établisse": 1350,
      "céré": 1351,
      "place": 1352,
      "28": 1353,
      "change": 1354,
      "commercial": 1355,
      "dimportation": 1356,
      "one": 1357,
      "indonés": 1358,
      "ilité": 1359,
      "respons": 1360,
      "sia": 1361,
      "intéres": 1362,
      "avoir": 1363,
      "font": 1364,
      "sal": 1365,
      "élé": 1366,
      "ïwan": 1367,
      "lations": 1368,
      "taïwan": 1369,
      "viv": 1370,
      "carac": 1371,
      "univers": 1372,
      "fonction": 1373,
      "vit": 1374,
      "ani": 1375,
      "confor": 1376,
      "roy": 1377,
      "lées": 1378,
      "ables": 1379,
      "197": 1380,
      "enregistre": 1381,
      "hi": 1382,
      "nest": 1383,
      "pendant": 1384,
      "déj": 1385,
      "pection": 1386,
      "mois": 1387,
      "usines": 1388,
      "nouveau": 1389,
      "emplo": 1390,
      "chaînes": 1391,
      "certificat": 1392,
      "cet": 1393,
      "pit": 1394,
      "vue": 1395,
      "lap": 1396,
      "quo": 1397,
      "importateurs": 1398,
      "inspection": 1399,
      "croître": 1400,
      "augmentation": 1401,
      "stati": 1402,
      "kil": 1403,
      "para": 1404,
      "sions": 1405,
      "mani": 1406,
      "matières": 1407,
      "ici": 1408,
      "ène": 1409,
      "laires": 1410,
      "celle": 1411,
      "quelle": 1412,
      "rir": 1413,
      "australie": 1414,
      "44": 1415,
      "ru": 1416,
      "tari": 1417,
      "répon": 1418,
      "suite": 1419,
      "toires": 1420,
      "stra": 1421,
      "mén": 1422,
      "issent": 1423,
      "élevé": 1424,
      "certification": 1425,
      "seulement": 1426,
      "pie": 1427,
      "era": 1428,
      "souvent": 1429,
      "élec": 1430,
      "producteurs": 1431,
      "douane": 1432,
      "effectu": 1433,
      "statisti": 1434,
      "cs": 1435,
      "lentreprise": 1436,
      "unis": 1437,
      "émi": 1438,
      "anci": 1439,
      "respec": 1440,
      "198": 1441,
      "corpo": 1442,
      "limportation": 1443,
      "technologi": 1444,
      "structure": 1445,
      "locaux": 1446,
      "ix": 1447,
      "nant": 1448,
      "parten": 1449,
      "importation": 1450,
      "téléc": 1451,
      "55": 1452,
      "cri": 1453,
      "auprès": 1454,
      "rats": 1455,
      "fabrication": 1456,
      "concurrence": 1457,
      "21": 1458,
      "lor": 1459,
      "senti": 1460,
      "parmi": 1461,
      "dispon": 1462,
      "importante": 1463,
      "ingrédi": 1464,
      "offre": 1465,
      "heure": 1466,
      "affaires": 1467,
      "physique": 1468,
      "disponib": 1469,
      "ville": 1470,
      "œu": 1471,
      "provin": 1472,
      "contribu": 1473,
      "diffi": 1474,
      "détermin": 1475,
      "commerciales": 1476,
      "arabes": 1477,
      "règlements": 1478,
      "eau": 1479,
      "flu": 1480,
      "offi": 1481,
      "sè": 1482,
      "ôt": 1483,
      "poin": 1484,
      "tation": 1485,
      "gamme": 1486,
      "long": 1487,
      "certaines": 1488,
      "fabricants": 1489,
      "pacifique": 1490,
      "far": 1491,
      "divers": 1492,
      "stro": 1493,
      "mesures": 1494,
      "traditionne": 1495,
      "enregistrement": 1496,
      "labo": 1497,
      "mbres": 1498,
      "phar": 1499,
      "observa": 1500,
      "bru": 1501,
      "deuxième": 1502,
      "mention": 1503,
      "résul": 1504,
      "relations": 1505,
      "groupe": 1506,
      "luniversité": 1507,
      "48": 1508,
      "cra": 1509,
      "dus": 1510,
      "consé": 1511,
      "surtout": 1512,
      "sociétés": 1513,
      "étrangères": 1514,
      "photo": 1515,
      "céréales": 1516,
      "émirats": 1517,
      "corporation": 1518,
      "33": 1519,
      "je": 1520,
      "tex": 1521,
      "tention": 1522,
      "mondiale": 1523,
      "ayant": 1524,
      "réglement": 1525,
      "shanghai": 1526,
      "613": 1527,
      "cô": 1528,
      "van": 1529,
      "rieure": 1530,
      "pesos": 1531,
      "trouve": 1532,
      "prendre": 1533,
      "zélande": 1534,
      "asia": 1535,
      "nie": 1536,
      "rê": 1537,
      "sest": 1538,
      "indre": 1539,
      "celles": 1540,
      "porté": 1541,
      "1997": 1542,
      "commerciale": 1543,
      "devraient": 1544,
      "américains": 1545,
      "possibil": 1546,
      "natur": 1547,
      "faut": 1548,
      "har": 1549,
      "and": 1550,
      "anal": 1551,
      "institu": 1552,
      "niques": 1553,
      "illeurs": 1554,
      "personne": 1555,
      "mètres": 1556,
      "gel": 1557,
      "ia": 1558,
      "étiquet": 1559,
      "ît": 1560,
      "taille": 1561,
      "instal": 1562,
      "assur": 1563,
      "liste": 1564,
      "atteint": 1565,
      "nouvellezélande": 1566,
      "68": 1567,
      "bar": 1568,
      "itan": 1569,
      "vait": 1570,
      "représentent": 1571,
      "expli": 1572,
      "foods": 1573,
      "spécialis": 1574,
      "faible": 1575,
      "bang": 1576,
      "blan": 1577,
      "cit": 1578,
      "ger": 1579,
      "pte": 1580,
      "fig": 1581,
      "moder": 1582,
      "cuis": 1583,
      "save": 1584,
      "importants": 1585,
      "poulet": 1586,
      "ciel": 1587,
      "ministr": 1588,
      "web": 1589,
      "wa": 1590,
      "isant": 1591,
      "cident": 1592,
      "alcoo": 1593,
      "préc": 1594,
      "expansion": 1595,
      "médica": 1596,
      "établissements": 1597,
      "67": 1598,
      "ions": 1599,
      "évalu": 1600,
      "lali": 1601,
      "pose": 1602,
      "térieur": 1603,
      "rése": 1604,
      "cuits": 1605,
      "thé": 1606,
      "eufs": 1607,
      "mettre": 1608,
      "habitu": 1609,
      "catégorie": 1610,
      "totalisé": 1611,
      "conditions": 1612,
      "ingrédients": 1613,
      "affi": 1614,
      "nd": 1615,
      "débu": 1616,
      "vier": 1617,
      "accès": 1618,
      "serve": 1619,
      "nouvelles": 1620,
      "bec": 1621,
      "britan": 1622,
      "directeur": 1623,
      "québec": 1624,
      "contrôle": 1625,
      "af": 1626,
      "ef": 1627,
      "ko": 1628,
      "op": 1629,
      "tandis": 1630,
      "yer": 1631,
      "essenti": 1632,
      "tient": 1633,
      "laiti": 1634,
      "limage": 1635,
      "tage": 1636,
      "orité": 1637,
      "suff": 1638,
      "partir": 1639,
      "mission": 1640,
      "fraî": 1641,
      "commercialisation": 1642,
      "sen": 1643,
      "tection": 1644,
      "accr": 1645,
      "notre": 1646,
      "appli": 1647,
      "partici": 1648,
      "chats": 1649,
      "milliard": 1650,
      "personnes": 1651,
      "radio": 1652,
      "straté": 1653,
      "gelés": 1654,
      "jan": 1655,
      "vu": 1656,
      "soja": 1657,
      "contre": 1658,
      "dav": 1659,
      "fier": 1660,
      "1998": 1661,
      "brune": 1662,
      "étranger": 1663,
      "ception": 1664,
      "particulièrement": 1665,
      "résulta": 1666,
      "45": 1667,
      "âce": 1668,
      "cos": 1669,
      "trouver": 1670,
      "cession": 1671,
      "perçu": 1672,
      "vola": 1673,
      "grâce": 1674,
      "gues": 1675,
      "linde": 1676,
      "ffica": 1677,
      "aci": 1678,
      "mala": 1679,
      "orer": 1680,
      "reste": 1681,
      "agent": 1682,
      "montr": 1683,
      "carte": 1684,
      "augmenter": 1685,
      "principal": 1686,
      "généralement": 1687,
      "probation": 1688,
      "chaîne": 1689,
      "élevés": 1690,
      "pharma": 1691,
      "75": 1692,
      "bis": 1693,
      "dan": 1694,
      "pê": 1695,
      "za": 1696,
      "respon": 1697,
      "anges": 1698,
      "lisation": 1699,
      "baisse": 1700,
      "choco": 1701,
      "brunei": 1702,
      "43": 1703,
      "busines": 1704,
      "id": 1705,
      "tures": 1706,
      "ût": 1707,
      "urent": 1708,
      "quar": 1709,
      "colo": 1710,
      "compé": 1711,
      "supé": 1712,
      "correspon": 1713,
      "distributeurs": 1714,
      "habitants": 1715,
      "boul": 1716,
      "petits": 1717,
      "israélien": 1718,
      "confiser": 1719,
      "travail": 1720,
      "business": 1721,
      "dor": 1722,
      "èrent": 1723,
      "secon": 1724,
      "export": 1725,
      "café": 1726,
      "2007": 1727,
      "stronomie": 1728,
      "directement": 1729,
      "situation": 1730,
      "contact": 1731,
      "quatre": 1732,
      "programme": 1733,
      "capacité": 1734,
      "éléments": 1735,
      "observatoires": 1736,
      "boulanger": 1737,
      "istes": 1738,
      "dest": 1739,
      "libre": 1740,
      "corée": 1741,
      "proces": 1742,
      "lun": 1743,
      "compag": 1744,
      "domin": 1745,
      "famil": 1746,
      "obtenir": 1747,
      "gaz": 1748,
      "grosse": 1749,
      "petit": 1750,
      "multi": 1751,
      "indonésie": 1752,
      "cles": 1753,
      "cau": 1754,
      "gré": 1755,
      "vet": 1756,
      "ête": 1757,
      "retour": 1758,
      "ray": 1759,
      "air": 1760,
      "membres": 1761,
      "occident": 1762,
      "tiquette": 1763,
      "provenant": 1764,
      "maintenant": 1765,
      "niveau": 1766,
      "volaille": 1767,
      "aperçu": 1768,
      "dite": 1769,
      "lant": 1770,
      "lades": 1771,
      "recher": 1772,
      "poissons": 1773,
      "protection": 1774,
      "outre": 1775,
      "capit": 1776,
      "sujet": 1777,
      "saou": 1778,
      "quelques": 1779,
      "matériel": 1780,
      "gre": 1781,
      "lants": 1782,
      "quant": 1783,
      "aujour": 1784,
      "procé": 1785,
      "ressources": 1786,
      "tunis": 1787,
      "nutri": 1788,
      "poudre": 1789,
      "bonne": 1790,
      "politique": 1791,
      "britannique": 1792,
      "aujourd": 1793,
      "bin": 1794,
      "haut": 1795,
      "ront": 1796,
      "rus": 1797,
      "sto": 1798,
      "instru": 1799,
      "posé": 1800,
      "chim": 1801,
      "porte": 1802,
      "financi": 1803,
      "catégories": 1804,
      "scienti": 1805,
      "documents": 1806,
      "prêts": 1807,
      "janvier": 1808,
      "bor": 1809,
      "ps": 1810,
      "remp": 1811,
      "chu": 1812,
      "consul": 1813,
      "territ": 1814,
      "public": 1815,
      "gestion": 1816,
      "quantité": 1817,
      "effor": 1818,
      "am": 1819,
      "achats": 1820,
      "cts": 1821,
      "mc": 1822,
      "ot": 1823,
      "ple": 1824,
      "sole": 1825,
      "inr": 1826,
      "rable": 1827,
      "concent": 1828,
      "ontari": 1829,
      "nos": 1830,
      "abilité": 1831,
      "présence": 1832,
      "gueur": 1833,
      "observatoire": 1834,
      "restauration": 1835,
      "sucre": 1836,
      "coûts": 1837,
      "légèrement": 1838,
      "europé": 1839,
      "colomb": 1840,
      "99": 1841,
      "ctions": 1842,
      "kistan": 1843,
      "test": 1844,
      "recom": 1845,
      "repas": 1846,
      "propri": 1847,
      "del": 1848,
      "cile": 1849,
      "dac": 1850,
      "alimentation": 1851,
      "mos": 1852,
      "seront": 1853,
      "gala": 1854,
      "tho": 1855,
      "premières": 1856,
      "offer": 1857,
      "possibilités": 1858,
      "davantage": 1859,
      "ontario": 1860,
      "dop": 1861,
      "france": 1862,
      "iller": 1863,
      "volution": 1864,
      "importées": 1865,
      "points": 1866,
      "soleil": 1867,
      "38": 1868,
      "nca": 1869,
      "rang": 1870,
      "sy": 1871,
      "prennent": 1872,
      "copie": 1873,
      "cela": 1874,
      "constru": 1875,
      "die": 1876,
      "léta": 1877,
      "péra": 1878,
      "présente": 1879,
      "agricul": 1880,
      "utilisation": 1881,
      "ao": 1882,
      "ente": 1883,
      "iter": 1884,
      "itaires": 1885,
      "lune": 1886,
      "pements": 1887,
      "fiques": 1888,
      "moment": 1889,
      "mili": 1890,
      "importance": 1891,
      "organisation": 1892,
      "tendance": 1893,
      "titude": 1894,
      "majorité": 1895,
      "médicaments": 1896,
      "xi": 1897,
      "dée": 1898,
      "comm": 1899,
      "traite": 1900,
      "graines": 1901,
      "totales": 1902,
      "graphiques": 1903,
      "emballés": 1904,
      "modifi": 1905,
      "pharmace": 1906,
      "béta": 1907,
      "ji": 1908,
      "vor": 1909,
      "val": 1910,
      "isation": 1911,
      "pol": 1912,
      "cemment": 1913,
      "deman": 1914,
      "orient": 1915,
      "décla": 1916,
      "récemment": 1917,
      "riv": 1918,
      "importateur": 1919,
      "cadre": 1920,
      "domaine": 1921,
      "assa": 1922,
      "visib": 1923,
      "illet": 1924,
      "distributeur": 1925,
      "trodu": 1926,
      "fournir": 1927,
      "lalimentation": 1928,
      "processus": 1929,
      "dorigine": 1930,
      "ity": 1931,
      "pakistan": 1932,
      "déce": 1933,
      "compris": 1934,
      "mod": 1935,
      "voy": 1936,
      "ajoutée": 1937,
      "hô": 1938,
      "new": 1939,
      "illi": 1940,
      "léch": 1941,
      "appe": 1942,
      "gue": 1943,
      "graph": 1944,
      "intérê": 1945,
      "détaillants": 1946,
      "actuelle": 1947,
      "frastructure": 1948,
      "déjà": 1949,
      "ministration": 1950,
      "territo": 1951,
      "46": 1952,
      "cc": 1953,
      "jec": 1954,
      "tôt": 1955,
      "quils": 1956,
      "numé": 1957,
      "donné": 1958,
      "lannée": 1959,
      "manu": 1960,
      "égy": 1961,
      "astronomi": 1962,
      "tivité": 1963,
      "mètre": 1964,
      "conseil": 1965,
      "installations": 1966,
      "39": 1967,
      "aur": 1968,
      "effica": 1969,
      "jeu": 1970,
      "ke": 1971,
      "sent": 1972,
      "tar": 1973,
      "tem": 1974,
      "conge": 1975,
      "agit": 1976,
      "mbassa": 1977,
      "voit": 1978,
      "pération": 1979,
      "famili": 1980,
      "favor": 1981,
      "cédent": 1982,
      "euf": 1983,
      "fédé": 1984,
      "intérieur": 1985,
      "presque": 1986,
      "visionnement": 1987,
      "études": 1988,
      "servation": 1989,
      "investissements": 1990,
      "ménages": 1991,
      "saveur": 1992,
      "bétail": 1993,
      "ry": 1994,
      "sés": 1995,
      "vins": 1996,
      "rab": 1997,
      "diver": 1998,
      "négo": 1999,
      "terme": 2000,
      "possè": 2001,
      "internationale": 2002,
      "économiques": 2003,
      "ferme": 2004,
      "facteurs": 2005,
      "profes": 2006,
      "tiquetage": 2007,
      "industries": 2008,
      "technologies": 2009,
      "afg": 2010,
      "boulangerie": 2011,
      "dra": 2012,
      "plo": 2013,
      "soient": 2014,
      "inclu": 2015,
      "date": 2016,
      "dépanne": 2017,
      "internationaux": 2018,
      "importe": 2019,
      "pourrait": 2020,
      "exploit": 2021,
      "communi": 2022,
      "quoi": 2023,
      "réglementation": 2024,
      "résultats": 2025,
      "cre": 2026,
      "dy": 2027,
      "fro": 2028,
      "gres": 2029,
      "élè": 2030,
      "teaux": 2031,
      "quement": 2032,
      "meille": 2033,
      "atlas": 2034,
      "sécur": 2035,
      "limportateur": 2036,
      "mballage": 2037,
      "market": 2038,
      "effets": 2039,
      "enregistré": 2040,
      "répondre": 2041,
      "décembre": 2042,
      "62": 2043,
      "cune": 2044,
      "dens": 2045,
      "pt": 2046,
      "villes": 2047,
      "épi": 2048,
      "aucune": 2049,
      "neu": 2050,
      "ouest": 2051,
      "section": 2052,
      "conten": 2053,
      "lution": 2054,
      "sudest": 2055,
      "accroître": 2056,
      "dépend": 2057,
      "philippins": 2058,
      "règles": 2059,
      "malgré": 2060,
      "chargé": 2061,
      "destination": 2062,
      "alcoolis": 2063,
      "colombie": 2064,
      "47": 2065,
      "amen": 2066,
      "vant": 2067,
      "vas": 2068,
      "yse": 2069,
      "congelés": 2070,
      "maines": 2071,
      "pati": 2072,
      "déliv": 2073,
      "compos": 2074,
      "attribu": 2075,
      "crème": 2076,
      "annuel": 2077,
      "issement": 2078,
      "atteindre": 2079,
      "clients": 2080,
      "politiques": 2081,
      "…………": 2082,
      "ligne": 2083,
      "efforts": 2084,
      "galax": 2085,
      "pharmaceuti": 2086,
      "mbassade": 2087,
      "31": 2088,
      "bons": 2089,
      "bac": 2090,
      "bat": 2091,
      "gent": 2092,
      "mor": 2093,
      "isé": 2094,
      "conclu": 2095,
      "conserve": 2096,
      "exporté": 2097,
      "mée": 2098,
      "mément": 2099,
      "large": 2100,
      "boeuf": 2101,
      "cultures": 2102,
      "israel": 2103,
      "génétique": 2104,
      "dexportation": 2105,
      "préparés": 2106,
      "59": 2107,
      "ase": 2108,
      "pan": 2109,
      "yo": 2110,
      "àdire": 2111,
      "titre": 2112,
      "leau": 2113,
      "urba": 2114,
      "progres": 2115,
      "nels": 2116,
      "alle": 2117,
      "cue": 2118,
      "géo": 2119,
      "interven": 2120,
      "secs": 2121,
      "vise": 2122,
      "llec": 2123,
      "musul": 2124,
      "premiers": 2125,
      "environnement": 2126,
      "organisme": 2127,
      "adresse": 2128,
      "positions": 2129,
      "variétés": 2130,
      "mondial": 2131,
      "plantes": 2132,
      "nécessaire": 2133,
      "besoins": 2134,
      "correspond": 2135,
      "sécurité": 2136,
      "éco": 2137,
      "urer": 2138,
      "aro": 2139,
      "destin": 2140,
      "cides": 2141,
      "récent": 2142,
      "vement": 2143,
      "issance": 2144,
      "biens": 2145,
      "importantes": 2146,
      "suivants": 2147,
      "étiquettes": 2148,
      "réseau": 2149,
      "biscuits": 2150,
      "chocolat": 2151,
      "tunisie": 2152,
      "500": 2153,
      "naire": 2154,
      "til": 2155,
      "poi": 2156,
      "mas": 2157,
      "dix": 2158,
      "mars": 2159,
      "viennent": 2160,
      "dist": 2161,
      "fond": 2162,
      "nergie": 2163,
      "importer": 2164,
      "mieux": 2165,
      "déterminer": 2166,
      "laitiers": 2167,
      "graphie": 2168,
      "dépanneurs": 2169,
      "destinés": 2170,
      "océ": 2171,
      "ya": 2172,
      "introdu": 2173,
      "poser": 2174,
      "pain": 2175,
      "comité": 2176,
      "entrepos": 2177,
      "anglais": 2178,
      "végé": 2179,
      "limité": 2180,
      "suivantes": 2181,
      "profit": 2182,
      "article": 2183,
      "contacts": 2184,
      "occupa": 2185,
      "document": 2186,
      "gross": 2187,
      "projets": 2188,
      "jusquà": 2189,
      "caracté": 2190,
      "crip": 2191,
      "saoudite": 2192,
      "diversi": 2193,
      "49": 2194,
      "fre": 2195,
      "géta": 2196,
      "hn": 2197,
      "pau": 2198,
      "èmes": 2199,
      "laté": 2200,
      "lic": 2201,
      "devient": 2202,
      "délégu": 2203,
      "cien": 2204,
      "aide": 2205,
      "rier": 2206,
      "iran": 2207,
      "face": 2208,
      "omè": 2209,
      "pouvoir": 2210,
      "échanges": 2211,
      "diminution": 2212,
      "lente": 2213,
      "types": 2214,
      "responsable": 2215,
      "strophysique": 2216,
      "quaranta": 2217,
      "recherches": 2218,
      "36": 2219,
      "37": 2220,
      "fré": 2221,
      "raux": 2222,
      "lec": 2223,
      "initi": 2224,
      "desser": 2225,
      "parce": 2226,
      "paie": 2227,
      "réfri": 2228,
      "existe": 2229,
      "accep": 2230,
      "nove": 2231,
      "center": 2232,
      "petites": 2233,
      "huiles": 2234,
      "tistique": 2235,
      "concurrent": 2236,
      "tendances": 2237,
      "coût": 2238,
      "fabricant": 2239,
      "durant": 2240,
      "conformément": 2241,
      "labora": 2242,
      "banglades": 2243,
      "second": 2244,
      "instruments": 2245,
      "entreposage": 2246,
      "réfrigé": 2247,
      "bangladesh": 2248,
      "ition": 2249,
      "imag": 2250,
      "ld": 2251,
      "soli": 2252,
      "lace": 2253,
      "itali": 2254,
      "chois": 2255,
      "onto": 2256,
      "local": 2257,
      "plutôt": 2258,
      "formu": 2259,
      "vendus": 2260,
      "ppli": 2261,
      "centres": 2262,
      "statistique": 2263,
      "astronomie": 2264,
      "offrent": 2265,
      "classe": 2266,
      "échange": 2267,
      "particulier": 2268,
      "pourraient": 2269,
      "toronto": 2270,
      "locale": 2271,
      "statistiques": 2272,
      "sensi": 2273,
      "négoci": 2274,
      "alcoolisées": 2275,
      "caractéris": 2276,
      "quarantaine": 2277,
      "nit": 2278,
      "rôle": 2279,
      "vaux": 2280,
      "île": 2281,
      "aume": 2282,
      "ché": 2283,
      "quelles": 2284,
      "méri": 2285,
      "issant": 2286,
      "chez": 2287,
      "1996": 2288,
      "succès": 2289,
      "étoile": 2290,
      "connaître": 2291,
      "franç": 2292,
      "association": 2293,
      "consac": 2294,
      "royaume": 2295,
      "pêche": 2296,
      "afghan": 2297,
      "novembre": 2298,
      "42": 2299,
      "bur": 2300,
      "len": 2301,
      "tarti": 2302,
      "vil": 2303,
      "zon": 2304,
      "chat": 2305,
      "procha": 2306,
      "confi": 2307,
      "mai": 2308,
      "maï": 2309,
      "simp": 2310,
      "ancement": 2311,
      "irs": 2312,
      "trait": 2313,
      "1990": 2314,
      "john": 2315,
      "techniques": 2316,
      "avanta": 2317,
      "internationales": 2318,
      "lexportation": 2319,
      "relativement": 2320,
      "échelle": 2321,
      "vietnami": 2322,
      "revenus": 2323,
      "suffis": 2324,
      "mosph": 2325,
      "57": 2326,
      "amin": 2327,
      "bel": 2328,
      "gens": 2329,
      "rur": 2330,
      "èle": 2331,
      "tirer": 2332,
      "reli": 2333,
      "sement": 2334,
      "défin": 2335,
      "compara": 2336,
      "réus": 2337,
      "lois": 2338,
      "moiti": 2339,
      "mique": 2340,
      "nour": 2341,
      "préfé": 2342,
      "travaux": 2343,
      "visant": 2344,
      "objet": 2345,
      "rences": 2346,
      "droit": 2347,
      "juin": 2348,
      "coopération": 2349,
      "nature": 2350,
      "ladresse": 2351,
      "améliorer": 2352,
      "différents": 2353,
      "colombiebritannique": 2354,
      "intervenants": 2355,
      "océan": 2356,
      "moitié": 2357,
      "wi": 2358,
      "xes": 2359,
      "quence": 2360,
      "chair": 2361,
      "tron": 2362,
      "proté": 2363,
      "quels": 2364,
      "dépar": 2365,
      "marqu": 2366,
      "satis": 2367,
      "tendre": 2368,
      "pétro": 2369,
      "donn": 2370,
      "végéta": 2371,
      "beur": 2372,
      "lasie": 2373,
      "quelque": 2374,
      "approu": 2375,
      "fournisseur": 2376,
      "franch": 2377,
      "demeure": 2378,
      "recomman": 2379,
      "ident": 2380,
      "lenti": 2381,
      "oeufs": 2382,
      "sk": 2383,
      "ues": 2384,
      "inte": 2385,
      "teuse": 2386,
      "tawa": 2387,
      "luti": 2388,
      "commen": 2389,
      "comesti": 2390,
      "veu": 2391,
      "vian": 2392,
      "votre": 2393,
      "intermédi": 2394,
      "visions": 2395,
      "vrac": 2396,
      "publique": 2397,
      "juillet": 2398,
      "création": 2399,
      "arabie": 2400,
      "faibles": 2401,
      "spectre": 2402,
      "établir": 2403,
      "frique": 2404,
      "besoin": 2405,
      "poids": 2406,
      "français": 2407,
      "beurre": 2408,
      "34": 2409,
      "56": 2410,
      "denregistrement": 2411,
      "emb": 2412,
      "pen": 2413,
      "tard": 2414,
      "tiel": 2415,
      "influ": 2416,
      "quis": 2417,
      "auto": 2418,
      "chant": 2419,
      "chap": 2420,
      "lumine": 2421,
      "tées": 2422,
      "membre": 2423,
      "ficie": 2424,
      "appar": 2425,
      "disra": 2426,
      "land": 2427,
      "principale": 2428,
      "douanes": 2429,
      "lorsque": 2430,
      "graphique": 2431,
      "investissement": 2432,
      "locales": 2433,
      "province": 2434,
      "libreéchange": 2435,
      "adop": 2436,
      "hé": 2437,
      "âge": 2438,
      "sol": 2439,
      "uré": 2440,
      "chau": 2441,
      "ill": 2442,
      "matique": 2443,
      "parts": 2444,
      "expé": 2445,
      "exportateur": 2446,
      "vigueur": 2447,
      "lément": 2448,
      "fic": 2449,
      "micro": 2450,
      "question": 2451,
      "vendre": 2452,
      "bilaté": 2453,
      "obsta": 2454,
      "accords": 2455,
      "possible": 2456,
      "garanti": 2457,
      "caract": 2458,
      "kilomè": 2459,
      "difficile": 2460,
      "explique": 2461,
      "fraîches": 2462,
      "possède": 2463,
      "avantages": 2464,
      "66": 2465,
      "gen": 2466,
      "lang": 2467,
      "pren": 2468,
      "itre": 2469,
      "tag": 2470,
      "male": 2471,
      "dob": 2472,
      "fort": 2473,
      "savoir": 2474,
      "objec": 2475,
      "grais": 2476,
      "générale": 2477,
      "dernier": 2478,
      "origin": 2479,
      "constitue": 2480,
      "couverture": 2481,
      "hyper": 2482,
      "levage": 2483,
      "béné": 2484,
      "intérêt": 2485,
      "pharmaceutiques": 2486,
      "maïs": 2487,
      "comparativement": 2488,
      "viandes": 2489,
      "disraël": 2490,
      "cy": 2491,
      "gâ": 2492,
      "her": 2493,
      "ng": 2494,
      "spati": 2495,
      "ète": 2496,
      "tic": 2497,
      "quen": 2498,
      "telles": 2499,
      "ordin": 2500,
      "cir": 2501,
      "compar": 2502,
      "régu": 2503,
      "noix": 2504,
      "mées": 2505,
      "prévoit": 2506,
      "fév": 2507,
      "réser": 2508,
      "clas": 2509,
      "téléph": 2510,
      "constituent": 2511,
      "équipements": 2512,
      "concernant": 2513,
      "pratiques": 2514,
      "différentes": 2515,
      "cuisine": 2516,
      "territoire": 2517,
      "numéro": 2518,
      "vaste": 2519,
      "distance": 2520,
      "royaumeuni": 2521,
      "88": 2522,
      "fie": 2523,
      "fins": 2524,
      "pent": 2525,
      "sée": 2526,
      "tan": 2527,
      "entra": 2528,
      "lam": 2529,
      "qués": 2530,
      "quante": 2531,
      "prim": 2532,
      "aucu": 2533,
      "tec": 2534,
      "deven": 2535,
      "matur": 2536,
      "restri": 2537,
      "pace": 2538,
      "aider": 2539,
      "comprennent": 2540,
      "ign": 2541,
      "parties": 2542,
      "nationales": 2543,
      "prima": 2544,
      "observ": 2545,
      "landa": 2546,
      "mets": 2547,
      "crit": 2548,
      "directs": 2549,
      "gol": 2550,
      "groupes": 2551,
      "phyto": 2552,
      "chiffres": 2553,
      "programmes": 2554,
      "farine": 2555,
      "côte": 2556,
      "vancouver": 2557,
      "analyse": 2558,
      "précis": 2559,
      "ndnca": 2560,
      "début": 2561,
      "rayons": 2562,
      "aujourdhui": 2563,
      "létat": 2564,
      "traitement": 2565,
      "densité": 2566,
      "concurrents": 2567,
      "32": 2568,
      "ailleurs": 2569,
      "bra": 2570,
      "dêtre": 2571,
      "gag": 2572,
      "mm": 2573,
      "wor": 2574,
      "poten": 2575,
      "daff": 2576,
      "server": 2577,
      "passer": 2578,
      "véri": 2579,
      "complè": 2580,
      "nombreuses": 2581,
      "représentant": 2582,
      "relatives": 2583,
      "suivant": 2584,
      "variété": 2585,
      "disponible": 2586,
      "confiserie": 2587,
      "afghanistan": 2588,
      "donnance": 2589,
      "chapitre": 2590,
      "février": 2591,
      "aucun": 2592,
      "54": 2593,
      "avenir": 2594,
      "avait": 2595,
      "clé": 2596,
      "feu": 2597,
      "gb": 2598,
      "ril": 2599,
      "sp": 2600,
      "vinci": 2601,
      "tiennent": 2602,
      "liens": 2603,
      "chet": 2604,
      "extérieur": 2605,
      "voie": 2606,
      "mini": 2607,
      "vention": 2608,
      "ariat": 2609,
      "utiliser": 2610,
      "magne": 2611,
      "emplois": 2612,
      "essentiellement": 2613,
      "européenne": 2614,
      "végétaux": 2615,
      "jau": 2616,
      "ran": 2617,
      "évent": 2618,
      "provinci": 2619,
      "deau": 2620,
      "dement": 2621,
      "pal": 2622,
      "algé": 2623,
      "excel": 2624,
      "miro": 2625,
      "précédent": 2626,
      "grains": 2627,
      "utilisé": 2628,
      "uniquement": 2629,
      "indiens": 2630,
      "dinformation": 2631,
      "étude": 2632,
      "décis": 2633,
      "continue": 2634,
      "manière": 2635,
      "œuf": 2636,
      "figure": 2637,
      "stock": 2638,
      "août": 2639,
      "fédéral": 2640,
      "grossistes": 2641,
      "réguli": 2642,
      "maturité": 2643,
      "phytosan": 2644,
      "ambassade": 2645,
      "ku": 2646,
      "ola": 2647,
      "ensuite": 2648,
      "tie": 2649,
      "informa": 2650,
      "décou": 2651,
      "létiquette": 2652,
      "inspec": 2653,
      "faits": 2654,
      "donne": 2655,
      "transitaire": 2656,
      "renfor": 2657,
      "bioalimentaire": 2658,
      "antil": 2659,
      "élevée": 2660,
      "commun": 2661,
      "saison": 2662,
      "respectivement": 2663,
      "provinces": 2664,
      "assurer": 2665,
      "stratégie": 2666,
      "grosseur": 2667,
      "ottawa": 2668,
      "élèves": 2669,
      "kilomètres": 2670,
      "téléphone": 2671,
      "daffaires": 2672,
      "58": 2673,
      "bres": 2674,
      "bœuf": 2675,
      "sie": 2676,
      "uri": 2677,
      "infé": 2678,
      "itor": 2679,
      "propres": 2680,
      "condition": 2681,
      "contenu": 2682,
      "conservation": 2683,
      "dia": 2684,
      "découver": 2685,
      "aigre": 2686,
      "récol": 2687,
      "vertu": 2688,
      "prise": 2689,
      "trade": 2690,
      "sélev": 2691,
      "monitor": 2692,
      "utilisés": 2693,
      "bonbons": 2694,
      "certain": 2695,
      "drogues": 2696,
      "lèmes": 2697,
      "problèmes": 2698,
      "douani": 2699,
      "montre": 2700,
      "signi": 2701,
      "dapprobation": 2702,
      "réduire": 2703,
      "acheteurs": 2704,
      "kilo": 2705,
      "statistics": 2706,
      "cause": 2707,
      "consulter": 2708,
      "desserts": 2709,
      "images": 2710,
      "mosphère": 2711,
      "64": 2712,
      "77": 2713,
      "avis": 2714,
      "bal": 2715,
      "cl": 2716,
      "lheure": 2717,
      "zone": 2718,
      "ètes": 2719,
      "évolution": 2720,
      "laide": 2721,
      "seul": 2722,
      "dev": 2723,
      "rale": 2724,
      "démo": 2725,
      "comprend": 2726,
      "logis": 2727,
      "agine": 2728,
      "léagine": 2729,
      "ports": 2730,
      "salu": 2731,
      "chef": 2732,
      "grammes": 2733,
      "juteuse": 2734,
      "products": 2735,
      "producteur": 2736,
      "biologique": 2737,
      "banque": 2738,
      "accord": 2739,
      "rouge": 2740,
      "university": 2741,
      "procéd": 2742,
      "visible": 2743,
      "gâteaux": 2744,
      "ez": 2745,
      "eci": 2746,
      "fis": 2747,
      "fil": 2748,
      "lensemble": 2749,
      "ol": 2750,
      "isent": 2751,
      "consta": 2752,
      "réparti": 2753,
      "pourcent": 2754,
      "dastronomie": 2755,
      "exclu": 2756,
      "exporter": 2757,
      "supp": 2758,
      "actitude": 2759,
      "isses": 2760,
      "croquante": 2761,
      "donner": 2762,
      "corp": 2763,
      "raisons": 2764,
      "avons": 2765,
      "avril": 2766,
      "stralie": 2767,
      "japonaises": 2768,
      "astronome": 2769,
      "concurren": 2770,
      "israéliens": 2771,
      "pagne": 2772,
      "pacific": 2773,
      "laustralie": 2774,
      "compéti": 2775,
      "offerts": 2776,
      "astronomique": 2777,
      "98": 2778,
      "ax": 2779,
      "cés": 2780,
      "ssur": 2781,
      "ttes": 2782,
      "arri": 2783,
      "libé": 2784,
      "coré": 2785,
      "collec": 2786,
      "tru": 2787,
      "promou": 2788,
      "consu": 2789,
      "orge": 2790,
      "lus": 2791,
      "pourquoi": 2792,
      "accé": 2793,
      "tosh": 2794,
      "domaines": 2795,
      "milieu": 2796,
      "formes": 2797,
      "sait": 2798,
      "dispositions": 2799,
      "mises": 2800,
      "brés": 2801,
      "avantage": 2802,
      "superficie": 2803,
      "dernière": 2804,
      "trouvent": 2805,
      "activité": 2806,
      "autorités": 2807,
      "cestàdire": 2808,
      "électron": 2809,
      "traditionnels": 2810,
      "conséquent": 2811,
      "stratégi": 2812,
      "génétiquement": 2813,
      "comestibles": 2814,
      "hypermarchés": 2815,
      "pourcentage": 2816,
      "adap": 2817,
      "afrique": 2818,
      "cée": 2819,
      "hou": 2820,
      "hor": 2821,
      "ii": 2822,
      "ki": 2823,
      "pansion": 2824,
      "lets": 2825,
      "laquelle": 2826,
      "requé": 2827,
      "quête": 2828,
      "propre": 2829,
      "portion": 2830,
      "produire": 2831,
      "rien": 2832,
      "maroc": 2833,
      "suit": 2834,
      "agents": 2835,
      "questions": 2836,
      "vois": 2837,
      "états": 2838,
      "distin": 2839,
      "faisant": 2840,
      "bière": 2841,
      "direction": 2842,
      "crédit": 2843,
      "contient": 2844,
      "télescopes": 2845,
      "japonaise": 2846,
      "troisième": 2847,
      "américain": 2848,
      "décen": 2849,
      "chiffre": 2850,
      "nécessaires": 2851,
      "institut": 2852,
      "blanche": 2853,
      "montré": 2854,
      "identi": 2855,
      "nutrition": 2856,
      "jeunes": 2857,
      "ploit": 2858,
      "paiement": 2859,
      "département": 2860,
      "lutilisation": 2861,
      "promouvoir": 2862,
      "ateur": 2863,
      "ed": 2864,
      "gène": 2865,
      "iens": 2866,
      "ly": 2867,
      "ms": 2868,
      "ny": 2869,
      "énon": 2870,
      "encour": 2871,
      "lever": 2872,
      "inf": 2873,
      "provisionnement": 2874,
      "segment": 2875,
      "maeci": 2876,
      "comment": 2877,
      "rich": 2878,
      "vid": 2879,
      "accompag": 2880,
      "milliers": 2881,
      "privé": 2882,
      "cations": 2883,
      "maison": 2884,
      "magné": 2885,
      "struct": 2886,
      "offrir": 2887,
      "télécopie": 2888,
      "profil": 2889,
      "articles": 2890,
      "ministre": 2891,
      "ladministration": 2892,
      "tarif": 2893,
      "disponibles": 2894,
      "familles": 2895,
      "bord": 2896,
      "épicer": 2897,
      "télécopieur": 2898,
      "300": 2899,
      "ear": 2900,
      "fleurs": 2901,
      "glob": 2902,
      "hon": 2903,
      "king": 2904,
      "my": 2905,
      "oration": 2906,
      "pô": 2907,
      "sagit": 2908,
      "vés": 2909,
      "yés": 2910,
      "anase": 2911,
      "infrastructure": 2912,
      "isme": 2913,
      "quun": 2914,
      "pous": 2915,
      "seur": 2916,
      "acteurs": 2917,
      "tobre": 2918,
      "fici": 2919,
      "abat": 2920,
      "ablement": 2921,
      "ffe": 2922,
      "tenus": 2923,
      "asse": 2924,
      "assujet": 2925,
      "190": 2926,
      "euvre": 2927,
      "financement": 2928,
      "posent": 2929,
      "suivi": 2930,
      "classi": 2931,
      "économies": 2932,
      "pression": 2933,
      "permettre": 2934,
      "quantités": 2935,
      "matéri": 2936,
      "déjeu": 2937,
      "agriculteurs": 2938,
      "égypte": 2939,
      "tempéra": 2940,
      "400": 2941,
      "oléagine": 2942,
      "lastronomie": 2943,
      "descrip": 2944,
      "chent": 2945,
      "cots": 2946,
      "sept": 2947,
      "division": 2948,
      "composé": 2949,
      "alités": 2950,
      "dabat": 2951,
      "2009": 2952,
      "noter": 2953,
      "perspec": 2954,
      "miné": 2955,
      "cartes": 2956,
      "matiques": 2957,
      "brité": 2958,
      "star": 2959,
      "facil": 2960,
      "brevet": 2961,
      "jamais": 2962,
      "usement": 2963,
      "probl": 2964,
      "préparation": 2965,
      "magasin": 2966,
      "vestissement": 2967,
      "connaît": 2968,
      "lunivers": 2969,
      "sauce": 2970,
      "désig": 2971,
      "concerne": 2972,
      "cellu": 2973,
      "partenaires": 2974,
      "difficul": 2975,
      "office": 2976,
      "chimiques": 2977,
      "scientifiques": 2978,
      "efficace": 2979,
      "lentilles": 2980,
      "gés": 2981,
      "glac": 2982,
      "hari": 2983,
      "hom": 2984,
      "lons": 2985,
      "mcin": 2986,
      "pti": 2987,
      "sai": 2988,
      "septe": 2989,
      "const": 2990,
      "contenant": 2991,
      "dies": 2992,
      "réfé": 2993,
      "issante": 2994,
      "tenue": 2995,
      "pén": 2996,
      "prises": 2997,
      "président": 2998,
      "croissement": 2999,
      "prévisions": 3000,
      "guer": 3001,
      "obtenu": 3002,
      "céles": 3003,
      "1994": 3004,
      "1995": 3005,
      "croissant": 3006,
      "puisque": 3007,
      "ting": 3008,
      "israéliennes": 3009,
      "diverses": 3010,
      "habituellement": 3011,
      "accrue": 3012,
      "hôtels": 3013,
      "rablement": 3014,
      "nourrit": 3015,
      "restrictions": 3016,
      "sélevaient": 3017,
      "logistique": 3018,
      "salubrité": 3019,
      "température": 3020,
      "problème": 3021,
      "mcintosh": 3022,
      "septembre": 3023,
      "41": 3024,
      "69": 3025,
      "78": 3026,
      "aé": 3027,
      "ats": 3028,
      "amp": 3029,
      "gation": 3030,
      "ige": 3031,
      "mans": 3032,
      "oli": 3033,
      "sil": 3034,
      "annon": 3035,
      "souti": 3036,
      "ises": 3037,
      "quon": 3038,
      "pois": 3039,
      "arou": 3040,
      "dul": 3041,
      "chers": 3042,
      "nel": 3043,
      "nelle": 3044,
      "sein": 3045,
      "mat": 3046,
      "alo": 3047,
      "canola": 3048,
      "cam": 3049,
      "surface": 3050,
      "doeufs": 3051,
      "version": 3052,
      "méth": 3053,
      "sains": 3054,
      "teneur": 3055,
      "pées": 3056,
      "irani": 3057,
      "bovins": 3058,
      "manille": 3059,
      "régime": 3060,
      "occa": 3061,
      "soumis": 3062,
      "aison": 3063,
      "bulle": 3064,
      "sucrée": 3065,
      "demeurent": 3066,
      "industri": 3067,
      "officie": 3068,
      "analys": 3069,
      "pollution": 3070,
      "licence": 3071,
      "pétrole": 3072,
      "brésil": 3073,
      "requérant": 3074,
      "montréal": 3075,
      "dabattage": 3076,
      "nourriture": 3077,
      "110": 3078,
      "ak": 3079,
      "cées": 3080,
      "mang": 3081,
      "sm": 3082,
      "ège": 3083,
      "tils": 3084,
      "telle": 3085,
      "chines": 3086,
      "sem": 3087,
      "vio": 3088,
      "doc": 3089,
      "mélan": 3090,
      "péné": 3091,
      "favo": 3092,
      "nouilles": 3093,
      "train": 3094,
      "sées": 3095,
      "fron": 3096,
      "frarou": 3097,
      "illez": 3098,
      "ling": 3099,
      "bois": 3100,
      "baie": 3101,
      "1993": 3102,
      "fournit": 3103,
      "limite": 3104,
      "relative": 3105,
      "petite": 3106,
      "règlement": 3107,
      "préparations": 3108,
      "choix": 3109,
      "systèmes": 3110,
      "connue": 3111,
      "europe": 3112,
      "effectuer": 3113,
      "œuvre": 3114,
      "galaxies": 3115,
      "miroir": 3116,
      "gy": 3117,
      "glo": 3118,
      "gom": 3119,
      "linspection": 3120,
      "red": 3121,
      "coffe": 3122,
      "demballage": 3123,
      "mex": 3124,
      "expéri": 3125,
      "caf": 3126,
      "loin": 3127,
      "mégan": 3128,
      "appu": 3129,
      "tude": 3130,
      "fax": 3131,
      "consommer": 3132,
      "préf": 3133,
      "nuit": 3134,
      "rieures": 3135,
      "endro": 3136,
      "populaire": 3137,
      "stimu": 3138,
      "chili": 3139,
      "publié": 3140,
      "factur": 3141,
      "achide": 3142,
      "group": 3143,
      "charge": 3144,
      "étudi": 3145,
      "denrées": 3146,
      "maje": 3147,
      "confiseries": 3148,
      "scientifique": 3149,
      "propriété": 3150,
      "musulmans": 3151,
      "lasiepacifique": 3152,
      "veuillez": 3153,
      "expédi": 3154,
      "spatial": 3155,
      "world": 3156,
      "supplément": 3157,
      "perspectives": 3158,
      "pénétr": 3159,
      "mégantic": 3160,
      "eting": 3161,
      "nont": 3162,
      "sins": 3163,
      "yu": 3164,
      "étiquette": 3165,
      "êtes": 3166,
      "ondes": 3167,
      "reçu": 3168,
      "ares": 3169,
      "taire": 3170,
      "pare": 3171,
      "pact": 3172,
      "défi": 3173,
      "répu": 3174,
      "exer": 3175,
      "cateurs": 3176,
      "ager": 3177,
      "nies": 3178,
      "vos": 3179,
      "préci": 3180,
      "couleurs": 3181,
      "corps": 3182,
      "norme": 3183,
      "technique": 3184,
      "octobre": 3185,
      "philippin": 3186,
      "mêmes": 3187,
      "fonds": 3188,
      "suivante": 3189,
      "heures": 3190,
      "estime": 3191,
      "chinoises": 3192,
      "saumon": 3193,
      "darachide": 3194,
      "pratique": 3195,
      "niveaux": 3196,
      "intéressant": 3197,
      "texture": 3198,
      "participa": 3199,
      "supérieure": 3200,
      "allemagne": 3201,
      "caractéristiques": 3202,
      "zones": 3203,
      "caractère": 3204,
      "déjeuner": 3205,
      "glacée": 3206,
      "haricots": 3207,
      "01": 3208,
      "ctu": 3209,
      "fou": 3210,
      "fants": 3211,
      "gnation": 3212,
      "manger": 3213,
      "rin": 3214,
      "sence": 3215,
      "tte": 3216,
      "any": 3217,
      "tiers": 3218,
      "lages": 3219,
      "eront": 3220,
      "infrarou": 3221,
      "liqui": 3222,
      "chac": 3223,
      "tait": 3224,
      "rations": 3225,
      "dées": 3226,
      "dédouane": 3227,
      "létiquetage": 3228,
      "fié": 3229,
      "abor": 3230,
      "mbo": 3231,
      "consommateur": 3232,
      "série": 3233,
      "linformation": 3234,
      "gmentation": 3235,
      "ouvert": 3236,
      "représentaient": 3237,
      "uns": 3238,
      "régionaux": 3239,
      "intérieure": 3240,
      "développer": 3241,
      "logique": 3242,
      "goût": 3243,
      "téléchargé": 3244,
      "tisser": 3245,
      "haute": 3246,
      "restaurant": 3247,
      "marketing": 3248,
      "engage": 3249,
      "femmes": 3250,
      "réaliser": 3251,
      "crabe": 3252,
      "modernes": 3253,
      "modifiés": 3254,
      "profession": 3255,
      "italie": 3256,
      "rurales": 3257,
      "intermédiaires": 3258,
      "obstacles": 3259,
      "entraî": 3260,
      "soutien": 3261,
      "85": 3262,
      "ira": 3263,
      "ze": 3264,
      "essais": 3265,
      "quin": 3266,
      "itent": 3267,
      "code": 3268,
      "proportion": 3269,
      "rat": 3270,
      "détiquetage": 3271,
      "république": 3272,
      "allant": 3273,
      "dachat": 3274,
      "extr": 3275,
      "action": 3276,
      "vendent": 3277,
      "tradu": 3278,
      "cultiv": 3279,
      "souha": 3280,
      "utilise": 3281,
      "utilisées": 3282,
      "université": 3283,
      "stan": 3284,
      "pâtisser": 3285,
      "tural": 3286,
      "bilité": 3287,
      "montmégantic": 3288,
      "lunion": 3289,
      "laugmentation": 3290,
      "durée": 3291,
      "passées": 3292,
      "changements": 3293,
      "tarifs": 3294,
      "laboration": 3295,
      "moderne": 3296,
      "cessionnaire": 3297,
      "russie": 3298,
      "agricultural": 3299,
      "demandes": 3300,
      "familial": 3301,
      "attribuable": 3302,
      "aromatique": 3303,
      "délégué": 3304,
      "jaune": 3305,
      "algérie": 3306,
      "diamètre": 3307,
      "earch": 3308,
      "coffee": 3309,
      "53": 3310,
      "79": 3311,
      "84": 3312,
      "dant": 3313,
      "dge": 3314,
      "dentre": 3315,
      "his": 3316,
      "lhuile": 3317,
      "linstitut": 3318,
      "nso": 3319,
      "pin": 3320,
      "rance": 3321,
      "vrir": 3322,
      "enfants": 3323,
      "recours": 3324,
      "pomme": 3325,
      "teil": 3326,
      "tranger": 3327,
      "rales": 3328,
      "conomie": 3329,
      "dici": 3330,
      "research": 3331,
      "détec": 3332,
      "dastrophysique": 3333,
      "létranger": 3334,
      "léconomie": 3335,
      "modes": 3336,
      "servent": 3337,
      "phé": 3338,
      "séch": 3339,
      "présenter": 3340,
      "visite": 3341,
      "endra": 3342,
      "avaient": 3343,
      "popular": 3344,
      "populaires": 3345,
      "légumine": 3346,
      "moyenorient": 3347,
      "dimport": 3348,
      "sauces": 3349,
      "considérablement": 3350,
      "destinées": 3351,
      "hano": 3352,
      "modification": 3353,
      "acheter": 3354,
      "contribué": 3355,
      "construction": 3356,
      "commence": 3357,
      "congelé": 3358,
      "laboratoire": 3359,
      "complète": 3360,
      "matériaux": 3361,
      "mexique": 3362,
      "participation": 3363,
      "600": 3364,
      "best": 3365,
      "dû": 3366,
      "denviron": 3367,
      "ic": 3368,
      "lenvironnement": 3369,
      "pet": 3370,
      "écla": 3371,
      "entrer": 3372,
      "lesquels": 3373,
      "due": 3374,
      "teau": 3375,
      "semen": 3376,
      "raff": 3377,
      "machines": 3378,
      "riques": 3379,
      "rière": 3380,
      "mart": 3381,
      "portent": 3382,
      "fortement": 3383,
      "métri": 3384,
      "faci": 3385,
      "passe": 3386,
      "gée": 3387,
      "séle": 3388,
      "naissance": 3389,
      "manque": 3390,
      "augmente": 3391,
      "omc": 3392,
      "complex": 3393,
      "company": 3394,
      "régional": 3395,
      "développé": 3396,
      "direct": 3397,
      "additionne": 3398,
      "pier": 3399,
      "james": 3400,
      "consignation": 3401,
      "vinaigre": 3402,
      "sauf": 3403,
      "établies": 3404,
      "électri": 3405,
      "traditionnel": 3406,
      "asiatique": 3407,
      "exportés": 3408,
      "vettes": 3409,
      "voyage": 3410,
      "manufactur": 3411,
      "crevettes": 3412,
      "primaires": 3413,
      "maecigcca": 3414,
      "épiceries": 3415,
      "préfèrent": 3416,
      "dédouanement": 3417,
      "légumineuses": 3418,
      "51": 3419,
      "dau": 3420,
      "là": 3421,
      "lenregistrement": 3422,
      "père": 3423,
      "rd": 3424,
      "stel": 3425,
      "ving": 3426,
      "èces": 3427,
      "lemballage": 3428,
      "taxe": 3429,
      "devenir": 3430,
      "rables": 3431,
      "conne": 3432,
      "conique": 3433,
      "estre": 3434,
      "david": 3435,
      "exposition": 3436,
      "rob": 3437,
      "cessi": 3438,
      "accue": 3439,
      "mode": 3440,
      "sert": 3441,
      "méli": 3442,
      "satel": 3443,
      "ash": 3444,
      "grès": 3445,
      "lantique": 3446,
      "box": 3447,
      "rieurs": 3448,
      "servir": 3449,
      "lexpansion": 3450,
      "cieux": 3451,
      "suivre": 3452,
      "variation": 3453,
      "chinoise": 3454,
      "appropri": 3455,
      "client": 3456,
      "ministra": 3457,
      "seule": 3458,
      "risque": 3459,
      "risques": 3460,
      "brut": 3461,
      "texte": 3462,
      "habitudes": 3463,
      "maladie": 3464,
      "famille": 3465,
      "multipli": 3466,
      "capitale": 3467,
      "professeur": 3468,
      "prochaines": 3469,
      "confir": 3470,
      "mélange": 3471,
      "majeure": 3472,
      "1er": 3473,
      "86": 3474,
      "ail": 3475,
      "atives": 3476,
      "dres": 3477,
      "dence": 3478,
      "fau": 3479,
      "hés": 3480,
      "tt": 3481,
      "tch": 3482,
      "win": 3483,
      "yen": 3484,
      "zas": 3485,
      "inten": 3486,
      "isés": 3487,
      "rec": 3488,
      "lespace": 3489,
      "quand": 3490,
      "prin": 3491,
      "arie": 3492,
      "aug": 3493,
      "déci": 3494,
      "siro": 3495,
      "vez": 3496,
      "impact": 3497,
      "exist": 3498,
      "sun": 3499,
      "marche": 3500,
      "portant": 3501,
      "mécan": 3502,
      "métho": 3503,
      "saint": 3504,
      "attend": 3505,
      "paysbas": 3506,
      "nationaux": 3507,
      "guide": 3508,
      "présentation": 3509,
      "obtient": 3510,
      "boo": 3511,
      "cord": 3512,
      "nouvel": 3513,
      "ronde": 3514,
      "fruit": 3515,
      "poste": 3516,
      "administra": 3517,
      "chercheurs": 3518,
      "lève": 3519,
      "facteur": 3520,
      "dalimentation": 3521,
      "préparé": 3522,
      "particulières": 3523,
      "planètes": 3524,
      "subst": 3525,
      "9723": 3526,
      "plans": 3527,
      "bert": 3528,
      "amélior": 3529,
      "blanc": 3530,
      "chimique": 3531,
      "pleine": 3532,
      "favoriser": 3533,
      "communiquer": 3534,
      "dyna": 3535,
      "urbaines": 3536,
      "pauvre": 3537,
      "secondaires": 3538,
      "tartiner": 3539,
      "franchise": 3540,
      "landais": 3541,
      "potentiel": 3542,
      "ssurer": 3543,
      "décennie": 3544,
      "satell": 3545,
      "aviv": 3546,
      "ding": 3547,
      "econ": 3548,
      "ft": 3549,
      "gence": 3550,
      "hen": 3551,
      "idée": 3552,
      "mâ": 3553,
      "ême": 3554,
      "lequel": 3555,
      "eral": 3556,
      "investi": 3557,
      "dues": 3558,
      "orb": 3559,
      "mel": 3560,
      "lomc": 3561,
      "létude": 3562,
      "mesurer": 3563,
      "tence": 3564,
      "étab": 3565,
      "étaire": 3566,
      "distri": 3567,
      "pass": 3568,
      "obli": 3569,
      "observer": 3570,
      "gras": 3571,
      "champ": 3572,
      "représentation": 3573,
      "philippine": 3574,
      "faites": 3575,
      "estima": 3576,
      "situé": 3577,
      "permettent": 3578,
      "occupe": 3579,
      "fut": 3580,
      "ralenti": 3581,
      "ceuxci": 3582,
      "responsabilité": 3583,
      "vita": 3584,
      "naturels": 3585,
      "cuisin": 3586,
      "réseaux": 3587,
      "affiche": 3588,
      "vues": 3589,
      "capital": 3590,
      "commiss": 3591,
      "rivée": 3592,
      "léchelle": 3593,
      "égypti": 3594,
      "neuf": 3595,
      "largement": 3596,
      "introduction": 3597,
      "fréquent": 3598,
      "négociations": 3599,
      "recommand": 3600,
      "bénéfici": 3601,
      "vérifier": 3602,
      "signifie": 3603,
      "balance": 3604,
      "méthode": 3605,
      "docto": 3606,
      "méthodes": 3607,
      "mâcher": 3608,
      "92": 3609,
      "ama": 3610,
      "clés": 3611,
      "dinspection": 3612,
      "euses": 3613,
      "flo": 3614,
      "fine": 3615,
      "gon": 3616,
      "lorganisation": 3617,
      "nal": 3618,
      "ome": 3619,
      "uve": 3620,
      "yon": 3621,
      "zi": 3622,
      "élab": 3623,
      "engrais": 3624,
      "anmoins": 3625,
      "ties": 3626,
      "trim": 3627,
      "répan": 3628,
      "exception": 3629,
      "cao": 3630,
      "lécu": 3631,
      "néanmoins": 3632,
      "active": 3633,
      "molécu": 3634,
      "absor": 3635,
      "tuelle": 3636,
      "sommes": 3637,
      "préoccupa": 3638,
      "dong": 3639,
      "longue": 3640,
      "format": 3641,
      "croissante": 3642,
      "comptent": 3643,
      "étro": 3644,
      "150": 3645,
      "haï": 3646,
      "média": 3647,
      "autrement": 3648,
      "contraire": 3649,
      "approvisionnement": 3650,
      "permission": 3651,
      "montant": 3652,
      "physicien": 3653,
      "emballage": 3654,
      "berg": 3655,
      "conseils": 3656,
      "vivants": 3657,
      "animale": 3658,
      "lapprobation": 3659,
      "conséquence": 3660,
      "théor": 3661,
      "acidu": 3662,
      "congelées": 3663,
      "incluant": 3664,
      "meilleure": 3665,
      "commencé": 3666,
      "informations": 3667,
      "clure": 3668,
      "répartition": 3669,
      "électronique": 3670,
      "magnétique": 3671,
      "tarifaires": 3672,
      "assez": 3673,
      "classification": 3674,
      "amples": 3675,
      "district": 3676,
      "72": 3677,
      "95": 3678,
      "amment": 3679,
      "dg": 3680,
      "dhuile": 3681,
      "gm": 3682,
      "kar": 3683,
      "nette": 3684,
      "pur": 3685,
      "rue": 3686,
      "sc": 3687,
      "ss": 3688,
      "solu": 3689,
      "solaire": 3690,
      "lir": 3691,
      "outils": 3692,
      "concessionnaire": 3693,
      "pains": 3694,
      "page": 3695,
      "payer": 3696,
      "combin": 3697,
      "révé": 3698,
      "daméri": 3699,
      "examen": 3700,
      "sup": 3701,
      "surve": 3702,
      "file": 3703,
      "miques": 3704,
      "serait": 3705,
      "gelées": 3706,
      "sappli": 3707,
      "salam": 3708,
      "faite": 3709,
      "gén": 3710,
      "priva": 3711,
      "donde": 3712,
      "transgé": 3713,
      "agribusiness": 3714,
      "baï": 3715,
      "japan": 3716,
      "norma": 3717,
      "produites": 3718,
      "complet": 3719,
      "utilisée": 3720,
      "rapports": 3721,
      "lexactitude": 3722,
      "bond": 3723,
      "publie": 3724,
      "derniers": 3725,
      "échantil": 3726,
      "achè": 3727,
      "lentrée": 3728,
      "amérique": 3729,
      "approvision": 3730,
      "connaissance": 3731,
      "blissement": 3732,
      "spectro": 3733,
      "certificats": 3734,
      "sorte": 3735,
      "litres": 3736,
      "salon": 3737,
      "naturelles": 3738,
      "occidentaux": 3739,
      "délivré": 3740,
      "……………………": 3741,
      "galaxie": 3742,
      "musulman": 3743,
      "satisfaire": 3744,
      "lumineuse": 3745,
      "general": 3746,
      "côtelée": 3747,
      "structures": 3748,
      "bulletin": 3749,
      "fronti": 3750,
      "sélection": 3751,
      "obliga": 3752,
      "commissariat": 3753,
      "120": 3754,
      "250": 3755,
      "ato": 3756,
      "bri": 3757,
      "genre": 3758,
      "kyo": 3759,
      "oeuvre": 3760,
      "pfa": 3761,
      "wel": 3762,
      "willi": 3763,
      "énergie": 3764,
      "solution": 3765,
      "leçon": 3766,
      "isla": 3767,
      "itures": 3768,
      "liban": 3769,
      "trin": 3770,
      "develop": 3771,
      "rage": 3772,
      "parc": 3773,
      "comprendre": 3774,
      "récession": 3775,
      "ries": 3776,
      "canne": 3777,
      "casse": 3778,
      "vidé": 3779,
      "néga": 3780,
      "termes": 3781,
      "fix": 3782,
      "fili": 3783,
      "fiés": 3784,
      "fiabilité": 3785,
      "sat": 3786,
      "ussalam": 3787,
      "atti": 3788,
      "larg": 3789,
      "lanne": 3790,
      "rendement": 3791,
      "entièrement": 3792,
      "utilisant": 3793,
      "détat": 3794,
      "plats": 3795,
      "pério": 3796,
      "collaboration": 3797,
      "contrô": 3798,
      "604": 3799,
      "élevées": 3800,
      "coûte": 3801,
      "considérable": 3802,
      "sciences": 3803,
      "hygi": 3804,
      "valuation": 3805,
      "darussalam": 3806,
      "taïwanais": 3807,
      "vitamin": 3808,
      "sèches": 3809,
      "radiotélescope": 3810,
      "cosmo": 3811,
      "maladies": 3812,
      "dobtenir": 3813,
      "consulat": 3814,
      "liquide": 3815,
      "popularité": 3816,
      "semences": 3817,
      "connexes": 3818,
      "vitamine": 3819,
      "william": 3820,
      "210": 3821,
      "52": 3822,
      "dentreprises": 3823,
      "hors": 3824,
      "ien": 3825,
      "jon": 3826,
      "sac": 3827,
      "sist": 3828,
      "varie": 3829,
      "yle": 3830,
      "èse": 3831,
      "évé": 3832,
      "entrée": 3833,
      "lav": 3834,
      "lastro": 3835,
      "lien": 3836,
      "liés": 3837,
      "lieux": 3838,
      "tran": 3839,
      "outeil": 3840,
      "sel": 3841,
      "oria": 3842,
      "détient": 3843,
      "délevage": 3844,
      "commission": 3845,
      "riches": 3846,
      "logy": 3847,
      "agé": 3848,
      "vict": 3849,
      "lélevage": 3850,
      "actions": 3851,
      "mot": 3852,
      "nova": 3853,
      "instant": 3854,
      "pul": 3855,
      "apla": 3856,
      "atmosphère": 3857,
      "atlantique": 3858,
      "disposition": 3859,
      "minh": 3860,
      "venue": 3861,
      "traité": 3862,
      "sépar": 3863,
      "séchés": 3864,
      "incidence": 3865,
      "obtenus": 3866,
      "linfrastructure": 3867,
      "central": 3868,
      "mettent": 3869,
      "huit": 3870,
      "résu": 3871,
      "fabriqués": 3872,
      "trices": 3873,
      "offrant": 3874,
      "goû": 3875,
      "goure": 3876,
      "160": 3877,
      "spécialité": 3878,
      "créé": 3879,
      "créer": 3880,
      "élimin": 3881,
      "destiné": 3882,
      "élément": 3883,
      "partenaire": 3884,
      "accru": 3885,
      "supérieur": 3886,
      "hautcommissariat": 3887,
      "chuté": 3888,
      "manutention": 3889,
      "astronomiques": 3890,
      "exploitants": 3891,
      "occupait": 3892,
      "solide": 3893,
      "lacement": 3894,
      "tartina": 3895,
      "réussi": 3896,
      "objets": 3897,
      "objectif": 3898,
      "comparaison": 3899,
      "golfe": 3900,
      "décision": 3901,
      "phytosanitaire": 3902,
      "procédures": 3903,
      "difficultés": 3904,
      "infrarouge": 3905,
      "acidulée": 3906,
      "74": 3907,
      "76": 3908,
      "96": 3909,
      "centi": 3910,
      "cnca": 3911,
      "dès": 3912,
      "jing": 3913,
      "k1": 3914,
      "kon": 3915,
      "lentreposage": 3916,
      "nus": 3917,
      "tête": 3918,
      "vont": 3919,
      "envis": 3920,
      "tier": 3921,
      "tiels": 3922,
      "ley": 3923,
      "urt": 3924,
      "intr": 3925,
      "quune": 3926,
      "poque": 3927,
      "auth": 3928,
      "liées": 3929,
      "chang": 3930,
      "max": 3931,
      "ordonnance": 3932,
      "partout": 3933,
      "parvenir": 3934,
      "dénergie": 3935,
      "téro": 3936,
      "alli": 3937,
      "meilleurs": 3938,
      "dat": 3939,
      "dage": 3940,
      "accroissement": 3941,
      "terra": 3942,
      "fiées": 3943,
      "sap": 3944,
      "établis": 3945,
      "présentent": 3946,
      "montag": 3947,
      "lancé": 3948,
      "bour": 3949,
      "rendre": 3950,
      "carre": 3951,
      "1991": 3952,
      "joint": 3953,
      "distribuer": 3954,
      "fonda": 3955,
      "indicateurs": 3956,
      "trop": 3957,
      "spécifique": 3958,
      "achat": 3959,
      "diminuer": 3960,
      "nouvelleéco": 3961,
      "occupent": 3962,
      "labat": 3963,
      "investisseurs": 3964,
      "lautre": 3965,
      "euromonitor": 3966,
      "réduction": 3967,
      "intéressés": 3968,
      "royale": 3969,
      "heureusement": 3970,
      "mentionnés": 3971,
      "pêches": 3972,
      "financière": 3973,
      "délivrance": 3974,
      "pplication": 3975,
      "embouteil": 3976,
      "appartenant": 3977,
      "coréens": 3978,
      "référence": 3979,
      "campagne": 3980,
      "recommandations": 3981,
      "vidéo": 3982,
      "victoria": 3983,
      "centimètres": 3984,
      "nouvelleécosse": 3985,
      "ade": 3986,
      "avi": 3987,
      "clin": 3988,
      "eaux": 3989,
      "fes": 3990,
      "fres": 3991,
      "pies": 3992,
      "rc": 3993,
      "tons": 3994,
      "vée": 3995,
      "yé": 3996,
      "écos": 3997,
      "tidi": 3998,
      "ticides": 3999,
      "quà": 4000,
      "arc": 4001,
      "dubaï": 4002,
      "lici": 4003,
      "tai": 4004,
      "taient": 4005,
      "coco": 4006,
      "devis": 4007,
      "raies": 4008,
      "lue": 4009,
      "produisent": 4010,
      "déli": 4011,
      "déqui": 4012,
      "réformes": 4013,
      "alth": 4014,
      "loig": 4015,
      "logue": 4016,
      "surgelés": 4017,
      "actives": 4018,
      "doff": 4019,
      "fiée": 4020,
      "abon": 4021,
      "métro": 4022,
      "voici": 4023,
      "apparti": 4024,
      "1980": 4025,
      "irri": 4026,
      "gées": 4027,
      "consomment": 4028,
      "travers": 4029,
      "traités": 4030,
      "présenté": 4031,
      "coun": 4032,
      "couleur": 4033,
      "biotechnologi": 4034,
      "moyens": 4035,
      "déplo": 4036,
      "avan": 4037,
      "fruiti": 4038,
      "posés": 4039,
      "cru": 4040,
      "union": 4041,
      "rési": 4042,
      "technology": 4043,
      "lexportateur": 4044,
      "supermarket": 4045,
      "indien": 4046,
      "indique": 4047,
      "administration": 4048,
      "grandement": 4049,
      "ultra": 4050,
      "lobjet": 4051,
      "tourisme": 4052,
      "collation": 4053,
      "israélienne": 4054,
      "porcs": 4055,
      "continuent": 4056,
      "associations": 4057,
      "condiments": 4058,
      "annexe": 4059,
      "salés": 4060,
      "fonctionnels": 4061,
      "quotidi": 4062,
      "bruit": 4063,
      "spécialiste": 4064,
      "spécialisés": 4065,
      "tests": 4066,
      "delta": 4067,
      "déclaré": 4068,
      "ryth": 4069,
      "récente": 4070,
      "limitée": 4071,
      "wick": 4072,
      "végétales": 4073,
      "langue": 4074,
      "circu": 4075,
      "éventail": 4076,
      "régulièrement": 4077,
      "libéra": 4078,
      "ploitation": 4079,
      "inflation": 4080,
      "constante": 4081,
      "occasions": 4082,
      "bestfoods": 4083,
      "achètent": 4084,
      "lannexe": 4085,
      "hygiène": 4086,
      "carrefour": 4087,
      "900": 4088,
      "ateurs": 4089,
      "bs": 4090,
      "df": 4091,
      "dité": 4092,
      "emark": 4093,
      "fur": 4094,
      "frap": 4095,
      "fléch": 4096,
      "gg": 4097,
      "ienne": 4098,
      "kan": 4099,
      "nage": 4100,
      "ut": 4101,
      "vou": 4102,
      "vété": 4103,
      "wo": 4104,
      "ço": 4105,
      "évolu": 4106,
      "esp": 4107,
      "enfin": 4108,
      "enter": 4109,
      "entente": 4110,
      "laf": 4111,
      "lagent": 4112,
      "lauré": 4113,
      "erie": 4114,
      "istence": 4115,
      "tez": 4116,
      "taires": 4117,
      "codes": 4118,
      "ouve": 4119,
      "semaine": 4120,
      "concep": 4121,
      "ordre": 4122,
      "diag": 4123,
      "ciaprès": 4124,
      "composition": 4125,
      "examin": 4126,
      "cap": 4127,
      "camé": 4128,
      "légis": 4129,
      "verg": 4130,
      "nov": 4131,
      "interstel": 4132,
      "longueur": 4133,
      "coupées": 4134,
      "1992": 4135,
      "entine": 4136,
      "bruns": 4137,
      "oct": 4138,
      "représentants": 4139,
      "utilisent": 4140,
      "double": 4141,
      "logiques": 4142,
      "étrangère": 4143,
      "haw": 4144,
      "publics": 4145,
      "chercheur": 4146,
      "moyennement": 4147,
      "suivie": 4148,
      "laccès": 4149,
      "china": 4150,
      "probablement": 4151,
      "consid": 4152,
      "située": 4153,
      "banc": 4154,
      "terrestre": 4155,
      "science": 4156,
      "lautor": 4157,
      "enregistrer": 4158,
      "confitures": 4159,
      "plant": 4160,
      "conseiller": 4161,
      "réalisation": 4162,
      "asiepacifique": 4163,
      "établissement": 4164,
      "fluctu": 4165,
      "modernis": 4166,
      "montrent": 4167,
      "danemark": 4168,
      "gazeuses": 4169,
      "rayon": 4170,
      "financier": 4171,
      "jiang": 4172,
      "modalités": 4173,
      "aurait": 4174,
      "conteneurs": 4175,
      "formulaire": 4176,
      "préférences": 4177,
      "objectifs": 4178,
      "observations": 4179,
      "excellente": 4180,
      "pôts": 4181,
      "réputation": 4182,
      "chacun": 4183,
      "métriques": 4184,
      "sirop": 4185,
      "pauvreté": 4186,
      "transgéniques": 4187,
      "spectros": 4188,
      "vitamines": 4189,
      "embouteillée": 4190,
      "devises": 4191,
      "vétérin": 4192,
      "caméra": 4193,
      "brunswick": 4194,
      "astrophysique": 4195,
      "ben": 4196,
      "em": 4197,
      "kra": 4198,
      "kans": 4199,
      "lou": 4200,
      "nz": 4201,
      "nons": 4202,
      "sû": 4203,
      "ste": 4204,
      "yang": 4205,
      "enquête": 4206,
      "onde": 4207,
      "info": 4208,
      "infra": 4209,
      "recet": 4210,
      "quit": 4211,
      "quest": 4212,
      "ara": 4213,
      "arg": 4214,
      "lier": 4215,
      "trie": 4216,
      "ney": 4217,
      "ilo": 4218,
      "conserv": 4219,
      "paral": 4220,
      "paras": 4221,
      "détoi": 4222,
      "rév": 4223,
      "exac": 4224,
      "2008": 4225,
      "suisse": 4226,
      "doli": 4227,
      "verti": 4228,
      "verse": 4229,
      "issé": 4230,
      "appréci": 4231,
      "1970": 4232,
      "minim": 4233,
      "sommet": 4234,
      "gueurs": 4235,
      "navi": 4236,
      "sector": 4237,
      "transpar": 4238,
      "longueurs": 4239,
      "ssement": 4240,
      "nordaméri": 4241,
      "stronome": 4242,
      "représenté": 4243,
      "représentait": 4244,
      "istor": 4245,
      "souff": 4246,
      "possé": 4247,
      "crou": 4248,
      "annéeslumière": 4249,
      "gouvernements": 4250,
      "poules": 4251,
      "lextérieur": 4252,
      "emploi": 4253,
      "cieuse": 4254,
      "ctares": 4255,
      "minutes": 4256,
      "médias": 4257,
      "hectares": 4258,
      "atteig": 4259,
      "approxi": 4260,
      "arabe": 4261,
      "marchandise": 4262,
      "accorde": 4263,
      "équipe": 4264,
      "industry": 4265,
      "lignes": 4266,
      "lapprovisionnement": 4267,
      "hareng": 4268,
      "évaluées": 4269,
      "acide": 4270,
      "syn": 4271,
      "appelé": 4272,
      "aura": 4273,
      "meilleures": 4274,
      "progressé": 4275,
      "lentement": 4276,
      "initiatives": 4277,
      "végétale": 4278,
      "éventu": 4279,
      "découverte": 4280,
      "accéder": 4281,
      "pénétrer": 4282,
      "phénom": 4283,
      "raffin": 4284,
      "doctorat": 4285,
      "obligatoire": 4286,
      "development": 4287,
      "aplatie": 4288,
      "résumé": 4289,
      "tartinades": 4290,
      "kansai": 4291,
      "recettes": 4292,
      "nordamérica": 4293,
      "71": 4294,
      "bai": 4295,
      "curs": 4296,
      "histor": 4297,
      "iv": 4298,
      "lorigine": 4299,
      "nar": 4300,
      "pis": 4301,
      "ption": 4302,
      "éu": 4303,
      "éloig": 4304,
      "relève": 4305,
      "ett": 4306,
      "proviennent": 4307,
      "progrès": 4308,
      "deur": 4309,
      "rac": 4310,
      "conven": 4311,
      "conception": 4312,
      "pavil": 4313,
      "cier": 4314,
      "compren": 4315,
      "dabord": 4316,
      "agence": 4317,
      "surge": 4318,
      "actif": 4319,
      "tokyo": 4320,
      "noy": 4321,
      "noir": 4322,
      "forê": 4323,
      "mété": 4324,
      "perti": 4325,
      "pédition": 4326,
      "dispose": 4327,
      "naît": 4328,
      "lintention": 4329,
      "lintérieur": 4330,
      "valeurs": 4331,
      "the": 4332,
      "than": 4333,
      "carcasse": 4334,
      "augmentent": 4335,
      "humaine": 4336,
      "unité": 4337,
      "détails": 4338,
      "doute": 4339,
      "douest": 4340,
      "vrai": 4341,
      "2010": 4342,
      "pouvant": 4343,
      "organisations": 4344,
      "peutêtre": 4345,
      "bonnes": 4346,
      "certaine": 4347,
      "sites": 4348,
      "dinvestissement": 4349,
      "succurs": 4350,
      "situés": 4351,
      "lettre": 4352,
      "maind": 4353,
      "grig": 4354,
      "bureaux": 4355,
      "désir": 4356,
      "chiffrées": 4357,
      "emballages": 4358,
      "équipement": 4359,
      "localement": 4360,
      "autorisé": 4361,
      "structions": 4362,
      "consiste": 4363,
      "miel": 4364,
      "changement": 4365,
      "ménage": 4366,
      "électro": 4367,
      "lordonnance": 4368,
      "longtemps": 4369,
      "photographie": 4370,
      "débuts": 4371,
      "compagnies": 4372,
      "dominent": 4373,
      "létablissement": 4374,
      "efficaces": 4375,
      "morce": 4376,
      "lumineux": 4377,
      "feuille": 4378,
      "décisions": 4379,
      "récolte": 4380,
      "minéraux": 4381,
      "pénur": 4382,
      "officielle": 4383,
      "professionnels": 4384,
      "hésion": 4385,
      "cuisinés": 4386,
      "trimestre": 4387,
      "lastrolab": 4388,
      "goûts": 4389,
      "labattage": 4390,
      "rythme": 4391,
      "approximati": 4392,
      "phénomène": 4393,
      "pavillon": 4394,
      "519": 4395,
      "87": 4396,
      "adé": 4397,
      "juri": 4398,
      "kg": 4399,
      "lorganisme": 4400,
      "mg": 4401,
      "mous": 4402,
      "ope": 4403,
      "vres": 4404,
      "vées": 4405,
      "vège": 4406,
      "ws": 4407,
      "éten": 4408,
      "enseig": 4409,
      "soc": 4410,
      "entes": 4411,
      "uration": 4412,
      "lastronome": 4413,
      "isée": 4414,
      "ref": 4415,
      "retrouve": 4416,
      "requis": 4417,
      "quac": 4418,
      "quées": 4419,
      "quences": 4420,
      "polit": 4421,
      "autour": 4422,
      "liers": 4423,
      "tabac": 4424,
      "cole": 4425,
      "coton": 4426,
      "coentreprise": 4427,
      "try": 4428,
      "profon": 4429,
      "prosp": 4430,
      "rait": 4431,
      "rafraî": 4432,
      "dique": 4433,
      "diri": 4434,
      "pourront": 4435,
      "estàdire": 4436,
      "rivi": 4437,
      "exprim": 4438,
      "cachers": 4439,
      "calauré": 4440,
      "pel": 4441,
      "cesse": 4442,
      "act": 4443,
      "cuisson": 4444,
      "form": 4445,
      "appara": 4446,
      "fore": 4447,
      "fais": 4448,
      "passée": 4449,
      "gique": 4450,
      "importent": 4451,
      "croît": 4452,
      "transfer": 4453,
      "boisson": 4454,
      "norvège": 4455,
      "muni": 4456,
      "entier": 4457,
      "dépen": 4458,
      "génériques": 4459,
      "crits": 4460,
      "dunlap": 4461,
      "she": 4462,
      "pesticides": 4463,
      "supermarché": 4464,
      "claire": 4465,
      "ulture": 4466,
      "laccord": 4467,
      "spécifiques": 4468,
      "industriel": 4469,
      "noms": 4470,
      "estimati": 4471,
      "particuliers": 4472,
      "climat": 4473,
      "australiens": 4474,
      "fair": 4475,
      "américaine": 4476,
      "servant": 4477,
      "routes": 4478,
      "dengrais": 4479,
      "garçon": 4480,
      "établie": 4481,
      "donésie": 4482,
      "exploite": 4483,
      "farines": 4484,
      "photographi": 4485,
      "étiquetage": 4486,
      "alcool": 4487,
      "résultat": 4488,
      "acia": 4489,
      "seconde": 4490,
      "occidental": 4491,
      "propriétaire": 4492,
      "modèle": 4493,
      "territoires": 4494,
      "ccd": 4495,
      "baccalauré": 4496,
      "urbains": 4497,
      "cueilli": 4498,
      "simple": 4499,
      "wich": 4500,
      "intellec": 4501,
      "devenue": 4502,
      "golden": 4503,
      "gagné": 4504,
      "précédente": 4505,
      "phytosanitaires": 4506,
      "douanières": 4507,
      "exclusi": 4508,
      "description": 4509,
      "cellules": 4510,
      "célestes": 4511,
      "annoncé": 4512,
      "mangent": 4513,
      "violet": 4514,
      "supplémentaires": 4515,
      "standar": 4516,
      "histoire": 4517,
      "facilement": 4518,
      "economi": 4519,
      "frontière": 4520,
      "licious": 4521,
      "lafma": 4522,
      "parallè": 4523,
      "quaculture": 4524,
      "rafraîch": 4525,
      "baccalauréat": 4526,
      "73": 4527,
      "700": 4528,
      "82": 4529,
      "800": 4530,
      "93": 4531,
      "cm": 4532,
      "dal": 4533,
      "fas": 4534,
      "gal": 4535,
      "naires": 4536,
      "tus": 4537,
      "zo": 4538,
      "enrich": 4539,
      "anas": 4540,
      "tine": 4541,
      "inaug": 4542,
      "instructions": 4543,
      "duti": 4544,
      "propose": 4545,
      "delicious": 4546,
      "convention": 4547,
      "contexte": 4548,
      "maî": 4549,
      "massi": 4550,
      "mayon": 4551,
      "dimen": 4552,
      "parle": 4553,
      "parfois": 4554,
      "resser": 4555,
      "siè": 4556,
      "veul": 4557,
      "extra": 4558,
      "cali": 4559,
      "peaux": 4560,
      "suivent": 4561,
      "toma": 4562,
      "fies": 4563,
      "saka": 4564,
      "mination": 4565,
      "gion": 4566,
      "liser": 4567,
      "visent": 4568,
      "peup": 4569,
      "mand": 4570,
      "centrale": 4571,
      "blir": 4572,
      "dépit": 4573,
      "fourn": 4574,
      "organiques": 4575,
      "crise": 4576,
      "dentrée": 4577,
      "2015": 4578,
      "shi": 4579,
      "trice": 4580,
      "courante": 4581,
      "directe": 4582,
      "gouvernementales": 4583,
      "indiennes": 4584,
      "positive": 4585,
      "color": 4586,
      "industriels": 4587,
      "malheureusement": 4588,
      "cliquer": 4589,
      "chose": 4590,
      "seuls": 4591,
      "déclin": 4592,
      "sand": 4593,
      "sanitaire": 4594,
      "occup": 4595,
      "signé": 4596,
      "considérés": 4597,
      "ajouté": 4598,
      "substitu": 4599,
      "enregistrés": 4600,
      "celuici": 4601,
      "travaille": 4602,
      "amélio": 4603,
      "vivant": 4604,
      "nouveaubrunswick": 4605,
      "emploie": 4606,
      "1987": 4607,
      "pointe": 4608,
      "figurent": 4609,
      "compétent": 4610,
      "multinationales": 4611,
      "saoudi": 4612,
      "européens": 4613,
      "daccroître": 4614,
      "intérêts": 4615,
      "neutrin": 4616,
      "aromati": 4617,
      "sensibles": 4618,
      "défini": 4619,
      "intermédiaire": 4620,
      "microorganismes": 4621,
      "originale": 4622,
      "herz": 4623,
      "renforcer": 4624,
      "communau": 4625,
      "devront": 4626,
      "démographique": 4627,
      "encourage": 4628,
      "oléagineux": 4629,
      "oléagineuses": 4630,
      "brevets": 4631,
      "aéro": 4632,
      "dulcor": 4633,
      "gomme": 4634,
      "pâtisseries": 4635,
      "séchées": 4636,
      "mélioration": 4637,
      "préoccupations": 4638,
      "diagno": 4639,
      "rayonnement": 4640,
      "argentine": 4641,
      "sectorie": 4642,
      "météor": 4643,
      "intellectuelle": 4644,
      "standards": 4645,
      "mayonna": 4646,
      "veulent": 4647,
      "61": 4648,
      "aine": 4649,
      "ative": 4650,
      "dentreposage": 4651,
      "eas": 4652,
      "flor": 4653,
      "ht": 4654,
      "lâge": 4655,
      "mau": 4656,
      "mère": 4657,
      "vul": 4658,
      "vites": 4659,
      "xy": 4660,
      "émis": 4661,
      "éner": 4662,
      "esse": 4663,
      "ura": 4664,
      "lable": 4665,
      "lambassade": 4666,
      "inu": 4667,
      "infor": 4668,
      "indirects": 4669,
      "rece": 4670,
      "quarti": 4671,
      "prai": 4672,
      "posant": 4673,
      "artifi": 4674,
      "aupar": 4675,
      "proche": 4676,
      "conversion": 4677,
      "connus": 4678,
      "dig": 4679,
      "ditifs": 4680,
      "déf": 4681,
      "simi": 4682,
      "mariti": 4683,
      "immédia": 4684,
      "excédent": 4685,
      "ago": 4686,
      "vidu": 4687,
      "vive": 4688,
      "lévolution": 4689,
      "entrepôts": 4690,
      "issances": 4691,
      "perman": 4692,
      "aspec": 4693,
      "1955": 4694,
      "attirer": 4695,
      "big": 4696,
      "cerie": 4697,
      "chemin": 4698,
      "mona": 4699,
      "observe": 4700,
      "linté": 4701,
      "lindonésie": 4702,
      "bol": 4703,
      "renouve": 4704,
      "ariats": 4705,
      "bran": 4706,
      "douce": 4707,
      "stable": 4708,
      "180": 4709,
      "spéciales": 4710,
      "préparées": 4711,
      "transformé": 4712,
      "calor": 4713,
      "contrat": 4714,
      "maintenir": 4715,
      "australia": 4716,
      "permettant": 4717,
      "considéré": 4718,
      "hydro": 4719,
      "nécessit": 4720,
      "dapprovisionnement": 4721,
      "latmosphère": 4722,
      "celleci": 4723,
      "pied": 4724,
      "partenariat": 4725,
      "partenariats": 4726,
      "contribue": 4727,
      "côté": 4728,
      "possibilité": 4729,
      "laliment": 4730,
      "affir": 4731,
      "optique": 4732,
      "suffisant": 4733,
      "travaillent": 4734,
      "plein": 4735,
      "concentrés": 4736,
      "thomas": 4737,
      "construire": 4738,
      "présentement": 4739,
      "modifié": 4740,
      "déclaration": 4741,
      "ccg": 4742,
      "contenants": 4743,
      "cidessous": 4744,
      "protéines": 4745,
      "approuvés": 4746,
      "garantir": 4747,
      "évolutionimages": 4748,
      "procédure": 4749,
      "arrive": 4750,
      "voisins": 4751,
      "myan": 4752,
      "homme": 4753,
      "hommes": 4754,
      "industrial": 4755,
      "0118": 4756,
      "visiteurs": 4757,
      "recen": 4758,
      "satellite": 4759,
      "privatis": 4760,
      "échantillons": 4761,
      "largir": 4762,
      "périodes": 4763,
      "arctique": 4764,
      "çoit": 4765,
      "espèces": 4766,
      "concept": 4767,
      "électromagnétique": 4768,
      "economic": 4769,
      "herzberg": 4770,
      "diagnosti": 4771,
      "auparavant": 4772,
      "83": 4773,
      "89": 4774,
      "aac": 4775,
      "cà": 4776,
      "clo": 4777,
      "glace": 4778,
      "hs": 4779,
      "iz": 4780,
      "ière": 4781,
      "km": 4782,
      "ks": 4783,
      "our": 4784,
      "opé": 4785,
      "pens": 4786,
      "vité": 4787,
      "wil": 4788,
      "èles": 4789,
      "écu": 4790,
      "tio": 4791,
      "tines": 4792,
      "tirant": 4793,
      "lavenir": 4794,
      "incom": 4795,
      "indépend": 4796,
      "reg": 4797,
      "rement": 4798,
      "reprise": 4799,
      "lesquelles": 4800,
      "prit": 4801,
      "itob": 4802,
      "arron": 4803,
      "taine": 4804,
      "tables": 4805,
      "provo": 4806,
      "procur": 4807,
      "nex": 4808,
      "neur": 4809,
      "neau": 4810,
      "rador": 4811,
      "lutte": 4812,
      "papier": 4813,
      "cice": 4814,
      "siq": 4815,
      "dad": 4816,
      "rigoure": 4817,
      "martin": 4818,
      "exper": 4819,
      "expos": 4820,
      "exige": 4821,
      "lour": 4822,
      "agru": 4823,
      "vir": 4824,
      "léqui": 4825,
      "culin": 4826,
      "milk": 4827,
      "seraient": 4828,
      "portu": 4829,
      "aboli": 4830,
      "canadaisraël": 4831,
      "assaison": 4832,
      "disposent": 4833,
      "ventions": 4834,
      "bibli": 4835,
      "dson": 4836,
      "séquence": 4837,
      "prior": 4838,
      "interfé": 4839,
      "sondage": 4840,
      "graisses": 4841,
      "linvestissement": 4842,
      "rend": 4843,
      "thon": 4844,
      "derrière": 4845,
      "carbur": 4846,
      "manitob": 4847,
      "nordouest": 4848,
      "ouverture": 4849,
      "hudson": 4850,
      "égard": 4851,
      "stipu": 4852,
      "aliser": 4853,
      "sociation": 4854,
      "soutenue": 4855,
      "velopp": 4856,
      "unique": 4857,
      "sher": 4858,
      "chides": 4859,
      "chiens": 4860,
      "indiquer": 4861,
      "individu": 4862,
      "addition": 4863,
      "publicité": 4864,
      "générales": 4865,
      "contiennent": 4866,
      "productivité": 4867,
      "daliment": 4868,
      "préparer": 4869,
      "semblent": 4870,
      "lentes": 4871,
      "laska": 4872,
      "club": 4873,
      "exigent": 4874,
      "exigés": 4875,
      "légère": 4876,
      "quatri": 4877,
      "labsence": 4878,
      "labrador": 4879,
      "continuer": 4880,
      "subventions": 4881,
      "équival": 4882,
      "demeurer": 4883,
      "réduit": 4884,
      "réduits": 4885,
      "nestle": 4886,
      "manipu": 4887,
      "effectue": 4888,
      "assurance": 4889,
      "saveurs": 4890,
      "évaluation": 4891,
      "affiché": 4892,
      "accrues": 4893,
      "applica": 4894,
      "application": 4895,
      "danao": 4896,
      "procéder": 4897,
      "favorise": 4898,
      "incluent": 4899,
      "délégués": 4900,
      "sensibil": 4901,
      "suffisance": 4902,
      "skat": 4903,
      "quisition": 4904,
      "obstacle": 4905,
      "accélé": 4906,
      "stratégies": 4907,
      "faciliter": 4908,
      "céleste": 4909,
      "endroit": 4910,
      "endroits": 4911,
      "stimuler": 4912,
      "déficit": 4913,
      "accueil": 4914,
      "établit": 4915,
      "dget": 4916,
      "instantan": 4917,
      "k1a": 4918,
      "fondament": 4919,
      "résidus": 4920,
      "libéralisation": 4921,
      "hawaï": 4922,
      "lautorité": 4923,
      "infrastructures": 4924,
      "détoiles": 4925,
      "morceaux": 4926,
      "foreign": 4927,
      "transfert": 4928,
      "neutrinos": 4929,
      "myanmar": 4930,
      "càd": 4931,
      "agrumes": 4932,
      "biblio": 4933,
      "amas": 4934,
      "avenue": 4935,
      "dentreprise": 4936,
      "hel": 4937,
      "iq": 4938,
      "ice": 4939,
      "langes": 4940,
      "ppe": 4941,
      "qsiq": 4942,
      "sants": 4943,
      "vali": 4944,
      "wal": 4945,
      "ward": 4946,
      "çue": 4947,
      "édulcor": 4948,
      "ômage": 4949,
      "tien": 4950,
      "urban": 4951,
      "lai": 4952,
      "lagro": 4953,
      "incon": 4954,
      "invisible": 4955,
      "ree": 4956,
      "etou": 4957,
      "pom": 4958,
      "dessai": 4959,
      "chômage": 4960,
      "tative": 4961,
      "coor": 4962,
      "provient": 4963,
      "neige": 4964,
      "illu": 4965,
      "dec": 4966,
      "demp": 4967,
      "devant": 4968,
      "deviennent": 4969,
      "convient": 4970,
      "portée": 4971,
      "masse": 4972,
      "maxi": 4973,
      "anté": 4974,
      "diplo": 4975,
      "ied": 4976,
      "dérable": 4977,
      "développ": 4978,
      "téri": 4979,
      "témo": 4980,
      "réper": 4981,
      "veur": 4982,
      "cata": 4983,
      "cacao": 4984,
      "agré": 4985,
      "accessi": 4986,
      "toirs": 4987,
      "servé": 4988,
      "entrepren": 4989,
      "mélanges": 4990,
      "saskat": 4991,
      "perdu": 4992,
      "pui": 4993,
      "vol": 4994,
      "voient": 4995,
      "attention": 4996,
      "mindanao": 4997,
      "facile": 4998,
      "vend": 4999,
      "consommés": 5000,
      "chewan": 5001,
      "sécher": 5002,
      "guel": 5003,
      "présents": 5004,
      "boî": 5005,
      "carbon": 5006,
      "carnés": 5007,
      "preuve": 5008,
      "utiles": 5009,
      "biotechnology": 5010,
      "moyennes": 5011,
      "bei": 5012,
      "comptant": 5013,
      "généraux": 5014,
      "soupes": 5015,
      "unilever": 5016,
      "amér": 5017,
      "courant": 5018,
      "indienne": 5019,
      "buck": 5020,
      "budget": 5021,
      "grossi": 5022,
      "style": 5023,
      "haus": 5024,
      "actuelles": 5025,
      "nommé": 5026,
      "estimé": 5027,
      "estimée": 5028,
      "lassociation": 5029,
      "particulière": 5030,
      "calcu": 5031,
      "malt": 5032,
      "homo": 5033,
      "fumi": 5034,
      "berta": 5035,
      "concernés": 5036,
      "prêt": 5037,
      "nécessité": 5038,
      "animal": 5039,
      "conformes": 5040,
      "crire": 5041,
      "mentionnons": 5042,
      "conséquences": 5043,
      "jeune": 5044,
      "institution": 5045,
      "water": 5046,
      "fraîche": 5047,
      "chocola": 5048,
      "doré": 5049,
      "lunette": 5050,
      "caution": 5051,
      "occidentale": 5052,
      "offertes": 5053,
      "communications": 5054,
      "freder": 5055,
      "réfrigéré": 5056,
      "bury": 5057,
      "confiance": 5058,
      "marquée": 5059,
      "influence": 5060,
      "bilatéraux": 5061,
      "caractères": 5062,
      "ignons": 5063,
      "stocks": 5064,
      "inférieure": 5065,
      "kilogrammes": 5066,
      "pôles": 5067,
      "expérience": 5068,
      "aborda": 5069,
      "cultivées": 5070,
      "détecter": 5071,
      "hanoi": 5072,
      "clientèle": 5073,
      "estimations": 5074,
      "well": 5075,
      "coûteux": 5076,
      "terrain": 5077,
      "cliniques": 5078,
      "grigno": 5079,
      "soccu": 5080,
      "rivière": 5081,
      "maîtr": 5082,
      "siècle": 5083,
      "califor": 5084,
      "mayonnaise": 5085,
      "quatrième": 5086,
      "saskatchewan": 5087,
      "070": 5088,
      "113": 5089,
      "94": 5090,
      "943": 5091,
      "atil": 5092,
      "cp": 5093,
      "caux": 5094,
      "dru": 5095,
      "gments": 5096,
      "line": 5097,
      "lîle": 5098,
      "nt": 5099,
      "ning": 5100,
      "sang": 5101,
      "vons": 5102,
      "west": 5103,
      "xim": 5104,
      "yant": 5105,
      "çus": 5106,
      "édi": 5107,
      "soins": 5108,
      "lachat": 5109,
      "inage": 5110,
      "intention": 5111,
      "issu": 5112,
      "rea": 5113,
      "ets": 5114,
      "quie": 5115,
      "quée": 5116,
      "liran": 5117,
      "tein": 5118,
      "coentreprises": 5119,
      "prou": 5120,
      "promet": 5121,
      "propos": 5122,
      "proxim": 5123,
      "nelles": 5124,
      "semis": 5125,
      "segments": 5126,
      "deurs": 5127,
      "quemment": 5128,
      "diques": 5129,
      "lucra": 5130,
      "restre": 5131,
      "produite": 5132,
      "défis": 5133,
      "dévaluation": 5134,
      "cia": 5135,
      "alan": 5136,
      "alberta": 5137,
      "data": 5138,
      "viendra": 5139,
      "lépi": 5140,
      "nébu": 5141,
      "domes": 5142,
      "moindre": 5143,
      "cule": 5144,
      "portes": 5145,
      "saine": 5146,
      "sassurer": 5147,
      "usda": 5148,
      "usine": 5149,
      "usage": 5150,
      "ffre": 5151,
      "att": 5152,
      "atten": 5153,
      "griller": 5154,
      "génie": 5155,
      "nations": 5156,
      "gration": 5157,
      "baissé": 5158,
      "final": 5159,
      "finale": 5160,
      "103": 5161,
      "nordest": 5162,
      "compter": 5163,
      "soutenir": 5164,
      "limport": 5165,
      "plask": 5166,
      "gouvernementaux": 5167,
      "publication": 5168,
      "piz": 5169,
      "lactée": 5170,
      "minute": 5171,
      "rera": 5172,
      "touris": 5173,
      "fera": 5174,
      "joue": 5175,
      "continent": 5176,
      "singapouriens": 5177,
      "collo": 5178,
      "collè": 5179,
      "dexcel": 5180,
      "dexpédition": 5181,
      "importée": 5182,
      "situations": 5183,
      "coopéra": 5184,
      "plani": 5185,
      "planète": 5186,
      "dimporter": 5187,
      "charles": 5188,
      "charbon": 5189,
      "différences": 5190,
      "roupies": 5191,
      "désire": 5192,
      "signature": 5193,
      "ayas": 5194,
      "connues": 5195,
      "demeur": 5196,
      "réalise": 5197,
      "commercialiser": 5198,
      "responsables": 5199,
      "viter": 5200,
      "1971": 5201,
      "1977": 5202,
      "hiver": 5203,
      "respecter": 5204,
      "œufs": 5205,
      "texti": 5206,
      "rêt": 5207,
      "cellesci": 5208,
      "portées": 5209,
      "compagnie": 5210,
      "capitaux": 5211,
      "concentrer": 5212,
      "construit": 5213,
      "exploitations": 5214,
      "froi": 5215,
      "meilleur": 5216,
      "conclusion": 5217,
      "yogo": 5218,
      "fondation": 5219,
      "licences": 5220,
      "lecteurs": 5221,
      "consacrées": 5222,
      "vietnamiens": 5223,
      "suffisamment": 5224,
      "approuvé": 5225,
      "bilatérales": 5226,
      "circuits": 5227,
      "chets": 5228,
      "inspections": 5229,
      "compétitivité": 5230,
      "énoncées": 5231,
      "assujettis": 5232,
      "starbuck": 5233,
      "étudier": 5234,
      "expéditions": 5235,
      "engagement": 5236,
      "extrême": 5237,
      "souhaitent": 5238,
      "modifications": 5239,
      "peter": 5240,
      "prince": 5241,
      "dynamique": 5242,
      "orbit": 5243,
      "ralentissement": 5244,
      "élabor": 5245,
      "sistance": 5246,
      "métropolit": 5247,
      "législation": 5248,
      "surgelé": 5249,
      "approximativement": 5250,
      "clairement": 5251,
      "lintérêt": 5252,
      "diagnostic": 5253,
      "manitoba": 5254,
      "lagroalimentaire": 5255,
      "grignotines": 5256,
      "nébule": 5257,
      "plaskett": 5258,
      "07": 5259,
      "112": 5260,
      "ado": 5261,
      "amb": 5262,
      "alaska": 5263,
      "bande": 5264,
      "det": 5265,
      "durs": 5266,
      "danger": 5267,
      "opéra": 5268,
      "ologiques": 5269,
      "rr": 5270,
      "rite": 5271,
      "sis": 5272,
      "stre": 5273,
      "tva": 5274,
      "wn": 5275,
      "âtre": 5276,
      "ément": 5277,
      "époque": 5278,
      "ôme": 5279,
      "essource": 5280,
      "espace": 5281,
      "endu": 5282,
      "solaires": 5283,
      "lables": 5284,
      "incit": 5285,
      "revan": 5286,
      "recueilli": 5287,
      "lest": 5288,
      "lique": 5289,
      "liée": 5290,
      "colu": 5291,
      "coordin": 5292,
      "oul": 5293,
      "sex": 5294,
      "raire": 5295,
      "contra": 5296,
      "confé": 5297,
      "contrain": 5298,
      "mains": 5299,
      "orange": 5300,
      "luçon": 5301,
      "rester": 5302,
      "cible": 5303,
      "réception": 5304,
      "alyse": 5305,
      "algon": 5306,
      "poursuit": 5307,
      "dait": 5308,
      "marqué": 5309,
      "exporte": 5310,
      "exactitude": 5311,
      "néo": 5312,
      "toir": 5313,
      "vert": 5314,
      "cules": 5315,
      "note": 5316,
      "étaires": 5317,
      "étapes": 5318,
      "attra": 5319,
      "canadian": 5320,
      "lissement": 5321,
      "vais": 5322,
      "prévue": 5323,
      "privil": 5324,
      "interdit": 5325,
      "visayas": 5326,
      "lanalyse": 5327,
      "cultur": 5328,
      "bleu": 5329,
      "bais": 5330,
      "corri": 5331,
      "centa": 5332,
      "techni": 5333,
      "détablir": 5334,
      "intég": 5335,
      "130": 5336,
      "neressource": 5337,
      "lexception": 5338,
      "lexploitation": 5339,
      "lexistence": 5340,
      "suivis": 5341,
      "foodex": 5342,
      "administr": 5343,
      "additifs": 5344,
      "145": 5345,
      "spéciaux": 5346,
      "éché": 5347,
      "ferment": 5348,
      "actuel": 5349,
      "particules": 5350,
      "239": 5351,
      "netto": 5352,
      "transformée": 5353,
      "personneressource": 5354,
      "mondiales": 5355,
      "climatiques": 5356,
      "connaissances": 5357,
      "banan": 5358,
      "accordé": 5359,
      "constitué": 5360,
      "décri": 5361,
      "affec": 5362,
      "weï": 5363,
      "considérée": 5364,
      "franc": 5365,
      "continuera": 5366,
      "enregistrée": 5367,
      "associés": 5368,
      "fection": 5369,
      "pratiqu": 5370,
      "jusquen": 5371,
      "amélioration": 5372,
      "shanghaï": 5373,
      "conformer": 5374,
      "royal": 5375,
      "officiel": 5376,
      "traditionnelles": 5377,
      "côti": 5378,
      "naturel": 5379,
      "figur": 5380,
      "koweï": 5381,
      "essentiel": 5382,
      "laitière": 5383,
      "particip": 5384,
      "trouvera": 5385,
      "zaines": 5386,
      "boulangeries": 5387,
      "posées": 5388,
      "remplir": 5389,
      "concentré": 5390,
      "rivés": 5391,
      "possèdent": 5392,
      "fromage": 5393,
      "élève": 5394,
      "exportées": 5395,
      "géographiques": 5396,
      "géographie": 5397,
      "récents": 5398,
      "diversification": 5399,
      "fret": 5400,
      "paiements": 5401,
      "méridi": 5402,
      "lenquête": 5403,
      "vietnamien": 5404,
      "vietnamienne": 5405,
      "recommandé": 5406,
      "adopté": 5407,
      "bilatéral": 5408,
      "provinciaux": 5409,
      "axée": 5410,
      "descriptions": 5411,
      "industrialis": 5412,
      "favorable": 5413,
      "favorables": 5414,
      "dimportants": 5415,
      "vingt": 5416,
      "robins": 5417,
      "intensi": 5418,
      "book": 5419,
      "amateur": 5420,
      "théorie": 5421,
      "révélé": 5422,
      "événements": 5423,
      "intrants": 5424,
      "montagnes": 5425,
      "doffrir": 5426,
      "révèle": 5427,
      "dolive": 5428,
      "narration": 5429,
      "vraiment": 5430,
      "rafraîchissante": 5431,
      "améliorations": 5432,
      "quartier": 5433,
      "privatisation": 5434,
      "procurer": 5435,
      "applicables": 5436,
      "bibliographie": 5437,
      "reeves": 5438,
      "illustr": 5439,
      "maîtrise": 5440,
      "proximité": 5441,
      "revanche": 5442,
      "06": 5443,
      "116": 5444,
      "220": 5445,
      "ace": 5446,
      "apec": 5447,
      "atifs": 5448,
      "adul": 5449,
      "bc": 5450,
      "blue": 5451,
      "crée": 5452,
      "dgcca": 5453,
      "daugmenter": 5454,
      "dhabitants": 5455,
      "eil": 5456,
      "fal": 5457,
      "fillet": 5458,
      "gin": 5459,
      "hill": 5460,
      "jer": 5461,
      "ket": 5462,
      "lentre": 5463,
      "lancement": 5464,
      "nan": 5465,
      "od": 5466,
      "py": 5467,
      "ples": 5468,
      "pure": 5469,
      "sag": 5470,
      "ènes": 5471,
      "étique": 5472,
      "étend": 5473,
      "essor": 5474,
      "espagne": 5475,
      "ana": 5476,
      "entrent": 5477,
      "lavis": 5478,
      "lapplication": 5479,
      "lamélioration": 5480,
      "ert": 5481,
      "iné": 5482,
      "inconsomma": 5483,
      "inconnue": 5484,
      "issus": 5485,
      "rez": 5486,
      "remarqu": 5487,
      "eth": 5488,
      "etti": 5489,
      "quali": 5490,
      "prée": 5491,
      "iture": 5492,
      "arrivée": 5493,
      "livre": 5494,
      "taxes": 5495,
      "cola": 5496,
      "prolon": 5497,
      "depart": 5498,
      "raires": 5499,
      "conjo": 5500,
      "conçu": 5501,
      "ori": 5502,
      "ores": 5503,
      "diction": 5504,
      "déch": 5505,
      "aiment": 5506,
      "commod": 5507,
      "réel": 5508,
      "réalité": 5509,
      "réfléch": 5510,
      "mei": 5511,
      "meat": 5512,
      "dachet": 5513,
      "rique": 5514,
      "riche": 5515,
      "imprim": 5516,
      "robin": 5517,
      "agen": 5518,
      "accu": 5519,
      "doté": 5520,
      "modé": 5521,
      "aban": 5522,
      "george": 5523,
      "métrie": 5524,
      "médec": 5525,
      "sain": 5526,
      "usta": 5527,
      "assu": 5528,
      "vot": 5529,
      "angu": 5530,
      "fao": 5531,
      "faveur": 5532,
      "larrivée": 5533,
      "igne": 5534,
      "prévu": 5535,
      "nam": 5536,
      "présentés": 5537,
      "transforma": 5538,
      "transitaires": 5539,
      "grain": 5540,
      "gais": 5541,
      "missions": 5542,
      "ther": 5543,
      "thèse": 5544,
      "carot": 5545,
      "carling": 5546,
      "formats": 5547,
      "metro": 5548,
      "dépi": 5549,
      "cadres": 5550,
      "utilisations": 5551,
      "crite": 5552,
      "mener": 5553,
      "douard": 5554,
      "ings": 5555,
      "intéresse": 5556,
      "limites": 5557,
      "poulets": 5558,
      "plateau": 5559,
      "supersol": 5560,
      "juste": 5561,
      "indiqué": 5562,
      "125": 5563,
      "positifs": 5564,
      "positif": 5565,
      "tropi": 5566,
      "165": 5567,
      "relatifs": 5568,
      "stand": 5569,
      "prescrip": 5570,
      "industrielle": 5571,
      "breu": 5572,
      "calcul": 5573,
      "lettres": 5574,
      "turquie": 5575,
      "thaïlanda": 5576,
      "connaissent": 5577,
      "permettra": 5578,
      "montants": 5579,
      "accordée": 5580,
      "étudie": 5581,
      "différence": 5582,
      "susmention": 5583,
      "lorsquil": 5584,
      "sign": 5585,
      "wealth": 5586,
      "associées": 5587,
      "autorisés": 5588,
      "travailler": 5589,
      "totalisant": 5590,
      "livraison": 5591,
      "universités": 5592,
      "employés": 5593,
      "manioc": 5594,
      "bruné": 5595,
      "précisé": 5596,
      "évaluer": 5597,
      "financières": 5598,
      "visibles": 5599,
      "familiers": 5600,
      "fédération": 5601,
      "conclusions": 5602,
      "récentes": 5603,
      "fréquemment": 5604,
      "réfrigérés": 5605,
      "belgique": 5606,
      "réussite": 5607,
      "franchises": 5608,
      "commencent": 5609,
      "veut": 5610,
      "expédition": 5611,
      "ordinaire": 5612,
      "inspecteur": 5613,
      "constamment": 5614,
      "concurrentiel": 5615,
      "lusine": 5616,
      "distinc": 5617,
      "guerre": 5618,
      "semence": 5619,
      "gommes": 5620,
      "traditionnellement": 5621,
      "faudra": 5622,
      "minhville": 5623,
      "téroï": 5624,
      "délicieuse": 5625,
      "déquipements": 5626,
      "abond": 5627,
      "appartient": 5628,
      "irrigation": 5629,
      "biotechnologique": 5630,
      "interstellaire": 5631,
      "considèrent": 5632,
      "crousti": 5633,
      "noyau": 5634,
      "pénurie": 5635,
      "adéqua": 5636,
      "munici": 5637,
      "sandwich": 5638,
      "vitesse": 5639,
      "recensement": 5640,
      "arrondie": 5641,
      "coordonnées": 5642,
      "sécheresse": 5643,
      "beijing": 5644,
      "starbucks": 5645,
      "extrêmement": 5646,
      "métropolitaine": 5647,
      "columb": 5648,
      "coordination": 5649,
      "algonquin": 5650,
      "néozé": 5651,
      "technicien": 5652,
      "préembal": 5653,
      "department": 5654,
      "commodité": 5655,
      "7e": 5656,
      "91": 5657,
      "ate": 5658,
      "by": 5659,
      "bro": 5660,
      "bag": 5661,
      "dr": 5662,
      "dits": 5663,
      "dorganismes": 5664,
      "gau": 5665,
      "glu": 5666,
      "heur": 5667,
      "htm": 5668,
      "io": 5669,
      "ick": 5670,
      "kh": 5671,
      "kat": 5672,
      "mant": 5673,
      "mité": 5674,
      "puri": 5675,
      "tang": 5676,
      "tants": 5677,
      "usion": 5678,
      "vrent": 5679,
      "vaient": 5680,
      "wh": 5681,
      "way": 5682,
      "émer": 5683,
      "écou": 5684,
      "édouard": 5685,
      "ña": 5686,
      "œil": 5687,
      "envers": 5688,
      "tiré": 5689,
      "tiendra": 5690,
      "soya": 5691,
      "lalle": 5692,
      "laos": 5693,
      "laurent": 5694,
      "laméri": 5695,
      "lagence": 5696,
      "insu": 5697,
      "invent": 5698,
      "rem": 5699,
      "relation": 5700,
      "reçoit": 5701,
      "art": 5702,
      "duprince": 5703,
      "tela": 5704,
      "chan": 5705,
      "colon": 5706,
      "ceci": 5707,
      "dements": 5708,
      "devait": 5709,
      "ratio": 5710,
      "contro": 5711,
      "conforme": 5712,
      "conclure": 5713,
      "males": 5714,
      "divis": 5715,
      "paris": 5716,
      "parler": 5717,
      "restent": 5718,
      "dég": 5719,
      "décro": 5720,
      "délais": 5721,
      "cif": 5722,
      "common": 5723,
      "comporte": 5724,
      "comètes": 5725,
      "medi": 5726,
      "poursuivre": 5727,
      "davoir": 5728,
      "dassurer": 5729,
      "ria": 5730,
      "impli": 5731,
      "exis": 5732,
      "camp": 5733,
      "loffre": 5734,
      "subi": 5735,
      "virus": 5736,
      "tomb": 5737,
      "doeuvre": 5738,
      "mobi": 5739,
      "miguel": 5740,
      "cussi": 5741,
      "forment": 5742,
      "force": 5743,
      "fortes": 5744,
      "meri": 5745,
      "perform": 5746,
      "tences": 5747,
      "apportées": 5748,
      "étape": 5749,
      "attendre": 5750,
      "touchant": 5751,
      "croy": 5752,
      "préhen": 5753,
      "prévues": 5754,
      "guin": 5755,
      "nuages": 5756,
      "monte": 5757,
      "visites": 5758,
      "transit": 5759,
      "oblig": 5760,
      "boire": 5761,
      "principes": 5762,
      "culti": 5763,
      "céder": 5764,
      "carcas": 5765,
      "ssier": 5766,
      "euve": 5767,
      "leurope": 5768,
      "cents": 5769,
      "formal": 5770,
      "104": 5771,
      "ouverts": 5772,
      "comptaient": 5773,
      "génération": 5774,
      "génétiques": 5775,
      "soulig": 5776,
      "posée": 5777,
      "doublé": 5778,
      "douzaines": 5779,
      "régionales": 5780,
      "fontaine": 5781,
      "pouvez": 5782,
      "plaques": 5783,
      "supervision": 5784,
      "courants": 5785,
      "chiches": 5786,
      "directrices": 5787,
      "boute": 5788,
      "indice": 5789,
      "140": 5790,
      "lactivité": 5791,
      "laccroissement": 5792,
      "touristes": 5793,
      "ferro": 5794,
      "jouissent": 5795,
      "actuels": 5796,
      "pâte": 5797,
      "fact": 5798,
      "colza": 5799,
      "170": 5800,
      "175": 5801,
      "transformées": 5802,
      "situées": 5803,
      "dépensent": 5804,
      "approche": 5805,
      "déclar": 5806,
      "lorsqu": 5807,
      "homar": 5808,
      "considérables": 5809,
      "majeur": 5810,
      "ajoute": 5811,
      "autorisation": 5812,
      "capable": 5813,
      "salons": 5814,
      "1972": 5815,
      "lappui": 5816,
      "quoique": 5817,
      "effectuée": 5818,
      "1981": 5819,
      "jean": 5820,
      "asiatiques": 5821,
      "institute": 5822,
      "personnel": 5823,
      "expliquer": 5824,
      "city": 5825,
      "cuisines": 5826,
      "précise": 5827,
      "évalué": 5828,
      "opti": 5829,
      "essentiels": 5830,
      "participé": 5831,
      "fficacité": 5832,
      "compétences": 5833,
      "dorge": 5834,
      "exportent": 5835,
      "green": 5836,
      "delà": 5837,
      "delhi": 5838,
      "newton": 5839,
      "appel": 5840,
      "auront": 5841,
      "tarde": 5842,
      "épices": 5843,
      "composée": 5844,
      "pharmaceutical": 5845,
      "progression": 5846,
      "allemand": 5847,
      "introduit": 5848,
      "solides": 5849,
      "prochaine": 5850,
      "simplement": 5851,
      "protéger": 5852,
      "chaud": 5853,
      "vendredi": 5854,
      "originaires": 5855,
      "réserve": 5856,
      "spir": 5857,
      "démographiques": 5858,
      "constate": 5859,
      "collecte": 5860,
      "stratégique": 5861,
      "adaptative": 5862,
      "honneur": 5863,
      "matthe": 5864,
      "occasion": 5865,
      "analystes": 5866,
      "yukon": 5867,
      "pâtisserie": 5868,
      "développée": 5869,
      "additionnels": 5870,
      "substances": 5871,
      "étroite": 5872,
      "musulmane": 5873,
      "cosmologique": 5874,
      "maxwell": 5875,
      "fresh": 5876,
      "taiwan": 5877,
      "quotidienne": 5878,
      "novation": 5879,
      "bancaire": 5880,
      "spectroscopie": 5881,
      "minimum": 5882,
      "éventuels": 5883,
      "pertinent": 5884,
      "désirent": 5885,
      "photographies": 5886,
      "artificie": 5887,
      "immédiatement": 5888,
      "exposants": 5889,
      "catalogue": 5890,
      "frederick": 5891,
      "limportance": 5892,
      "opérations": 5893,
      "contraintes": 5894,
      "fillette": 5895,
      "néozélandais": 5896,
      "duprinceédouard": 5897,
      "carcasses": 5898,
      "matthews": 5899,
      "115": 5900,
      "81": 5901,
      "ami": 5902,
      "bh": 5903,
      "bab": 5904,
      "bble": 5905,
      "cture": 5906,
      "dn": 5907,
      "flé": 5908,
      "gla": 5909,
      "hal": 5910,
      "kr": 5911,
      "kes": 5912,
      "kin": 5913,
      "kir": 5914,
      "lb": 5915,
      "lents": 5916,
      "ml": 5917,
      "mus": 5918,
      "ogm": 5919,
      "osaka": 5920,
      "pôt": 5921,
      "ranger": 5922,
      "sco": 5923,
      "sintéres": 5924,
      "tz": 5925,
      "vite": 5926,
      "yens": 5927,
      "zer": 5928,
      "zhou": 5929,
      "âche": 5930,
      "çant": 5931,
      "énorme": 5932,
      "essa": 5933,
      "entrant": 5934,
      "lemp": 5935,
      "lamb": 5936,
      "ladop": 5937,
      "laquaculture": 5938,
      "laqsiq": 5939,
      "incu": 5940,
      "intitu": 5941,
      "reconnu": 5942,
      "ith": 5943,
      "autant": 5944,
      "dessais": 5945,
      "lie": 5946,
      "chh": 5947,
      "chou": 5948,
      "chée": 5949,
      "taches": 5950,
      "ilités": 5951,
      "condu": 5952,
      "consci": 5953,
      "concentre": 5954,
      "conserver": 5955,
      "mac": 5956,
      "macar": 5957,
      "ority": 5958,
      "diété": 5959,
      "parvient": 5960,
      "pala": 5961,
      "cib": 5962,
      "cies": 5963,
      "comman": 5964,
      "réelle": 5965,
      "melades": 5966,
      "pourtant": 5967,
      "daprès": 5968,
      "rira": 5969,
      "marmelades": 5970,
      "impression": 5971,
      "imême": 5972,
      "exté": 5973,
      "cami": 5974,
      "cambo": 5975,
      "peg": 5976,
      "robert": 5977,
      "léments": 5978,
      "népal": 5979,
      "dos": 5980,
      "terren": 5981,
      "mol": 5982,
      "mots": 5983,
      "verre": 5984,
      "stric": 5985,
      "forcé": 5986,
      "approbation": 5987,
      "péremp": 5988,
      "vendues": 5989,
      "ignent": 5990,
      "chefs": 5991,
      "traiter": 5992,
      "nuclé": 5993,
      "priorité": 5994,
      "interro": 5995,
      "observé": 5996,
      "rené": 5997,
      "renferme": 5998,
      "bay": 5999,
      "102": 6000,
      "vérit": 6001,
      "comptait": 6002,
      "tonalité": 6003,
      "représenter": 6004,
      "ung": 6005,
      "soup": 6006,
      "soucieux": 6007,
      "ffici": 6008,
      "ueux": 6009,
      "régionale": 6010,
      "fonctions": 6011,
      "fondée": 6012,
      "organisé": 6013,
      "empê": 6014,
      "plais": 6015,
      "indiqués": 6016,
      "126": 6017,
      "laccession": 6018,
      "lobjec": 6019,
      "facture": 6020,
      "annuellement": 6021,
      "collations": 6022,
      "varient": 6023,
      "raisonn": 6024,
      "dexamen": 6025,
      "issez": 6026,
      "attein": 6027,
      "profiter": 6028,
      "mondiaux": 6029,
      "australien": 6030,
      "seules": 6031,
      "légen": 6032,
      "légard": 6033,
      "sanitaires": 6034,
      "terrestres": 6035,
      "fications": 6036,
      "continueront": 6037,
      "fournies": 6038,
      "modifier": 6039,
      "achetés": 6040,
      "6363": 6041,
      "universal": 6042,
      "employ": 6043,
      "manifes": 6044,
      "contribuer": 6045,
      "institutions": 6046,
      "suffit": 6047,
      "radioastronomie": 6048,
      "montrer": 6049,
      "dominante": 6050,
      "nutritifs": 6051,
      "rempl": 6052,
      "chup": 6053,
      "poly": 6054,
      "visibilité": 6055,
      "rabbin": 6056,
      "exploitation": 6057,
      "composés": 6058,
      "diversifier": 6059,
      "diversifiée": 6060,
      "laboratoires": 6061,
      "choisir": 6062,
      "choisissez": 6063,
      "sensible": 6064,
      "consacrent": 6065,
      "garantit": 6066,
      "observée": 6067,
      "provinciales": 6068,
      "palme": 6069,
      "inférieur": 6070,
      "découvert": 6071,
      "excluant": 6072,
      "concurrentiels": 6073,
      "assujetties": 6074,
      "minérale": 6075,
      "facilite": 6076,
      "entraîner": 6077,
      "hanoï": 6078,
      "éclat": 6079,
      "électrique": 6080,
      "dauteur": 6081,
      "répandue": 6082,
      "scène": 6083,
      "islamique": 6084,
      "libanais": 6085,
      "authority": 6086,
      "spécifiquement": 6087,
      "écossés": 6088,
      "évolué": 6089,
      "vergure": 6090,
      "kraft": 6091,
      "yangzi": 6092,
      "forêt": 6093,
      "tomates": 6094,
      "fournissent": 6095,
      "communauté": 6096,
      "similaires": 6097,
      "maritime": 6098,
      "km2": 6099,
      "équivalent": 6100,
      "édulcorants": 6101,
      "grossière": 6102,
      "homolo": 6103,
      "pizza": 6104,
      "touristique": 6105,
      "yogourt": 6106,
      "koweït": 6107,
      "ketchup": 6108,
      "prescriptions": 6109,
      "croustilles": 6110,
      "columbia": 6111,
      "préemballés": 6112,
      "lamérique": 6113,
      "telaviv": 6114,
      "commonwealth": 6115,
      "ferrovi": 6116,
      "ladoption": 6117,
      "macaron": 6118,
      "terreneuve": 6119,
      "0º": 6120,
      "030": 6121,
      "114": 6122,
      "ae": 6123,
      "ah": 6124,
      "ala": 6125,
      "bit": 6126,
      "cil": 6127,
      "cite": 6128,
      "eli": 6129,
      "effici": 6130,
      "fanta": 6131,
      "gli": 6132,
      "gers": 6133,
      "gents": 6134,
      "gènes": 6135,
      "hans": 6136,
      "iso": 6137,
      "idées": 6138,
      "ker": 6139,
      "knor": 6140,
      "oca": 6141,
      "omis": 6142,
      "pq": 6143,
      "spe": 6144,
      "spag": 6145,
      "zvous": 6146,
      "èce": 6147,
      "èvre": 6148,
      "édu": 6149,
      "écrit": 6150,
      "élargir": 6151,
      "envo": 6152,
      "urc": 6153,
      "urée": 6154,
      "inv": 6155,
      "requ": 6156,
      "revue": 6157,
      "itueux": 6158,
      "pota": 6159,
      "ars": 6160,
      "archi": 6161,
      "artis": 6162,
      "audes": 6163,
      "audelà": 6164,
      "libres": 6165,
      "chel": 6166,
      "tations": 6167,
      "trons": 6168,
      "protag": 6169,
      "oui": 6170,
      "ouvre": 6171,
      "outil": 6172,
      "ouvrir": 6173,
      "sea": 6174,
      "degré": 6175,
      "congé": 6176,
      "converti": 6177,
      "mathé": 6178,
      "ork": 6179,
      "dimin": 6180,
      "diversité": 6181,
      "luimême": 6182,
      "paraboli": 6183,
      "pack": 6184,
      "désos": 6185,
      "détu": 6186,
      "dérivés": 6187,
      "cidre": 6188,
      "réuni": 6189,
      "als": 6190,
      "allég": 6191,
      "simu": 6192,
      "dailleurs": 6193,
      "ridge": 6194,
      "marin": 6195,
      "exi": 6196,
      "exécu": 6197,
      "peur": 6198,
      "peine": 6199,
      "peak": 6200,
      "low": 6201,
      "sucr": 6202,
      "dom": 6203,
      "dossier": 6204,
      "fir": 6205,
      "fice": 6206,
      "elon": 6207,
      "miers": 6208,
      "vern": 6209,
      "alem": 6210,
      "aler": 6211,
      "inscrits": 6212,
      "abats": 6213,
      "absolu": 6214,
      "forces": 6215,
      "gemini": 6216,
      "entretiennent": 6217,
      "métal": 6218,
      "sas": 6219,
      "issage": 6220,
      "phe": 6221,
      "appare": 6222,
      "1960": 6223,
      "1962": 6224,
      "pér": 6225,
      "atta": 6226,
      "fad": 6227,
      "passent": 6228,
      "vendu": 6229,
      "vendeurs": 6230,
      "somme": 6231,
      "frites": 6232,
      "nait": 6233,
      "nataire": 6234,
      "privés": 6235,
      "interactive": 6236,
      "dones": 6237,
      "donnée": 6238,
      "donnent": 6239,
      "secré": 6240,
      "visés": 6241,
      "transpor": 6242,
      "lancer": 6243,
      "mansour": 6244,
      "tributaire": 6245,
      "chambres": 6246,
      "chercher": 6247,
      "véni": 6248,
      "soumettre": 6249,
      "post": 6250,
      "organes": 6251,
      "mensu": 6252,
      "station": 6253,
      "stations": 6254,
      "stabilité": 6255,
      "mages": 6256,
      "plaque": 6257,
      "bonus": 6258,
      "128": 6259,
      "adhésion": 6260,
      "pressions": 6261,
      "conting": 6262,
      "collabora": 6263,
      "industrielles": 6264,
      "calgar": 6265,
      "cool": 6266,
      "plantation": 6267,
      "choses": 6268,
      "thaïlandais": 6269,
      "bank": 6270,
      "banques": 6271,
      "monter": 6272,
      "américaines": 6273,
      "possibles": 6274,
      "howard": 6275,
      "quare": 6276,
      "major": 6277,
      "hypo": 6278,
      "radiations": 6279,
      "nestlé": 6280,
      "effectuées": 6281,
      "lordre": 6282,
      "ingrédient": 6283,
      "disponibilité": 6284,
      "contribuent": 6285,
      "mentionné": 6286,
      "naturelle": 6287,
      "harmon": 6288,
      "spécialisé": 6289,
      "applique": 6290,
      "7597": 6291,
      "supérieures": 6292,
      "correspondent": 6293,
      "êtements": 6294,
      "procédé": 6295,
      "instrument": 6296,
      "financiers": 6297,
      "rempla": 6298,
      "amor": 6299,
      "offert": 6300,
      "vallée": 6301,
      "orientation": 6302,
      "communication": 6303,
      "composent": 6304,
      "géographique": 6305,
      "cidessus": 6306,
      "fondant": 6307,
      "grossiste": 6308,
      "classement": 6309,
      "îleduprinceédouard": 6310,
      "consacrée": 6311,
      "définition": 6312,
      "sky": 6313,
      "penser": 6314,
      "hébreu": 6315,
      "illance": 6316,
      "questionnaire": 6317,
      "original": 6318,
      "réserves": 6319,
      "devenus": 6320,
      "régulière": 6321,
      "informatique": 6322,
      "antillon": 6323,
      "douaniers": 6324,
      "décennies": 6325,
      "identifier": 6326,
      "richard": 6327,
      "globale": 6328,
      "poussi": 6329,
      "difficulté": 6330,
      "cafés": 6331,
      "pénétration": 6332,
      "voyageurs": 6333,
      "multiplication": 6334,
      "winni": 6335,
      "saintlaurent": 6336,
      "égyptienne": 6337,
      "élaborer": 6338,
      "molécules": 6339,
      "moléculaire": 6340,
      "solutions": 6341,
      "sappliquent": 6342,
      "génère": 6343,
      "filiale": 6344,
      "sattend": 6345,
      "séparant": 6346,
      "aviaire": 6347,
      "déployés": 6348,
      "fruitière": 6349,
      "vétérinaire": 6350,
      "succursales": 6351,
      "estimatifs": 6352,
      "saoudiens": 6353,
      "météorologiques": 6354,
      "énergé": 6355,
      "inuits": 6356,
      "aspects": 6357,
      "nécessitent": 6358,
      "011844": 6359,
      "culinaire": 6360,
      "assaisonnements": 6361,
      "interféro": 6362,
      "instantanées": 6363,
      "walmart": 6364,
      "drug": 6365,
      "street": 6366,
      "contrats": 6367,
      "côtières": 6368,
      "conjoin": 6369,
      "dacheter": 6370,
      "robina": 6371,
      "transformateurs": 6372,
      "white": 6373,
      "lallemagne": 6374,
      "décroche": 6375,
      "cussions": 6376,
      "homard": 6377,
      "spiritueux": 6378,
      "péremption": 6379,
      "lobjectif": 6380,
      "ferroviaire": 6381,
      "knorr": 6382,
      "spagh": 6383,
      "protagon": 6384,
      "diminue": 6385,
      "calgary": 6386,
      "05": 6387,
      "118": 6388,
      "944": 6389,
      "avo": 6390,
      "dd": 6391,
      "dation": 6392,
      "denti": 6393,
      "dair": 6394,
      "dney": 6395,
      "fm": 6396,
      "fè": 6397,
      "fuse": 6398,
      "hre": 6399,
      "hcm": 6400,
      "if": 6401,
      "idé": 6402,
      "iennes": 6403,
      "jp": 6404,
      "jac": 6405,
      "ken": 6406,
      "linspecteur": 6407,
      "mit": 6408,
      "ners": 6409,
      "oman": 6410,
      "pdf": 6411,
      "sch": 6412,
      "sils": 6413,
      "square": 6414,
      "vrais": 6415,
      "vêtements": 6416,
      "york": 6417,
      "zd": 6418,
      "érent": 6419,
      "émise": 6420,
      "œur": 6421,
      "esté": 6422,
      "ena": 6423,
      "indones": 6424,
      "ret": 6425,
      "reporter": 6426,
      "rechange": 6427,
      "repose": 6428,
      "retraite": 6429,
      "rembo": 6430,
      "etab": 6431,
      "pring": 6432,
      "itc": 6433,
      "lia": 6434,
      "teinté": 6435,
      "chées": 6436,
      "coca": 6437,
      "prospé": 6438,
      "provision": 6439,
      "promul": 6440,
      "nez": 6441,
      "neig": 6442,
      "sei": 6443,
      "semaines": 6444,
      "raient": 6445,
      "magaz": 6446,
      "macao": 6447,
      "order": 6448,
      "dié": 6449,
      "diab": 6450,
      "lux": 6451,
      "parag": 6452,
      "détiennent": 6453,
      "déchets": 6454,
      "cial": 6455,
      "ténu": 6456,
      "compose": 6457,
      "composer": 6458,
      "ald": 6459,
      "alé": 6460,
      "meurt": 6461,
      "sim": 6462,
      "cach": 6463,
      "lot": 6464,
      "loy": 6465,
      "sug": 6466,
      "alie": 6467,
      "vif": 6468,
      "viso": 6469,
      "cessé": 6470,
      "lélec": 6471,
      "accession": 6472,
      "totaux": 6473,
      "fibres": 6474,
      "alex": 6475,
      "portés": 6476,
      "mesuré": 6477,
      "formé": 6478,
      "forts": 6479,
      "ffec": 6480,
      "phes": 6481,
      "phong": 6482,
      "angle": 6483,
      "atmosph": 6484,
      "gril": 6485,
      "pasta": 6486,
      "venu": 6487,
      "commerces": 6488,
      "consomme": 6489,
      "trading": 6490,
      "guang": 6491,
      "présentes": 6492,
      "sections": 6493,
      "mond": 6494,
      "mono": 6495,
      "visiter": 6496,
      "transition": 6497,
      "transactions": 6498,
      "gradu": 6499,
      "gramme": 6500,
      "rendent": 6501,
      "longues": 6502,
      "endront": 6503,
      "carrés": 6504,
      "chambre": 6505,
      "jose": 6506,
      "cherchent": 6507,
      "véhi": 6508,
      "biotechnologies": 6509,
      "entités": 6510,
      "bee": 6511,
      "humaines": 6512,
      "hutch": 6513,
      "hubble": 6514,
      "généalo": 6515,
      "social": 6516,
      "souci": 6517,
      "organe": 6518,
      "2011": 6519,
      "résident": 6520,
      "ideal": 6521,
      "limit": 6522,
      "fabriqué": 6523,
      "fabriquer": 6524,
      "plaine": 6525,
      "plaines": 6526,
      "tivités": 6527,
      "court": 6528,
      "courir": 6529,
      "couramment": 6530,
      "indiquent": 6531,
      "124": 6532,
      "129": 6533,
      "govern": 6534,
      "piration": 6535,
      "situe": 6536,
      "fraise": 6537,
      "télévision": 6538,
      "laccent": 6539,
      "spécial": 6540,
      "toile": 6541,
      "joué": 6542,
      "jouent": 6543,
      "annuelles": 6544,
      "variés": 6545,
      "variable": 6546,
      "dexpansion": 6547,
      "estiment": 6548,
      "semblables": 6549,
      "recherchedéveloppement": 6550,
      "cooper": 6551,
      "maindoeuvre": 6552,
      "111": 6553,
      "clip": 6554,
      "permise": 6555,
      "240": 6556,
      "élevage": 6557,
      "bassin": 6558,
      "totalité": 6559,
      "sandra": 6560,
      "hotel": 6561,
      "signal": 6562,
      "spectres": 6563,
      "majesté": 6564,
      "lauto": 6565,
      "emballées": 6566,
      "vieil": 6567,
      "litre": 6568,
      "moutarde": 6569,
      "réalisée": 6570,
      "acheté": 6571,
      "livres": 6572,
      "céréali": 6573,
      "fonctionne": 6574,
      "conformité": 6575,
      "1973": 6576,
      "1978": 6577,
      "kilos": 6578,
      "ruption": 6579,
      "réponse": 6580,
      "ancienne": 6581,
      "1983": 6582,
      "lorge": 6583,
      "diffici": 6584,
      "détermination": 6585,
      "flux": 6586,
      "traditionnelle": 6587,
      "photographique": 6588,
      "bars": 6589,
      "malay": 6590,
      "supérieurs": 6591,
      "family": 6592,
      "chute": 6593,
      "recommande": 6594,
      "modifiée": 6595,
      "modèles": 6596,
      "léchantillon": 6597,
      "afghans": 6598,
      "drainage": 6599,
      "dépendance": 6600,
      "vastes": 6601,
      "végétari": 6602,
      "limitées": 6603,
      "diversifié": 6604,
      "lecteur": 6605,
      "caractérisée": 6606,
      "religie": 6607,
      "religion": 6608,
      "comestible": 6609,
      "faiblesse": 6610,
      "adopter": 6611,
      "langues": 6612,
      "spatiale": 6613,
      "devenu": 6614,
      "minimale": 6615,
      "horti": 6616,
      "global": 6617,
      "1905": 6618,
      "olive": 6619,
      "iranienne": 6620,
      "1103": 6621,
      "smith": 6622,
      "appuie": 6623,
      "supplémentaire": 6624,
      "exercice": 6625,
      "chacune": 6626,
      "abord": 6627,
      "entraîné": 6628,
      "manufacturi": 6629,
      "décide": 6630,
      "établ": 6631,
      "grasses": 6632,
      "estimation": 6633,
      "nettement": 6634,
      "contrôlée": 6635,
      "60468": 6636,
      "richesse": 6637,
      "changé": 6638,
      "alliance": 6639,
      "examiner": 6640,
      "fluctuations": 6641,
      "modernisation": 6642,
      "vétérinaires": 6643,
      "caméras": 6644,
      "parasites": 6645,
      "posséder": 6646,
      "reflè": 6647,
      "prospère": 6648,
      "substituts": 6649,
      "prairie": 6650,
      "calories": 6651,
      "inconvéni": 6652,
      "diplomatiques": 6653,
      "fumigation": 6654,
      "chocolats": 6655,
      "abordables": 6656,
      "lucratif": 6657,
      "intégrée": 6658,
      "échéant": 6659,
      "bananes": 6660,
      "guinée": 6661,
      "formalités": 6662,
      "diététiques": 6663,
      "cambodge": 6664,
      "audessus": 6665,
      "contingents": 6666,
      "winnipeg": 6667,
      "hcmv": 6668,
      "indonesia": 6669,
      "neiges": 6670,
      "généalogie": 6671,
      "government": 6672,
      "420": 6673,
      "550": 6674,
      "750": 6675,
      "ajus": 6676,
      "aqua": 6677,
      "astro": 6678,
      "ameri": 6679,
      "blement": 6680,
      "cités": 6681,
      "dc": 6682,
      "dî": 6683,
      "dette": 6684,
      "dintérêt": 6685,
      "dhygiène": 6686,
      "fc": 6687,
      "fda": 6688,
      "imal": 6689,
      "jar": 6690,
      "jés": 6691,
      "jeux": 6692,
      "jalan": 6693,
      "kris": 6694,
      "linter": 6695,
      "lence": 6696,
      "mne": 6697,
      "ole": 6698,
      "oil": 6699,
      "oxy": 6700,
      "sens": 6701,
      "stique": 6702,
      "sétablir": 6703,
      "sdn": 6704,
      "vê": 6705,
      "vine": 6706,
      "wang": 6707,
      "yel": 6708,
      "yeux": 6709,
      "ymie": 6710,
      "zan": 6711,
      "çons": 6712,
      "épa": 6713,
      "éro": 6714,
      "égi": 6715,
      "élar": 6716,
      "émet": 6717,
      "émul": 6718,
      "énumé": 6719,
      "ticle": 6720,
      "lefficacité": 6721,
      "lari": 6722,
      "erran": 6723,
      "isées": 6724,
      "reine": 6725,
      "relev": 6726,
      "retar": 6727,
      "ety": 6728,
      "etre": 6729,
      "pru": 6730,
      "polar": 6731,
      "arbres": 6732,
      "auton": 6733,
      "desh": 6734,
      "libel": 6735,
      "tee": 6736,
      "chage": 6737,
      "changer": 6738,
      "cheng": 6739,
      "talle": 6740,
      "trous": 6741,
      "ilding": 6742,
      "semi": 6743,
      "rare": 6744,
      "contes": 6745,
      "contenir": 6746,
      "mad": 6747,
      "maire": 6748,
      "luxe": 6749,
      "produisant": 6750,
      "pay": 6751,
      "patri": 6752,
      "pavot": 6753,
      "dérou": 6754,
      "désor": 6755,
      "démie": 6756,
      "démission": 6757,
      "décrit": 6758,
      "démontre": 6759,
      "térie": 6760,
      "comporter": 6761,
      "révolution": 6762,
      "siège": 6763,
      "auxquels": 6764,
      "veiller": 6765,
      "dapplication": 6766,
      "rim": 6767,
      "riens": 6768,
      "maroca": 6769,
      "imes": 6770,
      "impul": 6771,
      "implant": 6772,
      "exporta": 6773,
      "loeil": 6774,
      "sucré": 6775,
      "rose": 6776,
      "roth": 6777,
      "aga": 6778,
      "accent": 6779,
      "actifs": 6780,
      "toral": 6781,
      "fid": 6782,
      "filets": 6783,
      "vera": 6784,
      "verger": 6785,
      "abilités": 6786,
      "nière": 6787,
      "gement": 6788,
      "canadafrance": 6789,
      "médit": 6790,
      "saines": 6791,
      "sadres": 6792,
      "issables": 6793,
      "perçue": 6794,
      "perfection": 6795,
      "php": 6796,
      "phère": 6797,
      "phos": 6798,
      "assis": 6799,
      "1969": 6800,
      "dispens": 6801,
      "touche": 6802,
      "foire": 6803,
      "foies": 6804,
      "foyer": 6805,
      "gru": 6806,
      "venant": 6807,
      "larticle": 6808,
      "trace": 6809,
      "séis": 6810,
      "sémin": 6811,
      "gué": 6812,
      "guées": 6813,
      "privées": 6814,
      "interdite": 6815,
      "transfé": 6816,
      "lanimal": 6817,
      "rendements": 6818,
      "rapid": 6819,
      "aged": 6820,
      "raisin": 6821,
      "raisins": 6822,
      "finan": 6823,
      "augmentations": 6824,
      "108": 6825,
      "109": 6826,
      "israeli": 6827,
      "vérer": 6828,
      "déplace": 6829,
      "complément": 6830,
      "humi": 6831,
      "hubert": 6832,
      "under": 6833,
      "unités": 6834,
      "alisé": 6835,
      "postes": 6836,
      "utilisateurs": 6837,
      "stade": 6838,
      "stabil": 6839,
      "202": 6840,
      "shar": 6841,
      "138": 6842,
      "183": 6843,
      "organiser": 6844,
      "organisateur": 6845,
      "tival": 6846,
      "jets": 6847,
      "india": 6848,
      "indication": 6849,
      "indiquées": 6850,
      "bul": 6851,
      "buff": 6852,
      "building": 6853,
      "pièces": 6854,
      "soussecteurs": 6855,
      "tenter": 6856,
      "hautement": 6857,
      "cold": 6858,
      "230": 6859,
      "235": 6860,
      "dexploit": 6861,
      "bref": 6862,
      "ckel": 6863,
      "jakar": 6864,
      "gori": 6865,
      "sudcoréens": 6866,
      "contrac": 6867,
      "dimportateurs": 6868,
      "mène": 6869,
      "grim": 6870,
      "ministères": 6871,
      "constituée": 6872,
      "différen": 6873,
      "décret": 6874,
      "affaire": 6875,
      "afférent": 6876,
      "routier": 6877,
      "occuper": 6878,
      "garder": 6879,
      "garnit": 6880,
      "frigori": 6881,
      "hybri": 6882,
      "subvention": 6883,
      "subsistance": 6884,
      "enregistrées": 6885,
      "cler": 6886,
      "tory": 6887,
      "transports": 6888,
      "view": 6889,
      "autorisée": 6890,
      "exploité": 6891,
      "mouton": 6892,
      "mouvement": 6893,
      "travailleurs": 6894,
      "réalisé": 6895,
      "effectif": 6896,
      "pradesh": 6897,
      "totalisaient": 6898,
      "acheteur": 6899,
      "constel": 6900,
      "salées": 6901,
      "1976": 6902,
      "strate": 6903,
      "1984": 6904,
      "1985": 6905,
      "1989": 6906,
      "contribution": 6907,
      "pharm": 6908,
      "brute": 6909,
      "trouvez": 6910,
      "niels": 6911,
      "tailler": 6912,
      "barres": 6913,
      "spécialisées": 6914,
      "blancs": 6915,
      "cito": 6916,
      "laitières": 6917,
      "colombo": 6918,
      "propriétés": 6919,
      "dactivité": 6920,
      "demandé": 6921,
      "déclarée": 6922,
      "troduction": 6923,
      "hôte": 6924,
      "négoce": 6925,
      "boulangeriepâtisserie": 6926,
      "destinations": 6927,
      "composante": 6928,
      "écozone": 6929,
      "distances": 6930,
      "pauvres": 6931,
      "choisissent": 6932,
      "formulaires": 6933,
      "simpli": 6934,
      "préféren": 6935,
      "lentille": 6936,
      "chauff": 6937,
      "dobservation": 6938,
      "bénéficie": 6939,
      "critères": 6940,
      "potentiels": 6941,
      "complètement": 6942,
      "provinciale": 6943,
      "miroirs": 6944,
      "découvre": 6945,
      "conditionnement": 6946,
      "récoltes": 6947,
      "kilogramme": 6948,
      "filtres": 6949,
      "stratégiques": 6950,
      "adapter": 6951,
      "house": 6952,
      "commentaires": 6953,
      "abattus": 6954,
      "désignés": 6955,
      "efficacement": 6956,
      "références": 6957,
      "péninsu": 6958,
      "iranien": 6959,
      "globu": 6960,
      "pratiquement": 6961,
      "foule": 6962,
      "found": 6963,
      "faciles": 6964,
      "pierre": 6965,
      "ashkar": 6966,
      "appropriés": 6967,
      "substance": 6968,
      "contrairement": 6969,
      "normalement": 6970,
      "normalisation": 6971,
      "approvisionnements": 6972,
      "négative": 6973,
      "événement": 6974,
      "novateurs": 6975,
      "éliminer": 6976,
      "réussir": 6977,
      "envisage": 6978,
      "country": 6979,
      "fruitiers": 6980,
      "circulation": 6981,
      "bsb": 6982,
      "wood": 6983,
      "emporter": 6984,
      "sûr": 6985,
      "historiques": 6986,
      "thanol": 6987,
      "juridiques": 6988,
      "profondeur": 6989,
      "parallèlement": 6990,
      "dimension": 6991,
      "compétentes": 6992,
      "aéroport": 6993,
      "east": 6994,
      "défen": 6995,
      "nexiste": 6996,
      "helen": 6997,
      "valide": 6998,
      "développés": 6999,
      "carbone": 7000,
      "restreint": 7001,
      "colloque": 7002,
      "orbitale": 7003,
      "francis": 7004,
      "standard": 7005,
      "précisément": 7006,
      "bhd": 7007,
      "lemploi": 7008,
      "forcément": 7009,
      "remplissage": 7010,
      "macaroni": 7011,
      "allégations": 7012,
      "mansourashkar": 7013,
      "spaghetti": 7014,
      "protagonistes": 7015,
      "dairy": 7016,
      "zdsap": 7017,
      "cocacola": 7018,
      "diésel": 7019,
      "diabète": 7020,
      "paragra": 7021,
      "difficiles": 7022,
      "méditerran": 7023,
      "rapidité": 7024,
      "jakarta": 7025,
      "03": 7026,
      "0c": 7027,
      "020": 7028,
      "225": 7029,
      "410": 7030,
      "514": 7031,
      "930": 7032,
      "atoire": 7033,
      "blo": 7034,
      "bir": 7035,
      "bun": 7036,
      "cè": 7037,
      "cton": 7038,
      "cœur": 7039,
      "dang": 7040,
      "dannées": 7041,
      "danimaux": 7042,
      "dingrédients": 7043,
      "ek": 7044,
      "gt": 7045,
      "gale": 7046,
      "hur": 7047,
      "hin": 7048,
      "jl": 7049,
      "jin": 7050,
      "jas": 7051,
      "kist": 7052,
      "lli": 7053,
      "lins": 7054,
      "lines": 7055,
      "louest": 7056,
      "mons": 7057,
      "nb": 7058,
      "ns": 7059,
      "nda": 7060,
      "nimporte": 7061,
      "ore": 7062,
      "pilo": 7063,
      "slo": 7064,
      "tâche": 7065,
      "vag": 7066,
      "vaut": 7067,
      "vrant": 7068,
      "wer": 7069,
      "wol": 7070,
      "ça": 7071,
      "èque": 7072,
      "ép": 7073,
      "évi": 7074,
      "écar": 7075,
      "éton": 7076,
      "édition": 7077,
      "énormes": 7078,
      "éclip": 7079,
      "îtres": 7080,
      "ño": 7081,
      "ômes": 7082,
      "enz": 7083,
      "ananas": 7084,
      "tiu": 7085,
      "tire": 7086,
      "soph": 7087,
      "sols": 7088,
      "laval": 7089,
      "lafrique": 7090,
      "latine": 7091,
      "erres": 7092,
      "eries": 7093,
      "invente": 7094,
      "ismes": 7095,
      "revient": 7096,
      "refroi": 7097,
      "etranger": 7098,
      "arriv": 7099,
      "auquel": 7100,
      "dessin": 7101,
      "destru": 7102,
      "lib": 7103,
      "lière": 7104,
      "teva": 7105,
      "copra": 7106,
      "coving": 7107,
      "promes": 7108,
      "cebu": 7109,
      "sey": 7110,
      "sean": 7111,
      "demi": 7112,
      "ramen": 7113,
      "consoli": 7114,
      "congrès": 7115,
      "conjon": 7116,
      "conçus": 7117,
      "ésité": 7118,
      "maple": 7119,
      "ortho": 7120,
      "dir": 7121,
      "parents": 7122,
      "parfu": 7123,
      "restants": 7124,
      "démar": 7125,
      "délai": 7126,
      "cide": 7127,
      "composant": 7128,
      "compréhen": 7129,
      "résolution": 7130,
      "aland": 7131,
      "sial": 7132,
      "dam": 7133,
      "dao": 7134,
      "das": 7135,
      "dagriculture": 7136,
      "cade": 7137,
      "cape": 7138,
      "lots": 7139,
      "suji": 7140,
      "agers": 7141,
      "vivent": 7142,
      "lénergie": 7143,
      "lépoque": 7144,
      "négli": 7145,
      "acquis": 7146,
      "doù": 7147,
      "dotée": 7148,
      "terie": 7149,
      "marchan": 7150,
      "fiables": 7151,
      "mich": 7152,
      "migr": 7153,
      "verts": 7154,
      "cuit": 7155,
      "nomin": 7156,
      "nik": 7157,
      "niño": 7158,
      "mess": 7159,
      "saf": 7160,
      "sav": 7161,
      "savent": 7162,
      "salades": 7163,
      "perte": 7164,
      "phils": 7165,
      "tensi": 7166,
      "1950": 7167,
      "irradi": 7168,
      "dispara": 7169,
      "bières": 7170,
      "lisateur": 7171,
      "sommaire": 7172,
      "géant": 7173,
      "géno": 7174,
      "consommées": 7175,
      "vache": 7176,
      "igh": 7177,
      "prévention": 7178,
      "prévoient": 7179,
      "séquent": 7180,
      "frau": 7181,
      "price": 7182,
      "prime": 7183,
      "visée": 7184,
      "transmis": 7185,
      "oblongue": 7186,
      "lanase": 7187,
      "board": 7188,
      "rappro": 7189,
      "dera": 7190,
      "bad": 7191,
      "coutu": 7192,
      "couche": 7193,
      "finances": 7194,
      "centra": 7195,
      "101": 7196,
      "north": 7197,
      "ouverte": 7198,
      "bioalimentaires": 7199,
      "biotec": 7200,
      "entière": 7201,
      "mettant": 7202,
      "comptoirs": 7203,
      "humains": 7204,
      "huîtres": 7205,
      "ock": 7206,
      "sociale": 7207,
      "soutenu": 7208,
      "crû": 7209,
      "cris": 7210,
      "menac": 7211,
      "distribués": 7212,
      "puisqu": 7213,
      "uniforme": 7214,
      "intégr": 7215,
      "résist": 7216,
      "sho": 7217,
      "développe": 7218,
      "had": 7219,
      "lexamen": 7220,
      "emplacement": 7221,
      "plateaux": 7222,
      "courte": 7223,
      "détaillant": 7224,
      "121": 7225,
      "lacquisition": 7226,
      "spéciale": 7227,
      "spécifications": 7228,
      "jugés": 7229,
      "judici": 7230,
      "laisse": 7231,
      "tente": 7232,
      "créneau": 7233,
      "ferti": 7234,
      "dinstru": 7235,
      "annuels": 7236,
      "variations": 7237,
      "health": 7238,
      "estimées": 7239,
      "jaymie": 7240,
      "probabilité": 7241,
      "lentente": 7242,
      "journée": 7243,
      "osques": 7244,
      "osité": 7245,
      "gordon": 7246,
      "sudcoré": 7247,
      "diffusion": 7248,
      "mènent": 7249,
      "grandissant": 7250,
      "grandissante": 7251,
      "approfon": 7252,
      "permises": 7253,
      "choice": 7254,
      "australian": 7255,
      "grippe": 7256,
      "bassins": 7257,
      "considérer": 7258,
      "laborer": 7259,
      "franco": 7260,
      "hydra": 7261,
      "subséquent": 7262,
      "future": 7263,
      "value": 7264,
      "réalisés": 7265,
      "réalisées": 7266,
      "talité": 7267,
      "haiphong": 7268,
      "indonésiens": 7269,
      "intéressé": 7270,
      "intéressées": 7271,
      "vivantes": 7272,
      "lappar": 7273,
      "répondent": 7274,
      "sentiment": 7275,
      "bruce": 7276,
      "consécu": 7277,
      "photographiques": 7278,
      "spécialistes": 7279,
      "habitude": 7280,
      "essentielles": 7281,
      "appliquer": 7282,
      "participe": 7283,
      "cosmos": 7284,
      "agente": 7285,
      "carteaffiche": 7286,
      "lundi": 7287,
      "dominé": 7288,
      "multiples": 7289,
      "recherchent": 7290,
      "sujets": 7291,
      "store": 7292,
      "storage": 7293,
      "996": 7294,
      "news": 7295,
      "appelée": 7296,
      "conseillé": 7297,
      "kee": 7298,
      "tempo": 7299,
      "familiar": 7300,
      "favorisé": 7301,
      "froid": 7302,
      "fromages": 7303,
      "composaient": 7304,
      "progressi": 7305,
      "nécessairement": 7306,
      "mieuxêtre": 7307,
      "initiale": 7308,
      "initialement": 7309,
      "secondaire": 7310,
      "réfrigérées": 7311,
      "formule": 7312,
      "vietnamiennes": 7313,
      "suffisante": 7314,
      "rural": 7315,
      "nourr": 7316,
      "influent": 7317,
      "chaudes": 7318,
      "microondes": 7319,
      "ordinateur": 7320,
      "vérification": 7321,
      "excellentes": 7322,
      "stockage": 7323,
      "communs": 7324,
      "devaient": 7325,
      "répartis": 7326,
      "axées": 7327,
      "lusques": 7328,
      "kiosques": 7329,
      "nutritionnel": 7330,
      "nutritionnelle": 7331,
      "accompagné": 7332,
      "épicerie": 7333,
      "composées": 7334,
      "aérien": 7335,
      "officielles": 7336,
      "fronta": 7337,
      "glomé": 7338,
      "expériment": 7339,
      "expériences": 7340,
      "appui": 7341,
      "zealand": 7342,
      "traduit": 7343,
      "traduction": 7344,
      "souhait": 7345,
      "dimportance": 7346,
      "dûment": 7347,
      "complexe": 7348,
      "accueilli": 7349,
      "existants": 7350,
      "nouvellement": 7351,
      "administratives": 7352,
      "investir": 7353,
      "melba": 7354,
      "passable": 7355,
      "champignons": 7356,
      "amateurs": 7357,
      "absorb": 7358,
      "absorbe": 7359,
      "survey": 7360,
      "génèrent": 7361,
      "atomes": 7362,
      "attiré": 7363,
      "sapprovision": 7364,
      "montagne": 7365,
      "biotechnologiques": 7366,
      "avancé": 7367,
      "supermarkets": 7368,
      "enterprises": 7369,
      "vergers": 7370,
      "doubler": 7371,
      "bancaires": 7372,
      "spectrosco": 7373,
      "arachides": 7374,
      "conservés": 7375,
      "conservées": 7376,
      "historique": 7377,
      "racine": 7378,
      "racines": 7379,
      "étendue": 7380,
      "exclusivement": 7381,
      "inauguré": 7382,
      "dimensions": 7383,
      "fiesta": 7384,
      "colorants": 7385,
      "occupés": 7386,
      "vulgar": 7387,
      "recevoir": 7388,
      "income": 7389,
      "carburants": 7390,
      "stipule": 7391,
      "accélérer": 7392,
      "urbanisation": 7393,
      "pommiers": 7394,
      "demplo": 7395,
      "entrepreneurs": 7396,
      "9431103": 7397,
      "prometteur": 7398,
      "lépicerie": 7399,
      "collège": 7400,
      "textiles": 7401,
      "dangereux": 7402,
      "incitatifs": 7403,
      "attrayant": 7404,
      "privilégi": 7405,
      "centaines": 7406,
      "administrations": 7407,
      "officiellement": 7408,
      "figurant": 7409,
      "illustrations": 7410,
      "adultes": 7411,
      "lentremise": 7412,
      "remarquable": 7413,
      "médecins": 7414,
      "dépicerie": 7415,
      "abondance": 7416,
      "html": 7417,
      "performance": 7418,
      "mollusques": 7419,
      "plaisante": 7420,
      "requise": 7421,
      "artisan": 7422,
      "congélation": 7423,
      "packaged": 7424,
      "périssables": 7425,
      "teintée": 7426,
      "hutchings": 7427,
      "désormais": 7428,
      "canadafrancehawaï": 7429,
      "séismo": 7430,
      "garnitures": 7431,
      "clerk": 7432,
      "foundation": 7433,
      "0c5": 7434,
      "covington": 7435,
      "orthodo": 7436,
      "compréhension": 7437,
      "sujiko": 7438,
      "223": 7439,
      "3e": 7440,
      "326": 7441,
      "426": 7442,
      "765": 7443,
      "810": 7444,
      "ame": 7445,
      "achides": 7446,
      "bdo": 7447,
      "beng": 7448,
      "cn": 7449,
      "cise": 7450,
      "dautre": 7451,
      "dhuiles": 7452,
      "egg": 7453,
      "fle": 7454,
      "fha": 7455,
      "furent": 7456,
      "gali": 7457,
      "hers": 7458,
      "jab": 7459,
      "ltée": 7460,
      "lhé": 7461,
      "lintermédiaire": 7462,
      "mû": 7463,
      "nen": 7464,
      "oma": 7465,
      "omes": 7466,
      "opération": 7467,
      "plé": 7468,
      "penti": 7469,
      "pôle": 7470,
      "rfm": 7471,
      "saient": 7472,
      "smc": 7473,
      "spring": 7474,
      "tnam": 7475,
      "utique": 7476,
      "vus": 7477,
      "vage": 7478,
      "xin": 7479,
      "yan": 7480,
      "âgés": 7481,
      "évid": 7482,
      "ïn": 7483,
      "ïque": 7484,
      "envoy": 7485,
      "tim": 7486,
      "tielle": 7487,
      "tirées": 7488,
      "soi": 7489,
      "entend": 7490,
      "entrées": 7491,
      "entôt": 7492,
      "lee": 7493,
      "urait": 7494,
      "lale": 7495,
      "larab": 7496,
      "inqui": 7497,
      "inclure": 7498,
      "indispens": 7499,
      "islande": 7500,
      "regu": 7501,
      "reproduction": 7502,
      "regrou": 7503,
      "retenir": 7504,
      "relever": 7505,
      "reconnaissance": 7506,
      "region": 7507,
      "lesprit": 7508,
      "lescents": 7509,
      "qual": 7510,
      "quas": 7511,
      "pron": 7512,
      "préta": 7513,
      "itu": 7514,
      "pole": 7515,
      "ards": 7516,
      "liba": 7517,
      "tements": 7518,
      "chen": 7519,
      "chris": 7520,
      "chances": 7521,
      "tabilité": 7522,
      "trit": 7523,
      "proli": 7524,
      "proto": 7525,
      "neaux": 7526,
      "oubli": 7527,
      "ouvra": 7528,
      "ilé": 7529,
      "demment": 7530,
      "conserva": 7531,
      "quez": 7532,
      "portions": 7533,
      "dier": 7534,
      "divisions": 7535,
      "luzon": 7536,
      "parta": 7537,
      "ressource": 7538,
      "dédouan": 7539,
      "débar": 7540,
      "meu": 7541,
      "mega": 7542,
      "pourparler": 7543,
      "estock": 7544,
      "mari": 7545,
      "impossible": 7546,
      "exo": 7547,
      "exposé": 7548,
      "cales": 7549,
      "casher": 7550,
      "vii": 7551,
      "vice": 7552,
      "vivement": 7553,
      "lévaluation": 7554,
      "létoile": 7555,
      "activement": 7556,
      "termine": 7557,
      "fient": 7558,
      "mic": 7559,
      "mier": 7560,
      "cuites": 7561,
      "cuirs": 7562,
      "noires": 7563,
      "instein": 7564,
      "nia": 7565,
      "forum": 7566,
      "millimètres": 7567,
      "mber": 7568,
      "issants": 7569,
      "pha": 7570,
      "tendent": 7571,
      "asp": 7572,
      "astéroï": 7573,
      "1941": 7574,
      "pérer": 7575,
      "tuel": 7576,
      "étage": 7577,
      "atténu": 7578,
      "biais": 7579,
      "bientôt": 7580,
      "géants": 7581,
      "vaches": 7582,
      "vapeur": 7583,
      "ignor": 7584,
      "croit": 7585,
      "prévision": 7586,
      "précieux": 7587,
      "traç": 7588,
      "traverse": 7589,
      "avez": 7590,
      "nuna": 7591,
      "présentées": 7592,
      "transbor": 7593,
      "bottes": 7594,
      "bovine": 7595,
      "gales": 7596,
      "gamb": 7597,
      "gammes": 7598,
      "principe": 7599,
      "thy": 7600,
      "thur": 7601,
      "rapporte": 7602,
      "céliba": 7603,
      "carré": 7604,
      "bateurs": 7605,
      "ssium": 7606,
      "coupes": 7607,
      "euse": 7608,
      "corruption": 7609,
      "finis": 7610,
      "utile": 7611,
      "105": 7612,
      "106": 7613,
      "biotech": 7614,
      "biodiésel": 7615,
      "dépendant": 7616,
      "complé": 7617,
      "humain": 7618,
      "und": 7619,
      "stiques": 7620,
      "détablisse": 7621,
      "crites": 7622,
      "menu": 7623,
      "state": 7624,
      "204": 7625,
      "demandeur": 7626,
      "puisse": 7627,
      "puisquil": 7628,
      "rapportent": 7629,
      "unies": 7630,
      "152": 7631,
      "155": 7632,
      "fondés": 7633,
      "limités": 7634,
      "développements": 7635,
      "134": 7636,
      "135": 7637,
      "136": 7638,
      "184": 7639,
      "1898": 7640,
      "pouvait": 7641,
      "ham": 7642,
      "placés": 7643,
      "superfici": 7644,
      "cepti": 7645,
      "bienêtre": 7646,
      "bienfaits": 7647,
      "couron": 7648,
      "directives": 7649,
      "boutiques": 7650,
      "justifi": 7651,
      "122": 7652,
      "20022003": 7653,
      "chercheétoiles": 7654,
      "pic": 7655,
      "pix": 7656,
      "lène": 7657,
      "168": 7658,
      "relatif": 7659,
      "télécommunications": 7660,
      "soussecteur": 7661,
      "jui": 7662,
      "tourner": 7663,
      "hauts": 7664,
      "hauteur": 7665,
      "fragment": 7666,
      "fractions": 7667,
      "médian": 7668,
      "achète": 7669,
      "quérir": 7670,
      "nets": 7671,
      "nettes": 7672,
      "dalian": 7673,
      "dexploitation": 7674,
      "hebdo": 7675,
      "isseur": 7676,
      "journ": 7677,
      "lette": 7678,
      "tableaux": 7679,
      "coop": 7680,
      "trouvant": 7681,
      "australiennes": 7682,
      "244": 7683,
      "contamination": 7684,
      "accorder": 7685,
      "légale": 7686,
      "basée": 7687,
      "rouges": 7688,
      "suscepti": 7689,
      "lalcool": 7690,
      "signes": 7691,
      "considérées": 7692,
      "garde": 7693,
      "label": 7694,
      "lablement": 7695,
      "documentation": 7696,
      "ajoutés": 7697,
      "sortes": 7698,
      "975": 7699,
      "9724": 7700,
      "levée": 7701,
      "fuji": 7702,
      "régimes": 7703,
      "associé": 7704,
      "littoral": 7705,
      "engagé": 7706,
      "conseille": 7707,
      "ladhésion": 7708,
      "darachides": 7709,
      "femme": 7710,
      "livestock": 7711,
      "capables": 7712,
      "capacités": 7713,
      "constant": 7714,
      "annexes": 7715,
      "universitaire": 7716,
      "1974": 7717,
      "1979": 7718,
      "pitations": 7719,
      "électrons": 7720,
      "effectué": 7721,
      "effectuent": 7722,
      "technologiques": 7723,
      "longitu": 7724,
      "farms": 7725,
      "observateur": 7726,
      "mentionner": 7727,
      "haram": 7728,
      "instituts": 7729,
      "blanches": 7730,
      "médicale": 7731,
      "évaluée": 7732,
      "kok": 7733,
      "kosher": 7734,
      "applications": 7735,
      "participer": 7736,
      "personnesressources": 7737,
      "contrebande": 7738,
      "nutritive": 7739,
      "russ": 7740,
      "chimiste": 7741,
      "remplacement": 7742,
      "propriétaires": 7743,
      "385": 7744,
      "pharmaceutique": 7745,
      "pollin": 7746,
      "demander": 7747,
      "demandent": 7748,
      "déclarations": 7749,
      "voyant": 7750,
      "hôtel": 7751,
      "manuel": 7752,
      "efficacité": 7753,
      "tardi": 7754,
      "inclut": 7755,
      "contenus": 7756,
      "amener": 7757,
      "attribuables": 7758,
      "master": 7759,
      "accepté": 7760,
      "italien": 7761,
      "choisi": 7762,
      "négociants": 7763,
      "préférence": 7764,
      "départements": 7765,
      "pense": 7766,
      "influen": 7767,
      "888": 7768,
      "bras": 7769,
      "brations": 7770,
      "provincial": 7771,
      "compétitif": 7772,
      "axés": 7773,
      "truche": 7774,
      "électroniques": 7775,
      "adaptés": 7776,
      "iii": 7777,
      "edc": 7778,
      "énoncés": 7779,
      "encourager": 7780,
      "accompagnée": 7781,
      "globaux": 7782,
      "abattoir": 7783,
      "iraniens": 7784,
      "analyses": 7785,
      "précipitations": 7786,
      "infrarouges": 7787,
      "séchage": 7788,
      "métrique": 7789,
      "additionnelles": 7790,
      "électricité": 7791,
      "manufacturing": 7792,
      "méliorer": 7793,
      "appropriée": 7794,
      "intense": 7795,
      "existent": 7796,
      "mécanismes": 7797,
      "amélioré": 7798,
      "satellites": 7799,
      "henry": 7800,
      "passage": 7801,
      "égyptiens": 7802,
      "préoccupation": 7803,
      "théorique": 7804,
      "suppose": 7805,
      "surveillance": 7806,
      "sapplique": 7807,
      "échantillon": 7808,
      "sélectionnez": 7809,
      "négatifs": 7810,
      "authenti": 7811,
      "council": 7812,
      "ultraviolet": 7813,
      "interstellaires": 7814,
      "considère": 7815,
      "atteignant": 7816,
      "synthèse": 7817,
      "forêts": 7818,
      "succursale": 7819,
      "juridique": 7820,
      "prospères": 7821,
      "exprimés": 7822,
      "apparaît": 7823,
      "enrichis": 7824,
      "dutilisation": 7825,
      "massive": 7826,
      "occupant": 7827,
      "informer": 7828,
      "permanent": 7829,
      "bolton": 7830,
      "hydrogène": 7831,
      "clock": 7832,
      "regard": 7833,
      "léquipe": 7834,
      "priorités": 7835,
      "carburant": 7836,
      "sensibilisation": 7837,
      "témoigne": 7838,
      "boîtes": 7839,
      "californie": 7840,
      "california": 7841,
      "édifice": 7842,
      "coopératives": 7843,
      "demeurera": 7844,
      "nébuleuse": 7845,
      "baisser": 7846,
      "participants": 7847,
      "robinson": 7848,
      "inconsommable": 7849,
      "accumu": 7850,
      "assume": 7851,
      "angulaire": 7852,
      "susmentionnées": 7853,
      "brunéi": 7854,
      "déclarés": 7855,
      "intitulé": 7856,
      "palay": 7857,
      "camion": 7858,
      "véritable": 7859,
      "homologues": 7860,
      "potassium": 7861,
      "parabolique": 7862,
      "exigé": 7863,
      "collaborateurs": 7864,
      "poussière": 7865,
      "fèves": 7866,
      "vraisemb": 7867,
      "rembours": 7868,
      "ffectu": 7869,
      "atmosphères": 7870,
      "graduellement": 7871,
      "joseph": 7872,
      "véhicules": 7873,
      "malaysia": 7874,
      "yellow": 7875,
      "rothney": 7876,
      "underhill": 7877,
      "constellations": 7878,
      "nielsen": 7879,
      "préférentiel": 7880,
      "défense": 7881,
      "destruction": 7882,
      "promesse": 7883,
      "conjoncture": 7884,
      "cadeaux": 7885,
      "néglige": 7886,
      "migrants": 7887,
      "orthodoxe": 7888,
      "penticton": 7889,
      "prétation": 7890,
      "pourparlers": 7891,
      "célibataires": 7892,
      "détablissements": 7893,
      "superficies": 7894,
      "hebdomad": 7895,
      "080": 7896,
      "117": 7897,
      "2e": 7898,
      "290": 7899,
      "350": 7900,
      "6e": 7901,
      "amis": 7902,
      "bê": 7903,
      "bhou": 7904,
      "cf": 7905,
      "dons": 7906,
      "dure": 7907,
      "dinter": 7908,
      "dites": 7909,
      "dresse": 7910,
      "dâge": 7911,
      "fen": 7912,
      "fest": 7913,
      "flè": 7914,
      "gs": 7915,
      "gère": 7916,
      "gilles": 7917,
      "ght": 7918,
      "hali": 7919,
      "ifiées": 7920,
      "jor": 7921,
      "kit": 7922,
      "kim": 7923,
      "kura": 7924,
      "lengage": 7925,
      "mckel": 7926,
      "nc": 7927,
      "nag": 7928,
      "nants": 7929,
      "nds": 7930,
      "nante": 7931,
      "oignons": 7932,
      "pus": 7933,
      "pion": 7934,
      "rons": 7935,
      "rité": 7936,
      "rise": 7937,
      "rares": 7938,
      "sar": 7939,
      "sri": 7940,
      "sing": 7941,
      "sard": 7942,
      "spart": 7943,
      "scel": 7944,
      "tl": 7945,
      "tter": 7946,
      "ttawa": 7947,
      "wide": 7948,
      "yles": 7949,
      "you": 7950,
      "zhe": 7951,
      "àboire": 7952,
      "èlent": 7953,
      "ét": 7954,
      "équ": 7955,
      "épar": 7956,
      "éviter": 7957,
      "îles": 7958,
      "îtra": 7959,
      "enqu": 7960,
      "andre": 7961,
      "soff": 7962,
      "soir": 7963,
      "sophi": 7964,
      "entendu": 7965,
      "levé": 7966,
      "laines": 7967,
      "latitude": 7968,
      "erration": 7969,
      "inves": 7970,
      "inég": 7971,
      "isie": 7972,
      "report": 7973,
      "recul": 7974,
      "remarque": 7975,
      "retrouvent": 7976,
      "reconnus": 7977,
      "ettes": 7978,
      "pomi": 7979,
      "potable": 7980,
      "polari": 7981,
      "ary": 7982,
      "argent": 7983,
      "lies": 7984,
      "lions": 7985,
      "chr": 7986,
      "tax": 7987,
      "tale": 7988,
      "tatif": 7989,
      "coles": 7990,
      "coil": 7991,
      "copies": 7992,
      "proviso": 7993,
      "illa": 7994,
      "illage": 7995,
      "deuses": 7996,
      "dehors": 7997,
      "deviendra": 7998,
      "ras": 7999,
      "rama": 8000,
      "condens": 8001,
      "partage": 8002,
      "parfaite": 8003,
      "ressor": 8004,
      "restru": 8005,
      "pages": 8006,
      "dégra": 8007,
      "départ": 8008,
      "détection": 8009,
      "dépasser": 8010,
      "détru": 8011,
      "démontrer": 8012,
      "aidé": 8013,
      "aimer": 8014,
      "compare": 8015,
      "réf": 8016,
      "réci": 8017,
      "récu": 8018,
      "régie": 8019,
      "esto": 8020,
      "estce": 8021,
      "auxquelles": 8022,
      "dates": 8023,
      "davis": 8024,
      "damment": 8025,
      "dahar": 8026,
      "rié": 8027,
      "river": 8028,
      "marie": 8029,
      "margar": 8030,
      "marquer": 8031,
      "exportée": 8032,
      "excéder": 8033,
      "expatri": 8034,
      "cancer": 8035,
      "cama": 8036,
      "camb": 8037,
      "cateur": 8038,
      "rol": 8039,
      "roche": 8040,
      "road": 8041,
      "roches": 8042,
      "vigoure": 8043,
      "quième": 8044,
      "acces": 8045,
      "acquisition": 8046,
      "acétique": 8047,
      "toon": 8048,
      "domi": 8049,
      "teront": 8050,
      "fices": 8051,
      "fiable": 8052,
      "mop": 8053,
      "moto": 8054,
      "moteurs": 8055,
      "moteur": 8056,
      "mir": 8057,
      "mix": 8058,
      "midi": 8059,
      "migration": 8060,
      "culaire": 8061,
      "custo": 8062,
      "nomme": 8063,
      "noirs": 8064,
      "aba": 8065,
      "abrit": 8066,
      "abran": 8067,
      "aberration": 8068,
      "nirim": 8069,
      "geant": 8070,
      "mbois": 8071,
      "entreprend": 8072,
      "entretemps": 8073,
      "entrevues": 8074,
      "sala": 8075,
      "sach": 8076,
      "saurait": 8077,
      "pertes": 8078,
      "phil": 8079,
      "voies": 8080,
      "1967": 8081,
      "1946": 8082,
      "tuy": 8083,
      "tesco": 8084,
      "attest": 8085,
      "dissement": 8086,
      "folle": 8087,
      "mines": 8088,
      "façons": 8089,
      "venait": 8090,
      "gions": 8091,
      "cerner": 8092,
      "préser": 8093,
      "igan": 8094,
      "nouer": 8095,
      "crois": 8096,
      "précé": 8097,
      "mpur": 8098,
      "interprovinciales": 8099,
      "sectes": 8100,
      "monétaire": 8101,
      "visait": 8102,
      "obtiennent": 8103,
      "gratu": 8104,
      "graves": 8105,
      "linflu": 8106,
      "rencontr": 8107,
      "culteurs": 8108,
      "rappe": 8109,
      "célé": 8110,
      "célè": 8111,
      "carrière": 8112,
      "bahre": 8113,
      "manie": 8114,
      "pping": 8115,
      "champs": 8116,
      "entiers": 8117,
      "matimop": 8118,
      "brun": 8119,
      "complets": 8120,
      "cadbury": 8121,
      "unch": 8122,
      "stier": 8123,
      "sociales": 8124,
      "soupe": 8125,
      "aisons": 8126,
      "organic": 8127,
      "organiz": 8128,
      "menées": 8129,
      "statu": 8130,
      "stables": 8131,
      "ingdao": 8132,
      "universe": 8133,
      "intérieures": 8134,
      "151": 8135,
      "153": 8136,
      "154": 8137,
      "pect": 8138,
      "gissement": 8139,
      "expend": 8140,
      "20012002": 8141,
      "lexpiration": 8142,
      "fabrique": 8143,
      "pondeuses": 8144,
      "ceptation": 8145,
      "directrice": 8146,
      "boucli": 8147,
      "volumes": 8148,
      "publiques": 8149,
      "publiées": 8150,
      "certifiés": 8151,
      "163": 8152,
      "lacs": 8153,
      "annéelumière": 8154,
      "jugé": 8155,
      "jupit": 8156,
      "tisme": 8157,
      "lobtention": 8158,
      "presse": 8159,
      "tournes": 8160,
      "créés": 8161,
      "créée": 8162,
      "fraction": 8163,
      "frambois": 8164,
      "facul": 8165,
      "annual": 8166,
      "médical": 8167,
      "médicaux": 8168,
      "productions": 8169,
      "cinquième": 8170,
      "québé": 8171,
      "estimer": 8172,
      "ckland": 8173,
      "journal": 8174,
      "atteign": 8175,
      "tablettes": 8176,
      "profits": 8177,
      "plante": 8178,
      "256": 8179,
      "titudes": 8180,
      "maintenu": 8181,
      "cliquez": 8182,
      "chargés": 8183,
      "contamin": 8184,
      "constituant": 8185,
      "constituants": 8186,
      "exemptions": 8187,
      "rouille": 8188,
      "lorsquon": 8189,
      "denvergure": 8190,
      "horaire": 8191,
      "signer": 8192,
      "signataire": 8193,
      "physiques": 8194,
      "chiffrait": 8195,
      "chiffraient": 8196,
      "hongkon": 8197,
      "971": 8198,
      "227": 8199,
      "autorou": 8200,
      "autorité": 8201,
      "ladys": 8202,
      "moutons": 8203,
      "mount": 8204,
      "matérie": 8205,
      "réduite": 8206,
      "feder": 8207,
      "phore": 8208,
      "photon": 8209,
      "indonésiennes": 8210,
      "responsabilités": 8211,
      "intéressants": 8212,
      "salles": 8213,
      "1975": 8214,
      "respect": 8215,
      "respectées": 8216,
      "observateurs": 8217,
      "cratique": 8218,
      "photos": 8219,
      "photomètre": 8220,
      "jection": 8221,
      "personnelle": 8222,
      "étiquetés": 8223,
      "installation": 8224,
      "assure": 8225,
      "spécialise": 8226,
      "bangkok": 8227,
      "figurer": 8228,
      "webb": 8229,
      "médicament": 8230,
      "débuté": 8231,
      "contrôler": 8232,
      "opport": 8233,
      "radioastrophysique": 8234,
      "trouveront": 8235,
      "trouverez": 8236,
      "danois": 8237,
      "correspondre": 8238,
      "dominées": 8239,
      "occidentales": 8240,
      "ronter": 8241,
      "consulté": 8242,
      "consultez": 8243,
      "concentrent": 8244,
      "995": 8245,
      "modifiées": 8246,
      "orientale": 8247,
      "voyages": 8248,
      "ccc": 8249,
      "congelée": 8250,
      "credit": 8251,
      "contenue": 8252,
      "598": 8253,
      "environnementales": 8254,
      "paul": 8255,
      "déléguée": 8256,
      "pouvoirs": 8257,
      "fréquence": 8258,
      "dessert": 8259,
      "acceptation": 8260,
      "solidement": 8261,
      "rurale": 8262,
      "marquées": 8263,
      "satisfont": 8264,
      "commencer": 8265,
      "autosuffisance": 8266,
      "automobi": 8267,
      "chaude": 8268,
      "garantie": 8269,
      "cyg": 8270,
      "circonst": 8271,
      "classent": 8272,
      "classés": 8273,
      "classait": 8274,
      "restriction": 8275,
      "primaire": 8276,
      "précises": 8277,
      "gagner": 8278,
      "kuala": 8279,
      "renforce": 8280,
      "inférieures": 8281,
      "inférieurs": 8282,
      "découvertes": 8283,
      "signifi": 8284,
      "concurrencer": 8285,
      "ssurance": 8286,
      "arrivent": 8287,
      "distincts": 8288,
      "ploitant": 8289,
      "infec": 8290,
      "globalement": 8291,
      "matériau": 8292,
      "cellule": 8293,
      "saigon": 8294,
      "obtenues": 8295,
      "campag": 8296,
      "analyste": 8297,
      "semestre": 8298,
      "violation": 8299,
      "exercer": 8300,
      "détecteur": 8301,
      "modestes": 8302,
      "dimportantes": 8303,
      "appropriées": 8304,
      "printemps": 8305,
      "sunkist": 8306,
      "administrative": 8307,
      "administratifs": 8308,
      "dynamiques": 8309,
      "orbite": 8310,
      "bénéficient": 8311,
      "haïfa": 8312,
      "approvisionnent": 8313,
      "…………………………………………": 8314,
      "lavantage": 8315,
      "intrabran": 8316,
      "maxim": 8317,
      "téroséismo": 8318,
      "festival": 8319,
      "écossais": 8320,
      "doffres": 8321,
      "appartiennent": 8322,
      "irriguées": 8323,
      "fléchissement": 8324,
      "kandahar": 8325,
      "kraine": 8326,
      "infoexport": 8327,
      "synthé": 8328,
      "baies": 8329,
      "éloignée": 8330,
      "pertise": 8331,
      "dépenser": 8332,
      "shei": 8333,
      "parallèles": 8334,
      "inauguration": 8335,
      "dutiliser": 8336,
      "compétente": 8337,
      "sectoriel": 8338,
      "prairies": 8339,
      "ourse": 8340,
      "rigoureuses": 8341,
      "léquipement": 8342,
      "clubmarket": 8343,
      "répercussions": 8344,
      "boîte": 8345,
      "domestique": 8346,
      "domestiques": 8347,
      "planification": 8348,
      "nébuleuses": 8349,
      "adolescents": 8350,
      "décrire": 8351,
      "méridien": 8352,
      "méridion": 8353,
      "industrialisés": 8354,
      "ethniques": 8355,
      "meiji": 8356,
      "carottes": 8357,
      "thaïlandaises": 8358,
      "control": 8359,
      "souligner": 8360,
      "factbook": 8361,
      "quotidiennement": 8362,
      "fléchi": 8363,
      "légende": 8364,
      "efficient": 8365,
      "invités": 8366,
      "archives": 8367,
      "transporteur": 8368,
      "harmonisé": 8369,
      "conjointement": 8370,
      "avoca": 8371,
      "magazine": 8372,
      "aléatoire": 8373,
      "limitro": 8374,
      "lautomne": 8375,
      "horticulture": 8376,
      "inconvénients": 8377,
      "america": 8378,
      "sucrées": 8379,
      "complémentaires": 8380,
      "dexploitations": 8381,
      "afférentes": 8382,
      "frigorifiques": 8383,
      "citoyens": 8384,
      "péninsule": 8385,
      "paragraphe": 8386,
      "jln": 8387,
      "etrangeres": 8388,
      "michigan": 8389,
      "nominale": 8390,
      "demployés": 8391,
      "xinjiang": 8392,
      "évidence": 8393,
      "larabie": 8394,
      "exotiques": 8395,
      "pollinisation": 8396,
      "bhoutan": 8397,
      "mckellar": 8398,
      "spartan": 8399,
      "investis": 8400,
      "restruct": 8401,
      "margarine": 8402,
      "expatriés": 8403,
      "domicile": 8404,
      "attestant": 8405,
      "linfluence": 8406,
      "bahreïn": 8407,
      "organization": 8408,
      "bouclier": 8409,
      "jupiter": 8410,
      "québéco": 8411,
      "atteignaient": 8412,
      "024": 8413,
      "0239": 8414,
      "215": 8415,
      "214": 8416,
      "329": 8417,
      "624": 8418,
      "670": 8419,
      "844": 8420,
      "848": 8421,
      "amu": 8422,
      "aquaculture": 8423,
      "achemin": 8424,
      "ajin": 8425,
      "bâ": 8426,
      "blon": 8427,
      "broy": 8428,
      "cant": 8429,
      "clar": 8430,
      "fl": 8431,
      "fpo": 8432,
      "fvo": 8433,
      "hec": 8434,
      "ida": 8435,
      "izon": 8436,
      "imart": 8437,
      "llement": 8438,
      "mens": 8439,
      "mette": 8440,
      "mcle": 8441,
      "mgcca": 8442,
      "niss": 8443,
      "nanti": 8444,
      "naccorde": 8445,
      "nago": 8446,
      "nkr": 8447,
      "oce": 8448,
      "oire": 8449,
      "omoto": 8450,
      "pend": 8451,
      "qat": 8452,
      "sante": 8453,
      "swe": 8454,
      "tans": 8455,
      "tland": 8456,
      "tdgcca": 8457,
      "ua": 8458,
      "vens": 8459,
      "wis": 8460,
      "wers": 8461,
      "xia": 8462,
      "ye": 8463,
      "àvis": 8464,
      "éto": 8465,
      "émettre": 8466,
      "étendre": 8467,
      "éprou": 8468,
      "espa": 8469,
      "espère": 8470,
      "enrob": 8471,
      "times": 8472,
      "sodi": 8473,
      "sori": 8474,
      "sovi": 8475,
      "soix": 8476,
      "ententes": 8477,
      "leve": 8478,
      "lements": 8479,
      "leven": 8480,
      "late": 8481,
      "laine": 8482,
      "laff": 8483,
      "lachet": 8484,
      "laéro": 8485,
      "ercice": 8486,
      "intes": 8487,
      "intra": 8488,
      "incité": 8489,
      "indépen": 8490,
      "islam": 8491,
      "rel": 8492,
      "rey": 8493,
      "remer": 8494,
      "regroupe": 8495,
      "republic": 8496,
      "reconnue": 8497,
      "reconstruction": 8498,
      "recourir": 8499,
      "ete": 8500,
      "etlabrador": 8501,
      "quau": 8502,
      "quaux": 8503,
      "itr": 8504,
      "ittee": 8505,
      "duction": 8506,
      "dessence": 8507,
      "lidée": 8508,
      "chal": 8509,
      "chton": 8510,
      "chasse": 8511,
      "tas": 8512,
      "tatives": 8513,
      "tacarot": 8514,
      "cote": 8515,
      "prot": 8516,
      "promen": 8517,
      "ouc": 8518,
      "outch": 8519,
      "ily": 8520,
      "illus": 8521,
      "segu": 8522,
      "seatt": 8523,
      "dela": 8524,
      "degr": 8525,
      "rabais": 8526,
      "conva": 8527,
      "orion": 8528,
      "antenne": 8529,
      "antennes": 8530,
      "lumin": 8531,
      "lumpur": 8532,
      "parité": 8533,
      "produis": 8534,
      "pair": 8535,
      "path": 8536,
      "détent": 8537,
      "dépassé": 8538,
      "débat": 8539,
      "détenue": 8540,
      "décroissant": 8541,
      "détude": 8542,
      "déménage": 8543,
      "délargir": 8544,
      "déviter": 8545,
      "ciir": 8546,
      "cibles": 8547,
      "cium": 8548,
      "commande": 8549,
      "comète": 8550,
      "réta": 8551,
      "réforme": 8552,
      "albert": 8553,
      "allou": 8554,
      "sif": 8555,
      "sir": 8556,
      "sier": 8557,
      "veau": 8558,
      "veurs": 8559,
      "dasie": 8560,
      "dattes": 8561,
      "datte": 8562,
      "daméliorer": 8563,
      "daily": 8564,
      "rice": 8565,
      "rières": 8566,
      "riennes": 8567,
      "immu": 8568,
      "imposés": 8569,
      "exter": 8570,
      "expres": 8571,
      "exchange": 8572,
      "expositions": 8573,
      "extrait": 8574,
      "excessi": 8575,
      "existence": 8576,
      "canning": 8577,
      "caoutch": 8578,
      "peau": 8579,
      "peig": 8580,
      "loo": 8581,
      "logan": 8582,
      "lodge": 8583,
      "rock": 8584,
      "rotation": 8585,
      "agir": 8586,
      "agglomé": 8587,
      "vivre": 8588,
      "viendront": 8589,
      "vibrations": 8590,
      "sure": 8591,
      "surmonter": 8592,
      "légi": 8593,
      "tremaine": 8594,
      "town": 8595,
      "dours": 8596,
      "dottawa": 8597,
      "tera": 8598,
      "ters": 8599,
      "moi": 8600,
      "motiv": 8601,
      "verser": 8602,
      "cuter": 8603,
      "milling": 8604,
      "notes": 8605,
      "noire": 8606,
      "inscrire": 8607,
      "installe": 8608,
      "abi": 8609,
      "millimétriques": 8610,
      "mbai": 8611,
      "entretient": 8612,
      "métaux": 8613,
      "mélang": 8614,
      "méteil": 8615,
      "savérer": 8616,
      "sadresse": 8617,
      "mers": 8618,
      "phu": 8619,
      "philo": 8620,
      "1948": 8621,
      "1968": 8622,
      "1943": 8623,
      "1966": 8624,
      "pée": 8625,
      "tesse": 8626,
      "disposés": 8627,
      "miner": 8628,
      "fame": 8629,
      "faces": 8630,
      "venaient": 8631,
      "giques": 8632,
      "lisée": 8633,
      "paysages": 8634,
      "géni": 8635,
      "gérer": 8636,
      "préa": 8637,
      "prévoir": 8638,
      "gul": 8639,
      "guet": 8640,
      "gués": 8641,
      "friture": 8642,
      "naie": 8643,
      "nataires": 8644,
      "interne": 8645,
      "mongo": 8646,
      "monnaie": 8647,
      "visu": 8648,
      "visé": 8649,
      "visàvis": 8650,
      "observation": 8651,
      "lintroduction": 8652,
      "lleuse": 8653,
      "lancée": 8654,
      "nistes": 8655,
      "gare": 8656,
      "gastron": 8657,
      "galac": 8658,
      "gazé": 8659,
      "misphère": 8660,
      "londres": 8661,
      "ellemême": 8662,
      "carto": 8663,
      "baisses": 8664,
      "mandat": 8665,
      "couvre": 8666,
      "couvrent": 8667,
      "agement": 8668,
      "eule": 8669,
      "cortland": 8670,
      "centrales": 8671,
      "augmentera": 8672,
      "utiques": 8673,
      "omy": 8674,
      "mumbai": 8675,
      "bioinformatique": 8676,
      "beals": 8677,
      "dépôt": 8678,
      "fournie": 8679,
      "compli": 8680,
      "ronald": 8681,
      "populations": 8682,
      "fructu": 8683,
      "fération": 8684,
      "crusta": 8685,
      "mena": 8686,
      "menée": 8687,
      "doutils": 8688,
      "205": 8689,
      "omique": 8690,
      "ington": 8691,
      "intégration": 8692,
      "réside": 8693,
      "158": 8694,
      "fonde": 8695,
      "fondé": 8696,
      "fondées": 8697,
      "shop": 8698,
      "187": 8699,
      "188": 8700,
      "pouvons": 8701,
      "pouvaient": 8702,
      "marqueurs": 8703,
      "explor": 8704,
      "lexploitant": 8705,
      "pondé": 8706,
      "placé": 8707,
      "supernova": 8708,
      "supervalue": 8709,
      "tricité": 8710,
      "bout": 8711,
      "publiée": 8712,
      "antiparas": 8713,
      "pium": 8714,
      "164": 8715,
      "505": 8716,
      "506": 8717,
      "143": 8718,
      "1414": 8719,
      "provenaient": 8720,
      "spécifiés": 8721,
      "jume": 8722,
      "juge": 8723,
      "lobservation": 8724,
      "presti": 8725,
      "échelon": 8726,
      "tourne": 8727,
      "tourteaux": 8728,
      "tourteau": 8729,
      "créneaux": 8730,
      "fermes": 8731,
      "fermer": 8732,
      "jouer": 8733,
      "fray": 8734,
      "particule": 8735,
      "dinh": 8736,
      "facilité": 8737,
      "factures": 8738,
      "236": 8739,
      "variant": 8740,
      "variables": 8741,
      "174": 8742,
      "dextr": 8743,
      "probable": 8744,
      "grounds": 8745,
      "transformer": 8746,
      "situent": 8747,
      "situant": 8748,
      "calcium": 8749,
      "plantations": 8750,
      "trouvé": 8751,
      "troupeaux": 8752,
      "dimportations": 8753,
      "typi": 8754,
      "systé": 8755,
      "arables": 8756,
      "connaissement": 8757,
      "permettr": 8758,
      "charger": 8759,
      "accordent": 8760,
      "affronter": 8761,
      "bassest": 8762,
      "exempts": 8763,
      "lorsquun": 8764,
      "déshydra": 8765,
      "malaisienne": 8766,
      "physio": 8767,
      "specta": 8768,
      "spectr": 8769,
      "frica": 8770,
      "continuellement": 8771,
      "ajoutant": 8772,
      "débouché": 8773,
      "sorti": 8774,
      "sorties": 8775,
      "9722": 8776,
      "fusion": 8777,
      "équivaut": 8778,
      "associée": 8779,
      "berries": 8780,
      "litalie": 8781,
      "concernent": 8782,
      "explorez": 8783,
      "263": 8784,
      "livrer": 8785,
      "euxmêmes": 8786,
      "consist": 8787,
      "multitude": 8788,
      "275": 8789,
      "mielleuse": 8790,
      "296": 8791,
      "kala": 8792,
      "287": 8793,
      "indonésien": 8794,
      "indonésienne": 8795,
      "salé": 8796,
      "fonctionnement": 8797,
      "animales": 8798,
      "employer": 8799,
      "manila": 8800,
      "répondu": 8801,
      "ancien": 8802,
      "anciens": 8803,
      "1986": 8804,
      "1988": 8805,
      "488": 8806,
      "craig": 8807,
      "333": 8808,
      "338": 8809,
      "réglementations": 8810,
      "barrie": 8811,
      "expliqué": 8812,
      "expliquent": 8813,
      "citron": 8814,
      "ministry": 8815,
      "précau": 8816,
      "korea": 8817,
      "participent": 8818,
      "acidité": 8819,
      "pharmacies": 8820,
      "biscuit": 8821,
      "quarts": 8822,
      "travaillant": 8823,
      "exportsource": 8824,
      "processing": 8825,
      "dominique": 8826,
      "airs": 8827,
      "territori": 8828,
      "européennes": 8829,
      "recombin": 8830,
      "sydney": 8831,
      "committee": 8832,
      "demandés": 8833,
      "graphe": 8834,
      "auraient": 8835,
      "jeudi": 8836,
      "creux": 8837,
      "aucunement": 8838,
      "conteneur": 8839,
      "dépendent": 8840,
      "alcoolisée": 8841,
      "bactéri": 8842,
      "mort": 8843,
      "urbain": 8844,
      "progresser": 8845,
      "correspondant": 8846,
      "initiative": 8847,
      "accepte": 8848,
      "accepter": 8849,
      "acceptée": 8850,
      "réfrigération": 8851,
      "suffisantes": 8852,
      "définies": 8853,
      "réussit": 8854,
      "pétrolière": 8855,
      "approuvée": 8856,
      "lutilisateur": 8857,
      "autosuffisant": 8858,
      "autochton": 8859,
      "apparition": 8860,
      "adoptée": 8861,
      "hérent": 8862,
      "garanties": 8863,
      "gene": 8864,
      "tagalo": 8865,
      "comparer": 8866,
      "réservé": 8867,
      "classes": 8868,
      "précision": 8869,
      "gagnent": 8870,
      "jaunes": 8871,
      "algérien": 8872,
      "antillons": 8873,
      "aigrelette": 8874,
      "sélevant": 8875,
      "douanière": 8876,
      "fiscal": 8877,
      "suppléments": 8878,
      "axé": 8879,
      "horizon": 8880,
      "lyle": 8881,
      "commentaire": 8882,
      "accompagner": 8883,
      "accompagnés": 8884,
      "magnétisme": 8885,
      "structur": 8886,
      "iraniennes": 8887,
      "limited": 8888,
      "sinscrit": 8889,
      "entraîne": 8890,
      "irage": 8891,
      "cultivés": 8892,
      "stanley": 8893,
      "phérique": 8894,
      "complexes": 8895,
      "électriques": 8896,
      "sirops": 8897,
      "existant": 8898,
      "mécaniques": 8899,
      "égyptien": 8900,
      "bénéficier": 8901,
      "floor": 8902,
      "exceptionnel": 8903,
      "étroites": 8904,
      "purdy": 8905,
      "supprim": 8906,
      "surveiller": 8907,
      "frontières": 8908,
      "cosmologie": 8909,
      "sacs": 8910,
      "tranches": 8911,
      "tranchés": 8912,
      "changent": 8913,
      "alliances": 8914,
      "déquipement": 8915,
      "circuit": 8916,
      "frapp": 8917,
      "enterprise": 8918,
      "législa": 8919,
      "louis": 8920,
      "quitte": 8921,
      "révèlent": 8922,
      "exactement": 8923,
      "navires": 8924,
      "transparent": 8925,
      "raffinée": 8926,
      "raffinées": 8927,
      "nordaméricain": 8928,
      "nordaméricains": 8929,
      "comprenant": 8930,
      "noyaux": 8931,
      "pénuries": 8932,
      "étendu": 8933,
      "estimatif": 8934,
      "fairgrounds": 8935,
      "tomate": 8936,
      "fournissant": 8937,
      "shipping": 8938,
      "aéroports": 8939,
      "sectorielles": 8940,
      "aspect": 8941,
      "affirme": 8942,
      "virtuel": 8943,
      "accessible": 8944,
      "accessibles": 8945,
      "datacama": 8946,
      "continentale": 8947,
      "textile": 8948,
      "élaboré": 8949,
      "sextant": 8950,
      "fermenté": 8951,
      "nettoy": 8952,
      "robinsons": 8953,
      "nanjing": 8954,
      "déchantillons": 8955,
      "agency": 8956,
      "modérée": 8957,
      "thaïlandaise": 8958,
      "7eleven": 8959,
      "bagu": 8960,
      "glucides": 8961,
      "divisé": 8962,
      "impliqué": 8963,
      "bouteilles": 8964,
      "pharmaceuticals": 8965,
      "pertinents": 8966,
      "artificielle": 8967,
      "artificiels": 8968,
      "sintéressent": 8969,
      "souplissement": 8970,
      "raisonnable": 8971,
      "atteindra": 8972,
      "636335": 8973,
      "terreneuveetlabrador": 8974,
      "fantaisie": 8975,
      "speci": 8976,
      "éducation": 8977,
      "envoyer": 8978,
      "mathématiques": 8979,
      "simuler": 8980,
      "prospérité": 8981,
      "cachère": 8982,
      "résidents": 8983,
      "cooperation": 8984,
      "signalé": 8985,
      "céréaliers": 8986,
      "manufacturier": 8987,
      "reflète": 8988,
      "ajuster": 8989,
      "dcv": 8990,
      "énumérés": 8991,
      "marocains": 8992,
      "fidèles": 8993,
      "traceutiques": 8994,
      "déplacements": 8995,
      "globulaires": 8996,
      "eastman": 8997,
      "méditerranée": 8998,
      "pilote": 8999,
      "écarts": 9000,
      "sophis": 9001,
      "disparaître": 9002,
      "judiciaire": 9003,
      "dinstruments": 9004,
      "approfondie": 9005,
      "lapparition": 9006,
[...]
